{"!":0,"\"":1,"#":2,"$":3,"%":4,"&":5,"'":6,"(":7,")":8,"*":9,"+":10,",":11,"-":12,".":13,"/":14,"0":15,"1":16,"2":17,"3":18,"4":19,"5":20,"6":21,"7":22,"8":23,"9":24,":":25,";":26,"<":27,"=":28,">":29,"?":30,"@":31,"A":32,"B":33,"C":34,"D":35,"E":36,"F":37,"G":38,"H":39,"I":40,"J":41,"K":42,"L":43,"M":44,"N":45,"O":46,"P":47,"Q":48,"R":49,"S":50,"T":51,"U":52,"V":53,"W":54,"X":55,"Y":56,"Z":57,"[":58,"\\":59,"]":60,"^":61,"_":62,"`":63,"a":64,"b":65,"c":66,"d":67,"e":68,"f":69,"g":70,"h":71,"i":72,"j":73,"k":74,"l":75,"m":76,"n":77,"o":78,"p":79,"q":80,"r":81,"s":82,"t":83,"u":84,"v":85,"w":86,"x":87,"y":88,"z":89,"{":90,"|":91,"}":92,"~":93,"¡":94,"¢":95,"£":96,"¤":97,"¥":98,"¦":99,"§":100,"¨":101,"©":102,"ª":103,"«":104,"¬":105,"®":106,"¯":107,"°":108,"±":109,"²":110,"³":111,"´":112,"µ":113,"¶":114,"·":115,"¸":116,"¹":117,"º":118,"»":119,"¼":120,"½":121,"¾":122,"¿":123,"À":124,"Á":125,"Â":126,"Ã":127,"Ä":128,"Å":129,"Æ":130,"Ç":131,"È":132,"É":133,"Ê":134,"Ë":135,"Ì":136,"Í":137,"Î":138,"Ï":139,"Ð":140,"Ñ":141,"Ò":142,"Ó":143,"Ô":144,"Õ":145,"Ö":146,"×":147,"Ø":148,"Ù":149,"Ú":150,"Û":151,"Ü":152,"Ý":153,"Þ":154,"ß":155,"à":156,"á":157,"â":158,"ã":159,"ä":160,"å":161,"æ":162,"ç":163,"è":164,"é":165,"ê":166,"ë":167,"ì":168,"í":169,"î":170,"ï":171,"ð":172,"ñ":173,"ò":174,"ó":175,"ô":176,"õ":177,"ö":178,"÷":179,"ø":180,"ù":181,"ú":182,"û":183,"ü":184,"ý":185,"þ":186,"ÿ":187,"Ā":188,"ā":189,"Ă":190,"ă":191,"Ą":192,"ą":193,"Ć":194,"ć":195,"Ĉ":196,"ĉ":197,"Ċ":198,"ċ":199,"Č":200,"č":201,"Ď":202,"ď":203,"Đ":204,"đ":205,"Ē":206,"ē":207,"Ĕ":208,"ĕ":209,"Ė":210,"ė":211,"Ę":212,"ę":213,"Ě":214,"ě":215,"Ĝ":216,"ĝ":217,"Ğ":218,"ğ":219,"Ġ":220,"ġ":221,"Ģ":222,"ģ":223,"Ĥ":224,"ĥ":225,"Ħ":226,"ħ":227,"Ĩ":228,"ĩ":229,"Ī":230,"ī":231,"Ĭ":232,"ĭ":233,"Į":234,"į":235,"İ":236,"ı":237,"Ĳ":238,"ĳ":239,"Ĵ":240,"ĵ":241,"Ķ":242,"ķ":243,"ĸ":244,"Ĺ":245,"ĺ":246,"Ļ":247,"ļ":248,"Ľ":249,"ľ":250,"Ŀ":251,"ŀ":252,"Ł":253,"ł":254,"Ń":255,"EO":256,"EOL":257,"DE":258,"se":259,"NT":260,"DENT":261,"><":262,")<":263,"re":264,"sel":265,"self":266,"in":267,"on":268,"te":269,"de":270,"IN":271,":<":272,"INDENT":273,"DEDENT":274,"or":275,"st":276,">'":277,"Ġ<":278,"me":279,"at":280,"le":281,"al":282,"ST":283,"IT":284,"STR":285,"LIT":286,"er":287,"ar":288,"):<":289,"'<":290,",<":291,"as":292,"ti":293,"an":294,"ge":295,"ro":296,"ur":297,"def":298,"ue":299,"mp":300,"ce":301,"if":302,"ame":303,"Ġ:<":304,"en":305,"ser":306,"co":307,">'<":308,"fi":309,"Ġ[":310,"name":311,"el":312,"':":313,"ct":314,"ort":315,"lo":316,"ret":317,"ate":318,"',":319,"__":320,"it":321,"id":322,"urn":323,"return":324,"tr":325,"ch":326,"Ġi":327,"get":328,"pe":329,"con":330,"ut":331,"ex":332,"un":333,"mport":334,"li":335,"()<":336,"tion":337,"ad":338,"res":339,"for":340,"ck":341,"no":342,"si":343,"one":344,"ma":345,"ing":346,"ul":347,"('<":348,"ter":349,"('":350,"sert":351,"di":352,"nt":353,"mo":354,"assert":355,"cl":356,"None":357,"))<":358,"rom":359,"ass":360,"ap":361,"val":362,"from":363,"._":364,"th":365,"Tr":366,"]<":367,"ty":368,",,":369,"arg":370,"test":371,"op":372,"Ġin":373,"ri":374,"set":375,"ke":376,"up":377,"Ġ'<":378,"True":379,"ata":380,"pat":381,"qu":382,"),":383,"='":384,"Ġimport":385,"and":386,"ab":387,"','":388,"to":389,"ult":390,"ver":391,"ob":392,"Ġself":393,"ect":394,"),<":395,">',":396,"ror":397,"ati":398,"file":399,"is":400,"':'":401,"pro":402,"ra":403,"args":404,"path":405,"es":406,"et":407,"class":408,"data":409,"ol":410,"']":411,"der":412,"par":413,"il":414,"type":415,"key":416,"int":417,"value":418,"que":419,"ation":420,"not":421,"obj":422,"ms":423,"age":424,"ction":425,"vi":426,"str":427,"len":428,"Ġ['":429,"la":430,"{'":431,"os":432,"],":433,"app":434,"um":435,"')<":436,"=[":437,"ss":438,"ase":439,"ent":440,"del":441,"xt":442,"sion":443,"ed":444,"\",":445,"do":446,"eld":447,"time":448,"qual":449,"import":450,"(<":451,"rror":452,"pa":453,"Error":454,"Ġnot":455,"alse":456,"cep":457,"ment":458,"end":459,"sh":460,"ne":461,"bu":462,"False":463,"text":464,"',<":465,"=<":466,"add":467,">')<":468,"else":469,"all":470,"out":471,"lin":472,"ta":473,"quest":474,"Ġis":475,"(\"":476,"Ġtest":477,").":478,"able":479,"mat":480,"ve":481,"Ġ]":482,"Equal":483,"Ġ+":484,"ub":485,"log":486,"fo":487,"='<":488,"user":489,"ance":490,"result":491,"per":492,"url":493,"po":494,"==":495,"date":496,"assertEqual":497,"pr":498,"bo":499,"us":500,"ise":501,"list":502,"object":503,"request":504,"code":505,"inst":506,"ted":507,"che":508,">',<":509,"Ġ__":510,"col":511,"'}":512,"Ġs":513,"model":514,"fig":515,"py":516,",'":517,"[],":518,"put":519,"try":520,"__(":521,"attr":522,"wor":523,"ault":524,"ig":525,"cre":526,"db":527,",,,,":528,"est":529,"excep":530,"ze":531,"In":532,">',[],":533,"ack":534,"resp":535,"max":536,"raise":537,"default":538,">',[],{'":539,"he":540,"ĠNone":541,"Ġ_":542,">@":543,"kw":544,"node":545,"onse":546,"com":547,"instance":548,"ip":549,"Re":550,"fa":551,"ys":552,"()":553,"ith":554,"sc":555,"our":556,"Ġ[]":557,"ot":558,"field":559,"pl":560,"ite":561,"du":562,"ER":563,"BO":564,"art":565,"Fi":566,"**":567,"Test":568,"ht":569,"':('<":570,"Con":571,"}<":572,"config":573,"init":574,"print":575,"lient":576,"ource":577,"dir":578,"=\"":579,"pre":580,"ger":581,"(,":582,"EOF":583,"od":584,"ic":585,"dict":586,"BOF":587,"():<":588,"ure":589,"kwargs":590,"create":591,"read":592,"ange":593,"response":594,"with":595,".__":596,"append":597,"ader":598,"port":599,"dex":600,"unt":601,"\")<":602,"except":603,"stat":604,"ype":605,"Ex":606,"comp":607,"gth":608,"line":609,"format":610,"aut":611,"ca":612,"ho":613,"'}),<":614,"ler":615,"om":616,"min":617,"pass":618,"roup":619,"error":620,"til":621,"rip":622,"late":623,"am":624,">'%":625,"start":626,"cur":627,"{<":628,"client":629,"base":630,"length":631,"rent":632,"new":633,"sub":634,"ac":635,">\"":636,"RE":637,"info":638,"ff":639,"ist":640,"tions":641,"\",\"":642,"fun":643,"ew":644,"ild":645,"comm":646,"pec":647,"\":":648,"np":649,"ON":650,"sa":651,"ang":652,"thod":653,"AT":654,"util":655,"ten":656,"cess":657,"ts":658,"ject":659,"context":660,"jo":661,"ory":662,"temp":663,"has":664,"Ġ]<":665,"Ġ:":666,"form":667,"wri":668,"count":669,"Ġget":670,"mess":671,"son":672,"index":673,"message":674,"Mo":675,"back":676,"tent":677,"main":678,"version":679,"group":680,"size":681,"num":682,"join":683,"])<":684,"load":685,"Type":686,"method":687,"Ġd":688,">':":689,"ings":690,"ull":691,"ery":692,",**":693,"([":694,"tra":695,"vice":696,"elif":697,"())<":698,"Ġ'":699,"ext":700,"cal":701,"red":702,"ask":703,"Val":704,"write":705,"models":706,"mage":707,"call":708,"bl":709,"ok":710,"vent":711,"auth":712,"Ġre":713,"work":714,">_":715,"ary":716,"ds":717,"ator":718,"fil":719,"status":720,"':'<":721,"update":722,"header":723,"map":724,"Pro":725,"ec":726,"low":727,"ali":728,"state":729,"pla":730,"run":731,"ber":732,"OR":733,"lib":734,"ams":735,"Field":736,"ute":737,"St":738,"string":739,"mock":740,"ner":741,"=='":742,"sys":743,"Ġf":744,"msg":745,"dule":746,"ses":747,"ind":748,"table":749,"parse":750,"LE":751,"ans":752,"valid":753,"json":754,"mple":755,"check":756,"query":757,"\"<":758,"gin":759,"Ġc":760,"ank":761,"')":762,"=[]<":763,"output":764,"ml":765,"Name":766,"tag":767,"params":768,"gr":769,"Ġ*":770,"host":771,"cls":772,"']<":773,"tok":774,"abel":775,"by":776,"da":777,"tp":778,"content":779,"dis":780,"view":781,"ME":782,"ren":783,"scrip":784,"Str":785,"fe":786,",,,,,,,,":787,"net":788,"Co":789,"row":790,"reg":791,"open":792,"hel":793,"token":794,"filter":795,"['":796,"Lo":797,"pi":798,"\",<":799,"doc":800,"range":801,"Ġand":802,"den":803,"module":804,"Value":805,"options":806,"lic":807,"':<":808,"blank":809,"utils":810,"nd":811,",)<":812,"sett":813,"hand":814,"ity":815,"Ġ-":816,"tem":817,"umn":818,"var":819,"Ġas":820,"filename":821,"api":822,"00":823,"ango":824,"action":825,"sig":826,"sha":827,"image":828,"ow":829,"jango":830,"uni":831,"template":832,"orm":833,"lock":834,"pri":835,"Ġisinstance":836,"ument":837,"arget":838,"ile":839,"={":840,"lete":841,"md":842,"},<":843,"label":844,"=_":845,"spa":846,"fix":847,"AL":848,"event":849,"su":850,"cor":851,"word":852,"(),":853,"Res":854,"SE":855,"server":856,"so":857,"ray":858,"null":859,"Ġ[:":860,"im":861,"ress":862,"settings":863,"ces":864,"mb":865,"ibu":866,"sup":867,"clo":868,"objects":869,"Excep":870,"proper":871,"nection":872,"().":873,"parser":874,"Exception":875,"dy":876,"target":877,"ibute":878,"source":879,"']=":880,"und":881,",'<":882,"inter":883,"ele":884,"command":885,"item":886,"func":887,"pos":888,"man":889,"Ġdjango":890,"Ġos":891,",\"":892,"dow":893,"plit":894,"fields":895,"=(":896,"})<":897,"Ch":898,"cket":899,"=,":900,"match":901,"Data":902,"Ġx":903,"ID":904,"input":905,"],<":906,"act":907,"ref":908,"ies":909,"conn":910,"cont":911,"unit":912,"Ke":913,"eta":914,"parent":915,"values":916,">}<":917,"wid":918,"De":919,"ĠS":920,"vel":921,"CO":922,"split":923,"Ġ\"":924,"No":925,"ther":926,"we":927,"process":928,"bug":929,"items":930,"Case":931,"ib":932,"iter":933,"sign":934,"Di":935,"qui":936,"ree":937,"ag":938,"Ġp":939,"AR":940,"Ġ[\"":941,"trans":942,"),('":943,"body":944,"zer":945,"Ġlen":946,"array":947,"space":948,"rect":949,"File":950,"Key":951,">','":952,"help":953,"child":954,"Ad":955,"headers":956,"((":957,"delete":958,"ax":959,"'])<":960,"pected":961,"tle":962,"current":963,"nu":964,"String":965,"tern":966,"'%":967,"pack":968,"LO":969,"Ġor":970,"12":971,"Ġ]=":972,"cle":973,"expected":974,"loc":975,"Ġset":976,"TE":977,"arch":978,"service":979,"project":980,"FI":981,"use":982,"32":983,"arn":984,"column":985,"loat":986,"ule":987,"other":988,"debug":989,"session":990,"ore":991,"=)<":992,"GE":993,"Ġt":994,"ging":995,"root":996,"ron":997,"datetime":998,"mer":999,"Ġ%":1000,"ll":1001,"sor":1002,"cache":1003,"descrip":1004,"Not":1005,"wh":1006,"ard":1007,"AC":1008,"close":1009,"PE":1010,"TestCase":1011,"resource":1012,"dep":1013,"property":1014,"Base":1015,"exec":1016,"mail":1017,"link":1018,"title":1019,"ION":1020,"wa":1021,"order":1022,"Ġ])<":1023,"rame":1024,"Model":1025,"ph":1026,"remo":1027,"super":1028,"ly":1029,"AN":1030,"'):<":1031,"sy":1032,"nel":1033,"ine":1034,"Ġ>":1035,"core":1036,"Par":1037,"http":1038,"copy":1039,"lu":1040,"={<":1041,"connection":1042,"cmd":1043,"uid":1044,"ager":1045,"List":1046,"old":1047,"patch":1048,"!=":1049,"mis":1050,"ations":1051,"logger":1052,"rand":1053,"task":1054,"--":1055,"lob":1056,"logging":1057,"keys":1058,"make":1059,"foo":1060,"mary":1061,"RO":1062,"names":1063,"={}<":1064,"Ġ[]<":1065,"Ser":1066,"point":1067,"User":1068,"Set":1069,"(*":1070,"post":1071,"next":1072,"\"]":1073,"Ġb":1074,">'%(":1075,"last":1076,"Com":1077,"env":1078,"local":1079,"Col":1080,"NA":1081,"mit":1082,"exp":1083,"shape":1084,"build":1085,"\"%":1086,"Po":1087,"ValueError":1088,"=['":1089,"assertTrue":1090,"SS":1091,"tes":1092,"req":1093,"'))<":1094,"description":1095,")==":1096,"spec":1097,"types":1098,"Ob":1099,"function":1100,"ĠA":1101,"ant":1102,"rst":1103,"ĠM":1104,"(_":1105,"now":1106,"'),":1107,"als":1108,"uct":1109,"float":1110,"Ġe":1111,"job":1112,"mod":1113,"Id":1114,"lag":1115,">},<":1116,"denti":1117,"tive":1118,",*":1119,">[":1120,"number":1121,"domain":1122,"mode":1123,"ude":1124,"ime":1125,"handler":1126,"ream":1127,"place":1128,"En":1129,"rc":1130,"prefix":1131,"fact":1132,"ker":1133,"color":1134,"))":1135,"raw":1136,"ight":1137,"page":1138,"direct":1139,"err":1140,"exten":1141,"ep":1142,"level":1143,"off":1144,"Op":1145,"my":1146,"cate":1147,"change":1148,"ments":1149,"lines":1150,"top":1151,"UR":1152,"Up":1153,"password":1154,"win":1155,"lay":1156,"abs":1157,"files":1158,"play":1159,"ters":1160,"cs":1161,"Ġfor":1162,"dest":1163,"wr":1164,"rol":1165,"meta":1166,"nc":1167,"AP":1168,"fin":1169,"Get":1170,"requi":1171,"atch":1172,"unittest":1173,"={'":1174,"pk":1175,"HT":1176,"conf":1177,"equal":1178,"ak":1179,"network":1180,"aph":1181,"be":1182,">'.":1183,"iali":1184,"lamb":1185,"To":1186,"ion":1187,"'),<":1188,"lambda":1189,"option":1190,"adata":1191,"store":1192,"Ra":1193,"tain":1194,"UT":1195,"mar":1196,"attribute":1197,"Un":1198,"timeout":1199,"[]":1200,"CE":1201,"df":1202,"ĠI":1203,"find":1204,"ols":1205,"DI":1206,"enti":1207,"led":1208,"gener":1209,"mon":1210,"rule":1211,"ers":1212,"extra":1213,"Ġ[].":1214,"ded":1215,"hash":1216,",,,,,,,,,,,,,,,,":1217,"save":1218,"ust":1219,"(,),":1220,"ci":1221,"64":1222,"mem":1223,"results":1224,"met":1225,"'.":1226,"PO":1227,")))<":1228,"viron":1229,"Node":1230,"mpy":1231,"emp":1232,"':{'":1233,"Request":1234,"username":1235,"warn":1236,"ns":1237,"primary":1238,"address":1239,"clude":1240,"Ġ['<":1241,"dist":1242,"pattern":1243,"Ġsys":1244,"Ġg":1245,"width":1246,"Vi":1247,"cp":1248,"yi":1249,"unicode":1250,")+":1251,"of":1252,"ulti":1253,"Ar":1254,"','<":1255,"ize":1256,"iz":1257,"ĠTrue":1258,"argument":1259,"admin":1260,"email":1261,"random":1262,"xml":1263,"bar":1264,"block":1265,"Ġ+=":1266,"ister":1267,"yield":1268,"Ġ[],":1269,"AD":1270,"html":1271,"pop":1272,"ry":1273,"ess":1274,"exist":1275,"send":1276,"metadata":1277,">]<":1278,"exc":1279,"Raise":1280,"search":1281,"its":1282,">__":1283,"oo":1284,"sq":1285,"pub":1286,"Ġrange":1287,"frame":1288,"Object":1289,"Config":1290,"TP":1291,"fail":1292,"stream":1293,"uple":1294,"bin":1295,"lass":1296,"mission":1297,"==\"":1298,"olu":1299,"CH":1300,"package":1301,"Ġpy":1302,"first":1303,"opts":1304,"ttr":1305,"site":1306,"ĠValueError":1307,"errors":1308,"Ġr":1309,"ĠFalse":1310,"uuid":1311,"ties":1312,"ĠC":1313,"tocol":1314,"NO":1315,"const":1316,"Hand":1317,"manager":1318,"Raises":1319,"US":1320,"cord":1321,"'],":1322,"ath":1323,"Add":1324,"ir":1325,"\":\"":1326,"Comm":1327,"ix":1328,"sche":1329,"environ":1330,"Log":1331,"callback":1332,"Ġ!=":1333,"CT":1334,"Ġresult":1335,"ĠP":1336,"Time":1337,"io":1338,"UL":1339,"MA":1340,"char":1341,"ft":1342,"Do":1343,"ify":1344,"cer":1345,"cho":1346,"verse":1347,"unk":1348,"(,,":1349,"KE":1350,"Meta":1351,"assertRaises":1352,"contin":1353,"fake":1354,"author":1355,"plu":1356,"ched":1357,"iti":1358,"ING":1359,"bose":1360,"numpy":1361,"..":1362,"Ġname":1363,"queue":1364,"TY":1365,"graph":1366,"exception":1367,"down":1368,"ved":1369,"Text":1370,"flag":1371,"men":1372,"NAME":1373,"ui":1374,"verbose":1375,"ature":1376,"strip":1377,"Ġkey":1378,"while":1379,"remove":1380,"),)<":1381,"box":1382,"thread":1383,"uster":1384,"'],<":1385,"MP":1386,"dout":1387,"Ġv":1388,"offset":1389,"Command":1390,"\":<":1391,"Ġhas":1392,"ign":1393,"Mock":1394,"seriali":1395,"cy":1396,"sum":1397,"10":1398,"stop":1399,"Form":1400,"handle":1401,"annel":1402,"struct":1403,"va":1404,"river":1405,"continue":1406,"plugin":1407,"swith":1408,"atic":1409,"{}":1410,"rel":1411,"ay":1412,"Resp":1413,"igr":1414,"ble":1415,"bre":1416,"ctx":1417,"sition":1418,"IO":1419,"Ġk":1420,"xy":1421,"ght":1422,"register":1423,"sta":1424,"uture":1425,"For":1426,"ures":1427,"connect":1428,"oper":1429,"stdout":1430,"colle":1431,",_":1432,"dent":1433,"sen":1434,"tal":1435,"glob":1436,"Response":1437,"case":1438,"View":1439,"show":1440,"replace":1441,">']":1442,"Me":1443,"ffer":1444,"HTTP":1445,">')":1446,"sk":1447,"stack":1448,"thon":1449,"ifi":1450,"ong":1451,"the":1452,">:":1453,"idx":1454,"parame":1455,"contain":1456,"dtype":1457,"ATE":1458,"ids":1459,"lot":1460,"Ġ/":1461,"auto":1462,">':('<":1463,"uri":1464,"unique":1465,"addr":1466,"(),<":1467,"repr":1468,"LI":1469,"Ġm":1470,"[]<":1471,")):<":1472,"Ġa":1473,"FA":1474,"CON":1475,"Ver":1476,"param":1477,"ĠException":1478,"control":1479,"'})<":1480,"ttribute":1481,">'),<":1482,"ps":1483,"VER":1484,"tmp":1485,"getattr":1486,"ud":1487,"=[<":1488,"break":1489,"Ġ],":1490,"sing":1491,"mt":1492,"select":1493,"ual":1494,"Ġn":1495,"ccess":1496,"olume":1497,"entry":1498,">','<":1499,"==:<":1500,"ated":1501,"Char":1502,"Se":1503,"Ġ*<":1504,"iable":1505,"stance":1506,"Handler":1507,"ors":1508,"UN":1509,"execute":1510,"lated":1511,"TYPE":1512,"future":1513,"cf":1514,"encode":1515,"nodes":1516,"IP":1517,"br":1518,"attrs":1519,"orage":1520,"tuple":1521,"location":1522,"Bu":1523,"ctions":1524,"older":1525,"lice":1526,"device":1527,"'},<":1528,"common":1529,")]<":1530,"Dict":1531,"socket":1532,"Man":1533,"ash":1534,"pp":1535,"LA":1536,"gen":1537,"pect":1538,"ain":1539,"Ġ[])<":1540,"cluster":1541,"orig":1542,"Is":1543,"opt":1544,"exists":1545,"):":1546,"channel":1547,"role":1548,").__":1549,"lower":1550,"ĠTest":1551,"essage":1552,"SI":1553,"full":1554,"'].":1555,"vo":1556,"attrib":1557,"total":1558,"sec":1559,"ha":1560,"':\"":1561,"sp":1562,"dump":1563,"itor":1564,"Ġvalue":1565,"Aut":1566,"':{<":1567,"stats":1568,"active":1569,"Client":1570,"fs":1571,"validate":1572,"').":1573,"limit":1574,"tric":1575,"}),<":1576,"driver":1577,"licy":1578,"flow":1579,"ĠT":1580,"tags":1581,"src":1582,"face":1583,"EX":1584,"rec":1585,"Ġdata":1586,"rt":1587,"profile":1588,"Group":1589,"teger":1590,"related":1591,"feren":1592,"stra":1593,"setup":1594,"Ġcreate":1595,"zip":1596,")=":1597,"Message":1598,"wrap":1599,"web":1600,"Num":1601,"static":1602,"Fa":1603,"Ġ)<":1604,"choi":1605,"),(":1606,"sty":1607,"widget":1608,"norm":1609,"Class":1610,"Bo":1611,"Fact":1612,"tools":1613,"element":1614,"16":1615,"ding":1616,"lang":1617,"cursor":1618,"URL":1619,"record":1620,"ton":1621,"pay":1622,"Ele":1623,"ERR":1624,"bytes":1625,"uration":1626,"LOG":1627,"Ġ].":1628,"Ġ+=<":1629,"axis":1630,"ste":1631,"assertEquals":1632,"compile":1633,"cation":1634,"pc":1635,"derr":1636,"forms":1637,"Qu":1638,"Ġhasattr":1639,"extension":1640,"\",'":1641,"exit":1642,"sed":1643,"onent":1644,"Column":1645,"25":1646,"ULT":1647,"=-":1648,"can":1649,"pool":1650,"dif":1651,"stderr":1652,"'+":1653,")>":1654,"required":1655,"enco":1656,"Run":1657,"style":1658,"Comp":1659,"Index":1660,"Resource":1661,"volume":1662,"groups":1663,"tail":1664,"Ġopen":1665,"schema":1666,">'+":1667,"sample":1668,"mark":1669,"identi":1670,"factory":1671,"gine":1672,"true":1673,"MO":1674,"commit":1675,",(":1676,"BU":1677,"secon":1678,"expr":1679,"initi":1680,"Or":1681,"over":1682,"desc":1683,"INT":1684,"og":1685,"fn":1686,"stamp":1687,"sco":1688,"pol":1689,"Path":1690,"tests":1691,"ast":1692,"TR":1693,"train":1694,"are":1695,"entity":1696,"startswith":1697,"'%(":1698,"=,<":1699,"GET":1700,"VE":1701,"metric":1702,"('/":1703,",[":1704,"ie":1705,"TypeError":1706,"six":1707,"']['":1708,"enu":1709,"cli":1710,"Cre":1711,"left":1712,"decode":1713,"argv":1714,"lean":1715,"abled":1716,"reverse":1717,"clean":1718,"long":1719,"conver":1720,"Ġif":1721,">'}),<":1722,"login":1723,"Ġ[-":1724,"TH":1725,"Event":1726,"backend":1727,"ial":1728,"buffer":1729,"skip":1730,"PRO":1731,"buil":1732,"ative":1733,"ped":1734,"children":1735,"window":1736,"permission":1737,"tifi":1738,"multi":1739,"go":1740,"',)<":1741,"20":1742,"Ġline":1743,"TI":1744,"allow":1745,"right":1746,"ĠD":1747,"namespace":1748,"Stat":1749,"Factory":1750,"Ġelse":1751,"lication":1752,"lat":1753,"vm":1754,"sort":1755,"tree":1756,"Ht":1757,"comment":1758,"trace":1759,"buf":1760,"Instance":1761,"mented":1762,"classmethod":1763,"eq":1764,"OP":1765,"duct":1766,"member":1767,"ĠB":1768,"wait":1769,"(-":1770,"QU":1771,"IL":1772,"uter":1773,"lug":1774,"pu":1775,"flags":1776,"(__":1777,"Element":1778,"vider":1779,"\".":1780,"tiv":1781,"),(\"":1782,"ERROR":1783,"Ġrequest":1784,"delta":1785,"ale":1786,"sql":1787,"(,),(,),":1788,"Sub":1789,"ell":1790,"position":1791,"system":1792,"gi":1793,"cfg":1794,"bind":1795,"lease":1796,"Wid":1797,"access":1798,">'))<":1799,"CharField":1800,"EN":1801,"created":1802,"Ġ}<":1803,"chunk":1804,"Valid":1805,"called":1806,"utton":1807,"zone":1808,"plot":1809,"non":1810,"messages":1811,"python":1812,"DO":1813,"ference":1814,"vision":1815,"storage":1816,"gex":1817,"parameters":1818,"rot":1819,"okup":1820,"coun":1821,"Qt":1822,"ample":1823,"Item":1824,":'":1825,"policy":1826,"Auth":1827,"sw":1828,"Connection":1829,"parti":1830,"Var":1831,"wx":1832,"120":1833,"dirname":1834,"af":1835,"document":1836,"Ġurl":1837,"height":1838,"Http":1839,"ML":1840,"container":1841,"cen":1842,"']:<":1843,"TA":1844,"alt":1845,"\"%(":1846,"disk":1847,"gra":1848,"proxy":1849,"Number":1850,"FILE":1851,"her":1852,"Ġnode":1853,"Ġ+'":1854,"display":1855,"orted":1856,"40":1857,"':[":1858,"sn":1859,"columns":1860,"render":1861,"include":1862,"part":1863,",-":1864,"FO":1865,"ĠĠ":1866,"Parser":1867,"Content":1868,"SH":1869,"State":1870,"exceptions":1871,"utf":1872,"mplemented":1873,"owner":1874,"route":1875,"etch":1876,"gory":1877,",,,,,,,,,,,,,,,,,,,,,,,,,,,,,,,,":1878,"insert":1879,"track":1880,"Proper":1881,"encoding":1882,"\")":1883,"{\"":1884,"(**":1885,"section":1886,"Info":1887,"11":1888,"engine":1889,"vis":1890,"script":1891,"ont":1892,"protocol":1893,"Fun":1894,"cap":1895,"ants":1896,"resh":1897,"ustom":1898,"Ġh":1899,"words":1900,"timestamp":1901,"FAULT":1902,"Table":1903,"Server":1904,"KEY":1905,"Ro":1906,"\"]<":1907,"Le":1908,"filters":1909,"50":1910,"Ġl":1911,"eno":1912,"',:'":1913,"rows":1914,"Date":1915,"edge":1916,"Ġde":1917,"peri":1918,"ping":1919,"Call":1920,"origin":1921,"success":1922,"DEFAULT":1923,"day":1924,"ĠNot":1925,"account":1926,"UP":1927,"=):<":1928,"global":1929,"FF":1930,"rix":1931,"migr":1932,"aster":1933,"payload":1934,"loy":1935,"alize":1936,"seq":1937,"depen":1938,"tran":1939,"Ġtype":1940,"'\",'":1941,"variable":1942,"install":1943,"scope":1944,"_(":1945,"DB":1946,"ally":1947,"slug":1948,"kernel":1949,">':{<":1950,"Ac":1951,"lex":1952,"generate":1953,"By":1954,"users":1955,"Out":1956,"book":1957,"quo":1958,"\"))<":1959,"fd":1960,"ws":1961,"ener":1962,"Th":1963,"attributes":1964,"igh":1965,"ld":1966,"Integer":1967,"From":1968,"repo":1969,"SP":1970,"let":1971,"move":1972,"Arg":1973,"ĠsetUp":1974,"Implemented":1975,"Action":1976,")*":1977,"Ġtime":1978,"ixin":1979,"Tag":1980,"nore":1981,"anch":1982,"Per":1983,"sent":1984,"eval":1985,"ill":1986,"atures":1987,"extend":1988,"NE":1989,"Admin":1990,"VI":1991,"Version":1992,"apper":1993,"uage":1994,">{'":1995,"detail":1996,"100":1997,"POST":1998,"ord":1999,"__)<":2000,"NS":2001,"mi":2002,"vars":2003,"Query":2004,"compute":2005,"lineno":2006,"Attribute":2007,"ASE":2008,"=''<":2009,"\"):<":2010,"ift":2011,",]":2012,"\",'<":2013,"resol":2014,"Ġadd":2015,"step":2016,"cei":2017,"cook":2018,"lav":2019,"empty":2020,"ified":2021,"esc":2022,"SC":2023,"ba":2024,"HE":2025,"Al":2026,"annot":2027,"App":2028,"Ġ})<":2029,"plat":2030,"TO":2031,"olute":2032,"ctype":2033,"dt":2034,"Ġjson":2035,"Service":2036,"wer":2037,"dataset":2038,"He":2039,"img":2040,"Gr":2041,"sible":2042,"mask":2043,"imal":2044,"pt":2045,"mportError":2046,"[\"":2047,"':\"'":2048,"Image":2049,"lish":2050,"modules":2051,",:":2052,"round":2053,"cert":2054,"pair":2055,"labels":2056,"git":2057,"ression":2058,"public":2059,"Ġ[:]":2060,"properties":2061,"weight":2062,"AGE":2063,"contents":2064,"Ca":2065,"quen":2066,")/":2067,"Win":2068,"ng":2069,"wd":2070,"asic":2071,"report":2072,"Manager":2073,"dition":2074,"diff":2075,"Property":2076,"ĠF":2077,"Trans":2078,"parts":2079,"only":2080,"remote":2081,"Ġrun":2082,"uint":2083,"GL":2084,"batch":2085,"std":2086,"dim":2087,"absolute":2088,"fore":2089,"cell":2090,"Protocol":2091,"Result":2092,"),('<":2093,"convert":2094,"contr":2095,"Ġsub":2096,"alph":2097,"dev":2098,"\"),<":2099,"(['":2100,"And":2101,"({'":2102,"Code":2103,"Widget":2104,"head":2105,"loop":2106,"':,<":2107,"ĠNotImplemented":2108,"Def":2109,"==<":2110,"Ġdatetime":2111,"region":2112,"assertFalse":2113,"SO":2114,"component":2115,"DIR":2116,"sm":2117,"ĠImportError":2118,"slice":2119,"ink":2120,"sync":2121,"PAT":2122,"34":2123,"assertIs":2124,"exclude":2125,"ators":2126,"ye":2127,"API":2128,"Desc":2129,"Ġnp":2130,"bool":2131,"Mixin":2132,"Ġresponse":2133,"OK":2134,"anel":2135,"lookup":2136,"ATA":2137,"30":2138,"heck":2139,"loads":2140,"sched":2141,"loader":2142,"asses":2143,"agent":2144,"shot":2145,"Format":2146,"Context":2147,"fixt":2148,"Inter":2149,"fp":2150,"sock":2151,"paths":2152,")]":2153,"real":2154,"language":2155,"Gener":2156,"tokens":2157,"provider":2158,"dr":2159,"pick":2160,"Ġitem":2161,"verify":2162,"clear":2163,"Ġargs":2164,"events":2165,"Int":2166,"DS":2167,"rop":2168,"cale":2169,"Ġno":2170,"initial":2171,"consu":2172,"raises":2173,"controller":2174,"Lay":2175,"Struct":2176,"Fo":2177,"IC":2178,"Logger":2179,"imp":2180,"rest":2181,"directory":2182,"ED":2183,"tor":2184,"medi":2185,"release":2186,"bs":2187,"Task":2188,"force":2189,"curity":2190,"product":2191,"lis":2192,"folder":2193,"any":2194,"ĠKey":2195,"safe":2196,"fetch":2197,"ous":2198,"endpoint":2199,"dot":2200,"ignore":2201,"leep":2202,"inputs":2203,"StringIO":2204,"choices":2205,"ummy":2206,"ization":2207,"grid":2208,"Size":2209,"ason":2210,"Temp":2211,")),('":2212,"ins":2213,"dec":2214,"\\\\":2215,"indent":2216,"dumps":2217,"=('":2218,"ome":2219,"alog":2220,"ctor":2221,")==:<":2222,"signal":2223,"AM":2224,"simple":2225,"dependen":2226,"Point":2227,"bucket":2228,"enumer":2229,"FOR":2230,"dat":2231,"Fil":2232,"TEST":2233,"gl":2234,"short":2235,"ient":2236,",))<":2237,"Line":2238,"edit":2239,"Ġto":2240,"platform":2241,">']<":2242,">})<":2243,"Ġ|":2244,"topic":2245,"Create":2246,"=(<":2247,"14":2248,"=='__":2249,"secret":2250,"hist":2251,"pid":2252,"':,'":2253,"gate":2254,"helper":2255,"scale":2256,"nown":2257,"aml":2258,"gest":2259,"alpha":2260,"ternal":2261,"ride":2262,"Dis":2263,"actor":2264,"lavor":2265,"DER":2266,"gment":2267,"ssl":2268,"ek":2269,"own":2270,"Pre":2271,",],":2272,"[:":2273,"Window":2274,"rate":2275,"ĠNotImplementedError":2276,"__':<":2277,"fier":2278,"Frame":2279,"ava":2280,"enumerate":2281,"deploy":2282,"inf":2283,"database":2284,"enabled":2285,"('-":2286,"Ġlist":2287,"quence":2288,"zy":2289,"contrib":2290,"MM":2291,"BLE":2292,"queryset":2293,"subprocess":2294,"fname":2295,"Ġw":2296,"(,)<":2297,"rv":2298,"cted":2299,"Ġconfig":2300,"INE":2301,"au":2302,"eff":2303,"views":2304,"Cont":2305,"shared":2306,"Ġunittest":2307,"category":2308,"alias":2309,"VAL":2310,"Ġ>=":2311,"ĠO":2312,"Ġnumpy":2313,"Check":2314,"TER":2315,"Ġpath":2316,"sorted":2317,"Ġ+\"":2318,"proto":2319,"fit":2320,"she":2321,"ATION":2322,"SION":2323,"liter":2324,"iled":2325,"ship":2326,"Doc":2327,"Status":2328,"SET":2329,"Wor":2330,"defaults":2331,"saction":2332,"cast":2333,"15":2334,"\"])<":2335,"Ġsettings":2336,"ls":2337,"Ġsetup":2338,"Ġdb":2339,"serialize":2340,"dirs":2341,"dele":2342,"js":2343,"__=='__":2344,"STAT":2345,"sleep":2346,"mac":2347,"collection":2348,"Fore":2349,"zed":2350,"'),('":2351,"18":2352,"CK":2353,"With":2354,"parsed":2355,"__,":2356,"master":2357,"SER":2358,")-":2359,"IG":2360,"Ġenumerate":2361,"org":2362,"menu":2363,"apps":2364,"mount":2365,"Ġlogging":2366,"19":2367,"cr":2368,"USER":2369,"router":2370,"qs":2371,"av":2372,"WOR":2373,"tw":2374,"suite":2375,"PATH":2376,"activ":2377,"board":2378,"classes":2379,"ENT":2380,"24":2381,"Ġcheck":2382,"finally":2383,"mean":2384,"redirect":2385,"Filter":2386,"sym":2387,"layer":2388,"chain":2389,"matrix":2390,"actions":2391,"Module":2392,"actual":2393,"invalid":2394,"cent":2395,"ector":2396,"bot":2397,"Invalid":2398,"prop":2399,"binary":2400,"BASE":2401,"tool":2402,"Address":2403,"priv":2404,"DATA":2405,"Ġnew":2406,"tenant":2407,"()))<":2408,"ĠG":2409,"UM":2410,"ports":2411,"tach":2412,"=-<":2413,"VERSION":2414,"End":2415,"gor":2416,"Validation":2417,"Option":2418,"found":2419,"PI":2420,"usage":2421,"Ġ[:]<":2422,"Control":2423,"ql":2424,"sheet":2425,"imple":2426,"gg":2427,"Input":2428,"ĠTypeError":2429,"[])<":2430,"packages":2431,"regex":2432,"cept":2433,"istr":2434,"Fe":2435,"dered":2436,"Ed":2437,"warnings":2438,"itch":2439,"ive":2440,"Count":2441,"ick":2442,"('.":2443,"dst":2444,"serializer":2445,"tries":2446,"Ġ],<":2447,"prog":2448,"resources":2449,"pkg":2450,"=[('":2451,"ORT":2452,"Que":2453,"ply":2454,"56":2455,"warning":2456,"Ġu":2457,"Ġ!":2458,"Ġex":2459,"ZE":2460,"ipel":2461,"MAX":2462,"mk":2463,"Py":2464,"hook":2465,"ano":2466,"tz":2467,"Cache":2468,"Map":2469,"transform":2470,"tables":2471,"cc":2472,"bad":2473,"tif":2474,"zeros":2475,"oken":2476,")),<":2477,"},":2478,"An":2479,"Ġ{":2480,"testing":2481,"__=":2482,"staticmethod":2483,"rm":2484,"tx":2485,"year":2486,"Ġ+'<":2487,"reset":2488,"Foreign":2489,"Sele":2490,"prot":2491,"constants":2492,"Ġobj":2493,"mapping":2494,"sis":2495,"As":2496,"security":2497,"22":2498,"application":2499,"=[\"":2500,"hostname":2501,"subject":2502,"urls":2503,"ĠRe":2504,"points":2505,"second":2506,"elem":2507,"custom":2508,"publish":2509,"80":2510,">':'":2511,"Color":2512,")>:<":2513,"MS":2514,"cat":2515,"Ġsw":2516,"Tests":2517,"Ġxrange":2518,"ipeline":2519,"\"+":2520,"Function":2521,"Ġ'.":2522,"features":2523,"listen":2524,"TION":2525,"lugin":2526,")])<":2527,"agg":2528,"ffix":2529,"dispatch":2530,"ForeignKey":2531,"cb":2532,"hex":2533,"('\\":2534,"rpc":2535,"stract":2536,"lan":2537,"vt":2538,"Ġstr":2539,"oprot":2540,"rep":2541,"Ġret":2542,"images":2543,"Multi":2544,"indi":2545,"HO":2546,")),":2547,"On":2548,"ish":2549,"here":2550,"rs":2551,"Method":2552,"interval":2553,"Ġ**":2554,"rules":2555,"Sy":2556,"ning":2557,"ES":2558,"gf":2559,"Process":2560,"requests":2561,"Ġj":2562,"cloud":2563,"ĠR":2564,"expect":2565,"arti":2566,"esca":2567,"repos":2568,"bit":2569,"plan":2570,"font":2571,"credenti":2572,"pen":2573,"Ġren":2574,"cookie":2575,"Ġ<=":2576,"coder":2577,"term":2578,"Ġfield":2579,"\"),":2580,"builder":2581,"oauth":2582,"branch":2583,"Ġapp":2584,"AS":2585,"EL":2586,"ready":2587,"ĠKeyError":2588,"utable":2589,"Const":2590,"Ġuser":2591,"BUG":2592,"expi":2593,"Gui":2594,",,,":2595,"Found":2596,"sets":2597,"defin":2598,"ALL":2599,"registr":2600,"rl":2601,"month":2602,"lush":2603,"used":2604,"perm":2605,"37":2606,"Ho":2607,"ves":2608,"sender":2609,"plt":2610,"ordering":2611,"example":2612,"grad":2613,"PAR":2614,"Down":2615,"Update":2616,"86":2617,"reason":2618,"DEBUG":2619,"iteritems":2620,"Ġiter":2621,"mbol":2622,"lask":2623,"Ġfile":2624,"setattr":2625,"ected":2626,"prev":2627,"patterns":2628,"undle":2629,"All":2630,"apshot":2631,"depth":2632,"seconds":2633,"txt":2634,"consumer":2635,"recei":2636,"Hel":2637,"ctypes":2638,"cry":2639,"iprot":2640,"subnet":2641,"score":2642,"fill":2643,"SIZE":2644,"XML":2645,"Ġrender":2646,"ocket":2647,"retty":2648,"CONT":2649,"theano":2650,"Ret":2651,"JS":2652,"ystem":2653,"na":2654,"Callback":2655,"side":2656,"Ġdo":2657,"Reg":2658,"Ġon":2659,"ptr":2660,"merge":2661,"links":2662,"Ġ[-]":2663,"wrapper":2664,"igration":2665,"quote":2666,">(":2667,"(,))<":2668,"Ġparse":2669,"\"]=":2670,"arguments":2671,"'\\":2672,"gre":2673,"_=":2674,"urllib":2675,"Page":2676,"vide":2677,"AND":2678,"operator":2679,"Su":2680,"feature":2681,"math":2682,"Open":2683,"asy":2684,"sure":2685,"Ġoptions":2686,"traceback":2687,"aly":2688,"ave":2689,"hs":2690,"layout":2691,"private":2692,"Net":2693,"uler":2694,"seed":2695,"suffix":2696,"changed":2697,"ific":2698,"_,":2699,"bits":2700,"ice":2701,"migrations":2702,"Token":2703,"getLogger":2704,"boot":2705,"tear":2706,"SU":2707,"Ġarg":2708,"upper":2709,"Output":2710,"transl":2711,"bound":2712,"shell":2713,"itory":2714,"PA":2715,"once":2716,"arr":2717,"way":2718,"proc":2719,"button":2720,"cv":2721,"counter":2722,"Child":2723,"ĠL":2724,"ards":2725,"ĠAttribute":2726,"Ġ>:<":2727,"mu":2728,"upload":2729,"tact":2730,"rf":2731,"ACK":2732,"tron":2733,"ution":2734,"39":2735,"mil":2736,"Ġcls":2737,"updated":2738,"Be":2739,"escape":2740,"RA":2741,"cover":2742,"abc":2743,"()+":2744,"download":2745,"Oper":2746,"most":2747,"manage":2748,"CODE":2749,"17":2750,"Queue":2751,">],<":2752,"ized":2753,"QtGui":2754,"oog":2755,"serv":2756,"sole":2757,"basic":2758,"Ġ\"+":2759,"tt":2760,"\":'<":2761,"interface":2762,"ware":2763,"choice":2764,"transaction":2765,"assertIn":2766,"isinstance":2767,"Clo":2768,"kind":2769,")).":2770,"/%":2771,"Template":2772,"Exist":2773,"thing":2774,"AUT":2775,"comple":2776,"Parame":2777,"chema":2778,"Contain":2779,"complete":2780,">'):<":2781,"feed":2782,"Variable":2783,"ĠE":2784,"calls":2785,"factor":2786,"free":2787,"rad":2788,"Ġres":2789,"roll":2790,"ssh":2791,"ending":2792,"literals":2793,"200":2794,"Return":2795,"modified":2796,"ĠAttributeError":2797,"cols":2798,"defer":2799,"INTER":2800,"Level":2801,"arning":2802,"01":2803,"built":2804,"Change":2805,"identifier":2806,"36":2807,"Ġbase":2808,"={\"":2809,"avail":2810,"Label":2811,"httplib":2812,")[]<":2813,"abspath":2814,"Len":2815,"sep":2816,">'},<":2817,"ITE":2818,"missing":2819,"CONF":2820,"Plugin":2821,"{})<":2822,"Ġ+<":2823,"=\"\"<":2824,"signature":2825,"),'":2826,"collections":2827,"idden":2828,"Runtime":2829,"operation":2830,"less":2831,"worker":2832,"cm":2833,"oogle":2834,"outputs":2835,"Box":2836,"':['":2837,"Ġsup":2838,"We":2839,"uld":2840,"after":2841,"game":2842,"titem":2843,"flavor":2844,"Ġread":2845,"ical":2846,"methods":2847,"Ġupdate":2848,"gpy":2849,"sho":2850,"Ġun":2851,"writer":2852,"original":2853,"WS":2854,"fName":2855,"deli":2856,"Ġst":2857,"ACE":2858,"threading":2859,"sg":2860,"READ":2861,"div":2862,"sin":2863,"ulate":2864,"calc":2865,"Header":2866,"'}<":2867,"Ġcon":2868,"extensions":2869,"Of":2870,"('%":2871,"PRE":2872,"iso":2873,"iss":2874,"Exp":2875,"Thread":2876,"runner":2877,"yaml":2878,"tex":2879,"FORM":2880,"Source":2881,"elements":2882,"byte":2883,"lt":2884,">']=":2885,"Ġcontext":2886,"ward":2887,"Ġswgpy":2888,"','--":2889,"fmt":2890,"requires":2891,"tify":2892,"hosts":2893,"({<":2894,"prior":2895,"gram":2896,"hy":2897,"Stream":2898,"commands":2899,"OT":2900,"utron":2901,"('--":2902,"COL":2903,"ple":2904,"stfName":2905,"transport":2906,"Ġ]:<":2907,"Link":2908,">',)<":2909,"tasks":2910,"require":2911,"scheme":2912,"meri":2913,"creen":2914,"Array":2915,"tems":2916,"none":2917,"flush":2918,"mid":2919,"cip":2920,"fra":2921,"Ġ][":2922,"__.__":2923,"PORT":2924,"Ġmock":2925,"vals":2926,"card":2927,"ĠHttp":2928,"hi":2929,"salt":2930,"gt":2931,"history":2932,"attach":2933,")==<":2934,"Mem":2935,"pb":2936,"Entry":2937,"basename":2938,"Argument":2939,"instances":2940,"Spec":2941,">')(":2942,"Ġpre":2943,"identity":2944,"notifi":2945,"services":2946,"INFO":2947,"details":2948,"chine":2949,"ular":2950,"QUE":2951,"ational":2952,">%":2953,">'])<":2954,"memory":2955,"Default":2956,"ession":2957,"Dir":2958,"Block":2959,"locals":2960,"tab":2961,"indices":2962,"ported":2963,"Ġmatch":2964,"RI":2965,"lazy":2966,"Ġ]+":2967,"Document":2968,"=_('<":2969,"cies":2970,"override":2971,")!=":2972,"Back":2973,"handlers":2974,"APP":2975,"One":2976,"='%":2977,"\"\"":2978,"Graph":2979,"Ġmake":2980,"CP":2981,"delay":2982,"Ġunicode":2983,"(,'":2984,"parameter":2985,"Ġ&":2986,"single":2987,"Ġ[:-":2988,"plugins":2989,"Wri":2990,"locale":2991,"tensor":2992,"issue":2993,"duration":2994,"Read":2995,"ility":2996,"should":2997,"Pa":2998,"fol":2999,"Tree":3000,"Flag":3001,"Ġsix":3002,"fixed":3003,",,,,,,,,,,,,,,,,,,,,,,,,,,,,,,,,,,,,,,,,,,,,,,,,,,,,,,,,,,,,,,,,":3004,"mox":3005,"Project":3006,"extract":3007,"Ġ'+":3008,"decor":3009,"=['<":3010,"(,),(,),(,),(,),":3011,"flat":3012,"marker":3013,"fixture":3014,"tity":3015,"ĠBase":3016,"snapshot":3017,"rary":3018,"Ġmodels":3019,"MIN":3020,"panel":3021,"ition":3022,"reader":3023,"Exten":3024,"endswith":3025,"aded":3026,"MI":3027,"Ġo":3028,"pickle":3029,"sv":3030,"gether":3031,"Obj":3032,"workflow":3033,"intern":3034,"pd":3035,"scal":3036,"gy":3037,"assign":3038,"MENT":3039,"_.":3040,"()]<":3041,"states":3042,"period":3043,"System":3044,"scri":3045,"aggreg":3046,"emit":3047,"GS":3048,">',\"":3049,"click":3050,"Util":3051,"neutron":3052,"ug":3053,"XT":3054,"media":3055,"Sh":3056,"external":3057,"gettext":3058,"normal":3059,"Seriali":3060,"Job":3061,"Rel":3062,"this":3063,"selected":3064,"Button":3065,"RuntimeError":3066,"umb":3067,"rb":3068,"setdefault":3069,"Ġstart":3070,"poly":3071,"Exec":3072,"tempfile":3073,"Ġ}":3074,"csv":3075,"pipeline":3076,"CONFI":3077,"NOT":3078,"cwd":3079,"recor":3080,"\"],":3081,"duce":3082,"revision":3083,"ked":3084,"New":3085,"home":3086,"Float":3087,"Ġlog":3088,"Ġdi":3089,",),":3090,"__.":3091,"84":3092,"done":3093,"']='":3094,"keep":3095,"ops":3096,"NotFound":3097,"star":3098,"_)<":3099,"retry":3100,"Ġ[]=":3101,"oolean":3102,"constra":3103,"Ref":3104,"Ġ>>":3105,"(\"%":3106,"=\"%":3107,"cached":3108,"Port":3109,"generator":3110,"isted":3111,"versions":3112,"ination":3113,"outfile":3114,"setting":3115,"editor":3116,"Ġtw":3117,"//":3118,"Cur":3119,"SA":3120,"authenti":3121,"Ġabsolute":3122,"orter":3123,"vari":3124,"Pri":3125,"255":3126,"reque":3127,"push":3128,"bundle":3129,"together":3130,"hape":3131,"Uni":3132,"expand":3133,"Host":3134,"oc":3135,"tered":3136,"before":3137,"failure":3138,"switch":3139,"registry":3140,"allowed":3141,"STATUS":3142,"utc":3143,"SQ":3144,"ace":3145,"Network":3146,"dn":3147,"ValidationError":3148,"Ġ<:<":3149,"PY":3150,"ECT":3151,"PER":3152,"django":3153,"relation":3154,"90":3155,"termin":3156,"light":3157,">'),":3158,"times":3159,"Post":3160,"deleted":3161,"DateTime":3162,"rer":3163,"LU":3164,"ged":3165,"reference":3166,"SY":3167,"servers":3168,"(),)<":3169,">])<":3170,"ven":3171,"series":3172,"Boolean":3173,"fast":3174,"'][":3175,"apply":3176,"sequence":3177,"days":3178,"]=":3179,"ONE":3180,"permissions":3181,"FLA":3182,"rowser":3183,"samples":3184,"uch":3185,"summary":3186,"Ġerror":3187,"Colle":3188,"85":3189,"bi":3190,"iler":3191,"klass":3192,"':('":3193,"tim":3194,"ates":3195,"credentials":3196,"blob":3197,"visit":3198,"question":3199,"Buffer":3200,"Ph":3201,"Options":3202,"enable":3203,"timedelta":3204,"MODE":3205,"Descrip":3206,"cated":3207,"vs":3208,"gpu":3209,"Iter":3210,"JECT":3211,"cpu":3212,",],[":3213,"digest":3214,"added":3215,"power":3216,"Fake":3217,"dig":3218,"=('<":3219,"cos":3220,"Start":3221,">{<":3222,"()):<":3223,"export":3224,"zero":3225,"WN":3226,"Core":3227,"Ġrow":3228,"ater":3229,"JSON":3230,"Wr":3231,"high":3232,"Ġindex":3233,"dns":3234,"drop":3235,"70":3236,"counts":3237,"tile":3238,"Layout":3239,"Session":3240,"\").":3241,"Ġmain":3242,"ĠMeta":3243,"LATE":3244,"fer":3245,"person":3246,"dependencies":3247,"CRE":3248,"amount":3249,"false":3250,"Ma":3251,"Sett":3252,"Ġop":3253,"oly":3254,"ench":3255,"WORD":3256,"TEMP":3257,"Constant":3258,"CONFIG":3259,"alized":3260,"STRING":3261,"dar":3262,"='/":3263,"ection":3264,"thresh":3265,"errno":3266,"sqrt":3267,"Dec":3268,"constraint":3269,"Match":3270,"Ġprint":3271,"Buil":3272,"tf":3273,"tearDown":3274,"ik":3275,"stub":3276,"note":3277,"Simple":3278,"Parse":3279,"Ġ]))<":3280,"44":3281,"nan":3282,"cost":3283,"vers":3284,"Stop":3285,"some":3286,"rection":3287,"targets":3288,"AUTH":3289,"shutil":3290,"mpt":3291,"Ġzip":3292,"NUM":3293,"comments":3294,"jobs":3295,"stdin":3296,"ifier":3297,"progress":3298,"Ġgetattr":3299,"resolve":3300,"priority":3301,"ĠUser":3302,"tom":3303,"final":3304,"monitor":3305,"lip":3306,"proces":3307,"Storage":3308,">:,<":3309,"Range":3310,"sol":3311,"ATTR":3312,"finish":3313,"condition":3314,"support":3315,"unpack":3316,"dc":3317,"','-":3318,"vious":3319,"statement":3320,"tack":3321,"environment":3322,"available":3323,"repository":3324,"tb":3325,"sive":3326,"',),<":3327,"mime":3328,"blue":3329,"ĠH":3330,"decl":3331,";<":3332,"bal":3333,"CESS":3334,"ribu":3335,"Fail":3336,"Ġkwargs":3337,"HOST":3338,"vp":3339,"Ġsuper":3340,"agic":3341,"OF":3342,",,)<":3343,"partial":3344,"tical":3345,"Rule":3346,"wsgi":3347,"decimal":3348,"Ne":3349,"Ġy":3350,"analy":3351,"player":3352,"Ġtext":3353,"pytest":3354,"virt":3355,"TEXT":3356,"()==":3357,"repe":3358,"CS":3359,"console":3360,"integer":3361,"complex":3362,"Ġclo":3363,"pare":3364,"USE":3365,"'],'":3366,"(('":3367,"two":3368,"units":3369,"screen":3370,"entries":3371,"==\"__":3372,"ND":3373,"Length":3374,"Ġ]['":3375,"99":3376,"running":3377,"matches":3378,"__\":<":3379,"GER":3380,"Serializer":3381,"configuration":3382,"Ġwrite":3383,"ancel":3384,"33":3385,"nam":3386,"pending":3387,"uff":3388,"freq":3389,"schedule":3390,"coord":3391,"ured":3392,"Bin":3393,"EM":3394,"draw":3395,">':'<":3396,"present":3397,"symmetric":3398,"gb":3399,"ROOT":3400,">}":3401,"Ġdelete":3402,"']))<":3403,"fg":3404,"PUT":3405,"ram":3406,"pairs":3407,"76":3408,"loaded":3409,"uble":3410,"Ġ!='":3411,"URE":3412,"TED":3413,"My":3414,"ADD":3415,"PIPE":3416,":%":3417,"Ġform":3418,"anization":3419,"known":3420,"mag":3421,"__==\"__":3422,"Build":3423,"lon":3424,"internal":3425,"ics":3426,"ncy":3427,"cleaned":3428,"Ġall":3429,"machine":3430,"ases":3431,"icon":3432,"\":[":3433,"ible":3434,"Ġchild":3435,">'],<":3436,"pretty":3437,"lime":3438,"beta":3439,"404":3440,"mpl":3441,"Ġsy":3442,"',[":3443,"Ġevent":3444,"Bar":3445,"variables":3446,"Cl":3447,"Work":3448,"__()<":3449,"Ġdefault":3450,"contact":3451,"failed":3452,"Ġmodel":3453,"ips":3454,"Proxy":3455,"destination":3456,"sess":3457,"templates":3458,"when":3459,"lear":3460,"sim":3461,"gorith":3462,"roles":3463,"55":3464,"CI":3465,"WA":3466,"cii":3467,"periment":3468,"ntax":3469,"andid":3470,"\"],<":3471,"Magic":3472,"validation":3473,"...":3474,"seen":3475,"meas":3476,"edges":3477,"dl":3478,"theme":3479,"hour":3480,"angle":3481,"predi":3482,"neg":3483,"Ġload":3484,"Ġhandle":3485,"clone":3486,"Ġtwisted":3487,"callable":3488,"nullable":3489,"where":3490,"center":3491,"processor":3492,"TIME":3493,"(%":3494,"apter":3495,"cryp":3496,"izer":3497,"setUp":3498,"scheduler":3499,"verb":3500,"Parameter":3501,"=='<":3502,"Ġbuild":3503,"pad":3504,"quire":3505,"seg":3506,"Lock":3507,"Delete":3508,"mm":3509,"cut":3510,"ascii":3511,">'%(<":3512,"css":3513,"vector":3514,"price":3515,"Identi":3516,"basestring":3517,"crip":3518,"abstract":3519,"'^":3520,"Author":3521,"ural":3522,"trig":3523,"translation":3524,"Ge":3525,"timezone":3526,"globals":3527,"bro":3528,"atom":3529,"poll":3530,"Enum":3531,"pg":3532,"segment":3533,"Sign":3534,"cene":3535,"IntegerField":3536,"SSL":3537,"()-":3538,"existing":3539,">['":3540,"SK":3541,"Warning":3542,"ensure":3543,"accept":3544,"refresh":3545,"visible":3546,"world":3547,"Ġformat":3548,"hello":3549,"stmt":3550,"Phone":3551,"enum":3552,"=[(":3553,"roy":3554,"tificate":3555,"colors":3556,"metrics":3557,"named":3558,"Database":3559,"UE":3560,"review":3561,"href":3562,"dependency":3563,"DF":3564,"rev":3565,"Comment":3566,"sd":3567,"SM":3568,"ĠRuntimeError":3569,"holder":3570,"components":3571,"rove":3572,"responses":3573,"Layer":3574,"follow":3575,"Ġint":3576,"Ġexc":3577,"unds":3578,"89":3579,"geo":3580,"symbol":3581,"Pass":3582,"changes":3583,"Position":3584,"Ġval":3585,"mension":3586,"OB":3587,"ĠHttpResponse":3588,"\":{<":3589,"prompt":3590,"Pack":3591,"Does":3592,"LED":3593,"cu":3594,"ffi":3595,"digits":3596,"nn":3597,"Ġ+)<":3598,"MagicMock":3599,"ometry":3600,"Migration":3601,"vas":3602,"Redirect":3603,"Ġurllib":3604,"NotExist":3605,"keywords":3606,"Ġdict":3607,"inv":3608,"Ġsk":3609,"pages":3610,"async":3611,"Target":3612,"asset":3613,"QUEST":3614,"sitive":3615,"nected":3616,"possible":3617,"cd":3618,"cid":3619,"closed":3620,"expression":3621,"AB":3622,"OS":3623,"Ġcore":3624,"35":3625,"wal":3626,"Extension":3627,"assertNot":3628,"align":3629,"Ġoutput":3630,"lots":3631,"thumb":3632,"mapper":3633,"sources":3634,"[].":3635,"distance":3636,"SQL":3637,"ado":3638,"ipv":3639,"effect":3640,"reactor":3641,"imum":3642,"scription":3643,"0000":3644,"Ġcopy":3645,"olution":3646,">').":3647,",]<":3648,"Profile":3649,"mpty":3650,"tyle":3651,"MAP":3652,">':<":3653,"Ġ+='<":3654,"aff":3655,"best":3656,"TEMPLATE":3657,"records":3658,"compat":3659,"Ġpytest":3660,"members":3661,"inline":3662,"dle":3663,"prec":3664,"Ġmsg":3665,"networks":3666,"previous":3667,"]+":3668,"DU":3669,"Ren":3670,"-%":3671,"worksheet":3672,"nb":3673,"cond":3674,"ested":3675,"listener":3676,"\",),(\"":3677,"bases":3678,"ee":3679,"Ġ},<":3680,"Sto":3681,"symmetrical":3682,"Many":3683,"ach":3684,"Loader":3685,"DoesNotExist":3686,"Ġfilename":3687,"ja":3688,"des":3689,"VALID":3690,"1234":3691,"pace":3692,"SIG":3693,"Ordered":3694,"usto":3695,"LIST":3696,"cus":3697,"white":3698,"almost":3699,"__(*":3700,"fixtures":3701,"Dummy":3702,"Ġexception":3703,"29":3704,"begin":3705,"xx":3706,"alg":3707,"partition":3708,",],<":3709,"=__":3710,"configure":3711,"minute":3712,"GI":3713,"FIFF":3714,"video":3715,"mily":3716,"team":3717,"(\"/":3718,"Ġ+='":3719,"translate":3720,"cnt":3721,"tegr":3722,"functions":3723,"wrapped":3724,"Order":3725,"Row":3726,"TType":3727,"boo":3728,"ating":3729,"chemy":3730,"annotation":3731,"gateway":3732,",,],<":3733,"backup":3734,"contains":3735,"Location":3736,"Role":3737,"Mat":3738,"executable":3739,"supported":3740,"CR":3741,"family":3742,"timer":3743,"Ġutils":3744,"unknown":3745,"=*":3746,"rng":3747,",{'":3748,"nx":3749,"thr":3750,"VICE":3751,"scalar":3752,"Menu":3753,"Ġout":3754,"iff":3755,"lap":3756,"spe":3757,"REQUEST":3758,"74":3759,"reply":3760,"licen":3761,"Search":3762,"Settings":3763,"[-":3764,"dummy":3765,"vol":3766,"props":3767,"COMP":3768,"ĠIn":3769,"ones":3770,"ctionary":3771,"Ġfunc":3772,"med":3773,"getitem":3774,"LD":3775,"Application":3776,"ĠN":3777,"Schema":3778,"fl":3779,"Controller":3780,"Component":3781,"ifest":3782,"ustomer":3783,"Tab":3784,"Ġnova":3785,",])<":3786,"}'.":3787,"adding":3788,"descriptor":3789,"Api":3790,"If":3791,"Unless":3792,"Generic":3793,"retri":3794,"fh":3795,"Policy":3796,"HTML":3797,"Ab":3798,"cla":3799,"Regex":3800,"generic":3801,"allclose":3802,"Pool":3803,"Load":3804,"cript":3805,"Ġinstance":3806,"percent":3807,"ULL":3808,"subscri":3809,"pdu":3810,"Style":3811,"Ġattr":3812,"Ġtask":3813,"ADER":3814,"wn":3815,"(\"\\":3816,"serve":3817,"deep":3818,"archive":3819,"ĠGet":3820,"vert":3821,"recv":3822,"75":3823,">'})<":3824,"CA":3825,"ground":3826,"Account":3827,"CLA":3828,"LS":3829,"sr":3830,"deployment":3831,"cri":3832,"ii":3833,"just":3834,"Ġvis":3835,"gent":3836,"chart":3837,"docs":3838,"Select":3839,"need":3840,"UID":3841,"threshold":3842,"watch":3843,"Ġcode":3844,"Ġmethod":3845,"metavar":3846,"Ġgoogle":3847,"rank":3848,"()[]<":3849,"Ġ'%":3850,"wner":3851,"spaces":3852,"'),(":3853,"channels":3854,"gorithm":3855,"hdr":3856,"Ġprocess":3857,"ĠtearDown":3858,"ITY":3859,"mote":3860,"([\"":3861,"LINE":3862,"Ġsql":3863,"38":3864,"IndexError":3865,"dp":3866,"Ġtoken":3867,"AndReturn":3868,"Ġreg":3869,"stri":3870,"alloc":3871,"FIX":3872,"Ġz":3873,"]))<":3874,"bg":3875,"ln":3876,"Ġerr":3877,"learn":3878,"management":3879,"({":3880,"scan":3881,"ius":3882,"Ġrandom":3883,"Attr":3884,"].":3885,"border":3886,"aa":3887,"DELE":3888,"mgr":3889,"places":3890,"FIEL":3891,"proj":3892,"poch":3893,"baz":3894,"Domain":3895,"CM":3896,"ils":3897,"article":3898,"shift":3899,"outh":3900,"cing":3901,"Record":3902,"Ġ\"%":3903,"ae":3904,"pix":3905,"pagin":3906,"Ġvalidate":3907,"Ġ[]+":3908,"wards":3909,"pipe":3910,"MGL":3911,"='',":3912,",),<":3913,"Bad":3914,"COMM":3915,"Ġtag":3916,"INST":3917,"Ġ[:])<":3918,"Device":3919,"ification":3920,"Panel":3921,"inal":3922,"ane":3923,"Ġfind":3924,"79":3925,"Xml":3926,"__='":3927,"Binary":3928,"Ġsocket":3929,"oriz":3930,"isten":3931,"operations":3932,"Stats":3933,"plain":3934,"Auto":3935,"dra":3936,"hidden":3937,"library":3938,"how":3939,"LL":3940,"pose":3941,"weights":3942,"firm":3943,"gistr":3944,"Ġsorted":3945,"Ġq":3946,"Stack":3947,"recur":3948,"Permission":3949,")(":3950,"fr":3951,"AF":3952,"(\"-":3953,"Interface":3954,"FORMAT":3955,"Web":3956,"sto":3957,"resses":3958,"Sup":3959,"Ġaction":3960,"submit":3961,"etree":3962,"green":3963,"arange":3964,"cmp":3965,"andard":3966,"Jo":3967,"Ġid":3968,"chars":3969,"many":3970,"angible":3971,"lite":3972,"tmpdir":3973,"Owner":3974,"ĠW":3975,"Ġclient":3976,"tick":3977,"pred":3978,"Ġflask":3979,"256":3980,"CHE":3981,"neigh":3982,"Encoder":3983,"Configuration":3984,"Hash":3985,"execution":3986,"Cho":3987,"filepath":3988,"NET":3989,"Ġassert":3990,">**":3991,"lb":3992,"sli":3993,"Begin":3994,"inner":3995,"may":3996,"formatter":3997,"ross":3998,"connections":3999,"destroy":4000,"zen":4001,"Ġ-<":4002,"Args":4003,"Ġmessage":4004,"unch":4005,"Ġstring":4006,"LEN":4007,"Foo":4008,"ategory":4009,"Ġ''<":4010,"Unicode":4011,"LOW":4012,"distribu":4013,"pm":4014,"compare":4015,"lyph":4016,"thrift":4017,"=%":4018,"Ġ[]['":4019,"('_":4020,"license":4021,"codes":4022,"Keyword":4023,"Collection":4024,"dims":4025,"country":4026,"ends":4027,"Local":4028,"namic":4029,"SERVER":4030,"\",\"--":4031,"ools":4032,"Ġresp":4033,"ĠIO":4034,"fri":4035,"fid":4036,"mbed":4037,"layers":4038,"dash":4039,"national":4040,"reshape":4041,"()),<":4042,"69":4043,"Ġch":4044,"dirty":4045,"like":4046,"),'<":4047,"Failure":4048,"PL":4049,"ump":4050,"Ġcollections":4051,">'--":4052,"candid":4053,"Coun":4054,"Ġ[],<":4055,"tol":4056,"packet":4057,"compress":4058,"uth":4059,"axes":4060,">:'":4061,"ANGE":4062,"arc":4063,"keyword":4064,"PhoneNumber":4065,"lities":4066,"':'#":4067,"ART":4068,"sl":4069,"Mod":4070,"getvalue":4071,"notify":4072,"aggregate":4073,"qname":4074,"Ġfrom":4075,"Ġapi":4076,"21":4077,"At":4078,"lege":4079,"LOC":4080,"CTION":4081,"Reference":4082,"IS":4083,"ia":4084,"stre":4085,"Types":4086,"aler":4087,"direction":4088,"alchemy":4089,"cred":4090,"builtin":4091,"Ġ1":4092,"assertIsInstance":4093,"zation":4094,"ide":4095,"helpers":4096,"Sequence":4097,"bt":4098,"Ġcurrent":4099,"GR":4100,"ANG":4101,"FT":4102,"aliases":4103,"=_(\"":4104,"utor":4105,"activity":4106,"sur":4107,"tep":4108,"STATE":4109,"got":4110,"enter":4111,"vr":4112,"=))<":4113,"Ġ[(":4114,"isfile":4115,"sublime":4116,"SCR":4117,"separ":4118,"faces":4119,"bench":4120,"Store":4121,"'),'":4122,"hq":4123,"Ġco":4124,"Description":4125,"tar":4126,"Ġopt":4127,"connected":4128,"fakes":4129,"Ġstatus":4130,"Ġdoc":4131,"instr":4132,"DATE":4133,"spi":4134,"measure":4135,"Listen":4136,"boto":4137,"seek":4138,"Timeout":4139,"Direct":4140,"orizon":4141,"Ġ:'":4142,"cycle":4143,"browser":4144,"gue":4145,"spect":4146,"funct":4147,"Ġremove":4148,"trigger":4149,"UND":4150,"mul":4151,"memo":4152,"ModelAdmin":4153,"Provider":4154,"alled":4155,"Suite":4156,"Access":4157,".%":4158,"RED":4159,"pie":4160,"Values":4161,"vec":4162,"Ġgroup":4163,"ĠCommand":4164,"prepare":4165,"isdir":4166,"Off":4167,"big":4168,"stone":4169,"26":4170,"served":4171,"Ġreverse":4172,"ateri":4173,"']+":4174,"Bytes":4175,"ingle":4176,"compiler":4177,"Json":4178,"quan":4179,"EXT":4180,"derer":4181,"widgets":4182,"iv":4183,"Ġpost":4184,"Tool":4185,"recip":4186,"vistra":4187,"OrderedDict":4188,"bd":4189,"__='<":4190,"_):<":4191,"Wrapper":4192,"crement":4193,"ĠĠĠ":4194,"(,):<":4195,"readline":4196,"cleanup":4197,"lab":4198,"threads":4199,"',,":4200,"Mar":4201,"bb":4202,")**":4203,"ftp":4204,"double":4205,"([<":4206,"dic":4207,"ET":4208,"hoto":4209,"ords":4210,"(_('<":4211,"datastore":4212,"()])<":4213,"acc":4214,",['":4215,"_('":4216,"Ġpatch":4217,"\",)<":4218,"ĠV":4219,"runtime":4220,"Max":4221,"ugh":4222,"Password":4223,"://":4224,"ĠInvalid":4225,"Decimal":4226,"normalize":4227,"Ġerrors":4228,"sertion":4229,"blocks":4230,"128":4231,"Ġ!=:<":4232,"evalu":4233,"typ":4234,"Formatter":4235,"functools":4236,"setter":4237,"cancel":4238,"Ġ[]==":4239,"ifiers":4240,"scene":4241,"']=='":4242,"ftime":4243,">'],":4244,"dio":4245,"Operation":4246,"13":4247,"osity":4248,"END":4249,"gid":4250,"Min":4251,"_%":4252,"TAG":4253,"__,<":4254,"binding":4255,"PhoneNumberDesc":4256,"vstruct":4257,"),(,,":4258,"validators":4259,"123":4260,"placeholder":4261,"='.":4262,"atio":4263,"TYPES":4264,"OUT":4265,"lim":4266,"itude":4267,"Ġ\".":4268,"processed":4269,"Ġstate":4270,"strings":4271,"ux":4272,"Ġvisit":4273,"numbers":4274,"recipient":4275,"strap":4276,"remain":4277,"(\".":4278,"itle":4279,"manifest":4280,")],<":4281,"selection":4282,"ident":4283,"astype":4284,"multiple":4285,"Ali":4286,"cookies":4287,"02":4288,"PC":4289,"UNK":4290,"Popen":4291,"ĠIOError":4292,"ush":4293,"utdown":4294,"Exit":4295,"LOCK":4296,"organization":4297,"oci":4298,"trip":4299,"etadata":4300,"steps":4301,"TS":4302,"arm":4303,"void":4304,"definition":4305,"Dist":4306,"sid":4307,"ability":4308,"Ġsave":4309,"PARAM":4310,"Channel":4311,"Ameri":4312,"addCallback":4313,"SPACE":4314,"Builder":4315,"Url":4316,"Ġdist":4317,"SCRIP":4318,"ĠHTTP":4319,"Ġ+,":4320,"\":,<":4321,"week":4322,"prob":4323,"loss":4324,"Ġother":4325,"America":4326,"apping":4327,"pdf":4328,"ĠNo":4329,"invo":4330,"VAR":4331,"urlparse":4332,"Ġ[]))<":4333,"tablename":4334,"['<":4335,"Ġlib":4336,"wb":4337,"pixel":4338,"MIT":4339,"strftime":4340,"Transport":4341,"Matrix":4342,"Ġclean":4343,"correct":4344,"Ġ+=\"":4345,"prote":4346,"signed":4347,"Poly":4348,"')),('":4349,"lendar":4350,"boolean":4351,"Member":4352,"customer":4353,"inx":4354,"addresses":4355,"()),":4356,"Lib":4357,"nova":4358,">:\"":4359,"lists":4360,"xpath":4361,"repeat":4362,"gui":4363,"ways":4364,"ero":4365,"phone":4366,"em":4367,"geom":4368,"deepcopy":4369,"dh":4370,"Mode":4371,"'s":4372,"very":4373,"curr":4374,"Product":4375,"Container":4376,"gn":4377,"rozen":4378,"HA":4379,"WR":4380,"serial":4381,"Site":4382,">'),('":4383,"dock":4384,"ANY":4385,"Ġsu":4386,"specs":4387,"ness":4388,"Write":4389,"tial":4390,"DELETE":4391,"GRO":4392,"ich":4393,"vlan":4394,"more":4395,"answer":4396,"validator":4397,"Pub":4398,"bla":4399,"Root":4400,"Ġcommand":4401,"Ġhash":4402,"Files":4403,"Failed":4404,"CONTENT":4405,"[,,":4406,"theta":4407,"brl":4408,"tid":4409,"relative":4410,"annotations":4411,"MAGE":4412,"Ġsubprocess":4413,"Font":4414,"Pr":4415,"unic":4416,"dup":4417,"neighb":4418,"Ġsend":4419,"bounds":4420,"Ġversion":4421,"ines":4422,"')]<":4423,"CES":4424,"Edit":4425,"chunks":4426,"Ġimage":4427,"conv":4428,"andom":4429,"canvas":4430,"QtCore":4431,"HEADER":4432,"]:<":4433,"disc":4434,"Ġsouth":4435,"using":4436,"Environ":4437,"verbosity":4438,"dleware":4439,"'*":4440,"Ġsource":4441,"MAIL":4442,"SUB":4443,"ture":4444,"latest":4445,"UNT":4446,"Ġ{'":4447,"reduce":4448,"chr":4449,"60":4450,"Ġview":4451,"Ġ[:,:":4452,"structure":4453,"ĠTestCase":4454,"Static":4455,"MMAL":4456,"Ġopts":4457,"','.":4458,"refs":4459,"failUnless":4460,"Ġquery":4461,"Lookup":4462,"Series":4463,"curren":4464,"Inline":4465,"chan":4466,"ulk":4467,"Handle":4468,"Folder":4469,"gs":4470,"cenar":4471,"Cluster":4472,"Ġweb":4473,"ĠStringIO":4474,"nested":4475,"equals":4476,"acy":4477,"Names":4478,"URI":4479,"collect":4480,"delim":4481,"epoch":4482,"pas":4483,"peer":4484,"Tran":4485,"DataCache":4486,"Entity":4487,"CHAR":4488,"construct":4489,"(,,)<":4490,"ros":4491,"Defin":4492,"Params":4493,"Generator":4494,"Ġ:\"":4495,"updates":4496,"Plan":4497,"fw":4498,"xs":4499,"signals":4500,"\"][\"":4501,"Ġresults":4502,",'_":4503,"projects":4504,"dd":4505,"grp":4506,"deps":4507,"VT":4508,"Reader":4509,"bp":4510,"Dialog":4511,"impl":4512,"Ġ{}<":4513,"IE":4514,"ferences":4515,"facts":4516,"Basic":4517,"padding":4518,"SSION":4519,"([,,":4520,"disable":4521,"charset":4522,"Main":4523,"(),'":4524,"constant":4525,"ting":4526,"grade":4527,"servation":4528,"take":4529,"Ġ[][]":4530,"Choice":4531,"Metadata":4532,"Report":4533,"VarInt":4534,"{}),<":4535,"88":4536,"MT":4537,"rup":4538,"Ġparams":4539,"cov":4540,"Stub":4541,">'%<":4542,"acity":4543,"FLAGS":4544,"Vector":4545,"CC":4546,"iform":4547,"),\"":4548,"DateTimeField":4549,"ga":4550,"Mis":4551,"VM":4552,"'][]":4553,"Width":4554,"Feature":4555,"enc":4556,">%(":4557,"Agent":4558,"Socket":4559,"Ġinfo":4560,"scripts":4561,"fire":4562,"backends":4563,"mq":4564,"special":4565,"cases":4566,"pointer":4567,"',),('":4568,"ACHE":4569,"extr":4570,"Comple":4571,"mongo":4572,"quired":4573,"Book":4574,",[])<":4575,"Edge":4576,"Ġold":4577,"selector":4578,"tivity":4579,"509":4580,"formset":4581,"received":4582,"submission":4583,"ĠX":4584,"rough":4585,"indexes":4586,"catalog":4587,"']='<":4588,"floating":4589,"\"\\":4590,"Ġ[]:<":4591,"Deta":4592,"Runner":4593,"serializers":4594,"BR":4595,"getter":4596,"']==":4597,"bottom":4598,"Email":4599,"OD":4600,"mc":4601,"mtime":4602,"TIM":4603,"UI":4604,"\"]:<":4605,"Package":4606,"77":4607,"Ġnext":4608,"gc":4609,"Expression":4610,"notification":4611,"bed":4612,"pin":4613,"adapter":4614,"inspect":4615,"Mon":4616,"ev":4617,"workspace":4618,"ditional":4619,"phinx":4620,"area":4621,"Ġtarget":4622,"coords":4623,"inger":4624,"adcast":4625,"Constra":4626,"documents":4627,"ĠUn":4628,"ups":4629,"band":4630,"Tra":4631,"NODE":4632,"BooleanField":4633,"Ġ-=<":4634,"span":4635,"rhs":4636,"23":4637,"ka":4638,"-:<":4639,"ring":4640,"plus":4641,"*.":4642,"Ġsh":4643,"program":4644,"localhost":4645,"OPTION":4646,"nargs":4647,"experiment":4648,"dimension":4649,"sentry":4650,"='\\":4651,"configs":4652,"Norm":4653,"Ġcount":4654,"')))<":4655,"CLI":4656,"Ġshow":4657,"redis":4658,"Driver":4659,"127":4660,">'+<":4661,"Environment":4662,"CUR":4663,"licit":4664,"appengine":4665,"sla":4666,"radius":4667,"uffle":4668,"nado":4669,"adv":4670,"acquire":4671,"tester":4672,"ldap":4673,"POINTER":4674,"Ġclose":4675,"mpu":4676,"(\"--":4677,"Ġcmd":4678,"PEN":4679,"TextField":4680,"kill":4681,"METH":4682,"Ġgenerate":4683,"Ġfn":4684,"Ġ//":4685,"started":4686,"Del":4687,"exact":4688,"subscription":4689,"iterable":4690,"MAIN":4691,")+<":4692,"sigma":4693,"Ġexceptions":4694,"oll":4695,")[:":4696,">=":4697,"asarray":4698,"Ġ[]=='":4699,"routes":4700,"Listener":4701,"NULL":4702,"anon":4703,"ĠOS":4704,"',['":4705,"Ġ{<":4706,"terms":4707,"parents":4708,"Cook":4709,"PASS":4710,"completed":4711,"OFP":4712,"Ġcorehq":4713,"algorithm":4714,"eries":4715,"migration":4716,"siz":4717,">:'<":4718,"car":4719,"pw":4720,">'),('<":4721,"','')<":4722,"Tangible":4723,"__))<":4724,"ORY":4725,"bra":4726,"ATTRI":4727,"clu":4728,"Top":4729,"live":4730,"Registr":4731,"(,'<":4732,"optional":4733,"Helper":4734,",,,,,,,,,,,,,,,,,,,,,,,,,,,,,,,,,,,,,,,,,,,,,,,,,,,,,,,,,,,,,,,,,,,,,,,,,,,,,,,,,,,,,,,,,,,,,,,,,,,,,,,,,,,,,,,,,,,,,,,,,,,,,,,,":4735,"(,),(,),(,),(,),(,),(,),(,),(,),":4736,"walk":4737,"inity":4738,">['<":4739,"PREFIX":4740,"meric":4741,"Writer":4742,"andas":4743,"IF":4744,"mouse":4745,"pow":4746,"DataFrame":4747,"copi":4748,"argparse":4749,"Ġ+'.":4750,"Cloud":4751,"ndim":4752,"bootstrap":4753,"BER":4754,"VStruct":4755,"Ġcol":4756,"Backend":4757,"ube":4758,"COLOR":4759,"Ġfilter":4760,"Ġtheano":4761,">',[],{}),<":4762,"erred":4763,"KEN":4764,">',),<":4765,"Arti":4766,"secure":4767,"CACHE":4768,"same":4769,"WORK":4770,"egg":4771,"prox":4772,"Person":4773,"SOUR":4774,"66":4775,"ratio":4776,"proble":4777,"figure":4778,"IMAGE":4779,"wt":4780,"randint":4781,"WAR":4782,"tic":4783,"chdir":4784,"Recei":4785,"mpro":4786,"resize":4787,"lst":4788,"mbols":4789,"pet":4790,"produ":4791,"predict":4792,"cenario":4793,"eded":4794,"Ġjob":4795,"discover":4796,"relationship":4797,"ANCE":4798,"gories":4799,"lif":4800,"topo":4801,"CF":4802,"GP":4803,"Parent":4804,"Title":4805,">')%":4806,"inc":4807,"forward":4808,"tract":4809,"\"\"<":4810,"Cer":4811,"compati":4812,"\"].":4813,"Msg":4814,"trait":4815,"Func":4816,"attemp":4817,"ONG":4818,"Ġ[-]<":4819,"':_":4820,"Ġ]*":4821,"Ġ*(":4822,"alect":4823,"cidr":4824,"Constraint":4825,"sparse":4826,"',)":4827,"diag":4828,"Dep":4829,"today":4830,"clients":4831,"lwrite":4832,"iface":4833,"Has":4834,"Attributes":4835,"Transform":4836,"Ġinit":4837,"inder":4838,"ons":4839,"direc":4840,"','/":4841,"Ġnum":4842,"parsers":4843,"lobal":4844,"ctrl":4845,"formats":4846,"returns":4847,"objs":4848,"27":4849,"EOUT":4850,"encoder":4851,"quota":4852,"verage":4853,"activate":4854,"RES":4855,"MAL":4856,"Ġtemplate":4857,"kwds":4858,"Ġsa":4859,"ERY":4860,"Named":4861,",_=":4862,"Utils":4863,"DA":4864,"ful":4865,"splitlines":4866,"strict":4867,"rr":4868,"visor":4869,"ks":4870,"mg":4871,"dom":4872,"SHA":4873,"coro":4874,"cybox":4875,"crypt":4876,"gam":4877,"share":4878,"ĠMigration":4879,"abi":4880,"ticket":4881,"Ġdate":4882,"Ġ{}":4883,"expires":4884,"frozen":4885,"lopen":4886,"ategy":4887,"notes":4888,"listdir":4889,"Ġinput":4890,"())":4891,"Empty":4892,"Ġclear":4893,"deri":4894,"alth":4895,"ulation":4896,"PROTO":4897,"Ġsalt":4898,"CHO":4899,"Custom":4900,"ĠIndexError":4901,">':{'":4902,"STO":4903,"processing":4904,"Ġ>=:<":4905,"Python":4906,"Ġ2":4907,"exe":4908,",],[,],[":4909,"Ġ['_":4910,"perform":4911,"TABLE":4912,"Cor":4913,"room":4914,"good":4915,"what":4916,"Cons":4917,"limits":4918,"BE":4919,"kip":4920,"Track":4921,"writeField":4922,"moves":4923,"hint":4924,"tcp":4925,"ĠSer":4926,"FIELD":4927,"workbook":4928,"ĠEx":4929,"ĠValidationError":4930,">'-":4931,"iki":4932,"(','":4933,"({\"":4934,"NING":4935,"Pick":4936,"TCP":4937,"inja":4938,"Ġxml":4939,"saved":4940,"Ġmode":4941,"Ġsqlalchemy":4942,"ĠOSError":4943,"COM":4944,"encoded":4945,"Clean":4946,"rdf":4947,"START":4948,"flatten":4949,"Ġmodule":4950,"sia":4951,"spawn":4952,"Ti":4953,"roke":4954,"Raw":4955,"Ġmax":4956,"EC":4957,"dia":4958,"autos":4959,"ProtocolBuffer":4960,"yes":4961,"ĠCon":4962,"Grid":4963,"Debug":4964,"iterator":4965,"':(":4966,"LY":4967,"'],)<":4968,"already":4969,"vim":4970,"MEDI":4971,"PROJECT":4972,"Zero":4973,"Ġport":4974,"hooks":4975,"87":4976,"GROUP":4977,"caller":4978,"Nodes":4979,"ContentType":4980,"curl":4981,"INVALID":4982,"COUNT":4983,"TIMEOUT":4984,"trun":4985,"mesh":4986,"avg":4987,"CLASS":4988,"Offset":4989,"Category":4990,"Ġcall":4991,"Ġserver":4992,"compo":4993,"https":4994,"cipher":4995,"lr":4996,"background":4997,"interp":4998,"Mapping":4999,"}\".":5000,"Ġgen":5001,"=[]":5002,">[,,],<":5003,"Items":5004,"findall":5005,"Configured":5006,"clf":5007,"olver":5008,"logs":5009,"sizes":5010,"mpf":5011,"rstrip":5012,"IsA":5013,"Only":5014,"finished":5015,"without":5016,"')),<":5017,"Ax":5018,"lv":5019,"cross":5020,"Cookie":5021,"kit":5022,"urlopen":5023,"itter":5024,"Ġsetuptools":5025,"Xbrl":5026,"jid":5027,"slots":5028,"Ġrecord":5029,"Abstract":5030,"coding":5031,"acl":5032,"lick":5033,"49":5034,"Sum":5035,"sted":5036,",'__":5037,"disabled":5038,"Directory":5039,"rgb":5040,"Flow":5041,"celer":5042,"locations":5043,"serialized":5044,"Cap":5045,"Sig":5046,"opy":5047,"BUTE":5048,"descr":5049,"Ġ')<":5050,"Tuple":5051,"Ġcontent":5052,"',))<":5053,"logy":5054,"makedirs":5055,"La":5056,"Single":5057,"Ġitems":5058,"clip":5059,"FS":5060,"','_":5061,"Results":5062,":-":5063,"Ġitertools":5064,"EMAIL":5065,"SERVICE":5066,"ATTRIBUTE":5067,"tc":5068,"erge":5069,"cision":5070,"Iteration":5071,"Ġend":5072,"Counter":5073,"54":5074,"()=='":5075,"cope":5076,"{},":5077,"tification":5078,"Ġmod":5079,"sections":5080,"mkdir":5081,"=),<":5082,"uses":5083,"Ġsession":5084,"Ġroot":5085,"balance":5086,"freque":5087,"REC":5088,"MESS":5089,"entities":5090,"Ġvalues":5091,"assertIsNot":5092,"DATABASE":5093,"abort":5094,"writ":5095,"launch":5096,"syn":5097,"png":5098,"Ġparent":5099,"formation":5100,"Ġtests":5101,"disconnect":5102,"VENT":5103,"zz":5104,"')])<":5105,"Deferred":5106,"clock":5107,"kg":5108,"Ġdir":5109,"MESSAGE":5110,"dri":5111,"px":5112,"dhcp":5113,"lhs":5114,"chron":5115,"checks":5116,"FIL":5117,"virtual":5118,"assertNotEqual":5119,"Ġstop":5120,"under":5121,"leg":5122,"election":5123,"LOAD":5124,"distribution":5125,"BY":5126,"ef":5127,"Ġhttp":5128,"coeff":5129,"Asia":5130,"SUP":5131,"tk":5132,"les":5133,"fullname":5134,"dx":5135,"jor":5136,"press":5137,"volumes":5138,"creator":5139,"realm":5140,"Region":5141,"Ġhost":5142,"certificate":5143,"msa":5144,".*":5145,"_=<":5146,"irc":5147,"tin":5148,"txn":5149,"06":5150,"wall":5151,"':'',<":5152,"Ġiss":5153,"']=<":5154,"have":5155,"resolver":5156,"vtk":5157,"calculate":5158,"UUID":5159,"Ġwarnings":5160,")&":5161,"setitem":5162,"Ġ(":5163,"Ġparam":5164,"subclass":5165,"IGHT":5166,"which":5167,"aterials":5168,"SOURCE":5169,"(,,,,":5170,"oid":5171,"demo":5172,"([(":5173,"workers":5174,"!='":5175,"lp":5176,"mix":5177,"Ġlines":5178,"sian":5179,"GB":5180,"rx":5181,"Ġpage":5182,"Ġ+'/":5183,"([],":5184,"har":5185,"rea":5186,"deg":5187,"Keys":5188,"Ġugettext":5189,"minion":5190,"Ġframe":5191,"atist":5192,"()).":5193,"ttl":5194,"BAD":5195,"ilo":5196,"Ġentry":5197,"Ġiniti":5198,"istered":5199,"'),)<":5200,"Engine":5201,"sertionError":5202,"IVE":5203,"gments":5204,"separator":5205,"pv":5206,"defined":5207,"ArgumentParser":5208,"predicate":5209,"remaining":5210,"bas":5211,"reload":5212,"Structure":5213,"mproper":5214,"STER":5215,"para":5216,"Ġblock":5217,"smart":5218,"CD":5219,"Flavor":5220,"symbols":5221,"flo":5222,"classifiers":5223,"failures":5224,"Help":5225,"Ġoption":5226,"Ġnose":5227,"Feed":5228,"bulk":5229,"mic":5230,"Ġidx":5231,"lencode":5232,"focus":5233,"Param":5234,"levels":5235,"alert":5236,"filenames":5237,"Enabled":5238,"urlencode":5239,"exog":5240,"allback":5241,"Close":5242,"Ġgr":5243,"tri":5244,"frames":5245,"BS":5246,"stride":5247,"shutdown":5248,"Memory":5249,"Volume":5250,"increment":5251,"suc":5252,"fragment":5253,"Ġenv":5254,"ĠConfig":5255,"lyConfigured":5256,"ĠTemp":5257,"orizontal":5258,"mproperlyConfigured":5259,"optim":5260,"framework":5261,"Any":5262,")!=:<":5263,"echo":5264,"tices":5265,"division":5266,"dog":5267,"linear":5268,"METHOD":5269,"cel":5270,"shard":5271,"communic":5272,"NOWN":5273,"Worker":5274,"rupt":5275,"GTH":5276,"guid":5277,"orient":5278,"algo":5279,"comb":5280,"Pos":5281,"Ġsize":5282,"credential":5283,"Cell":5284,"tracks":5285,"65":5286,"Ġconnection":5287,"Depen":5288,"MPLE":5289,"decorator":5290,"ĠFile":5291,"confirm":5292,"ofproto":5293,"dependent":5294,"OL":5295,"ww":5296,"namespaces":5297,"ula":5298,"ACTION":5299,"))))<":5300,"windows":5301,"decorators":5302,"utcnow":5303,"Ġmo":5304,"Ġ[:],":5305,"Symbol":5306,"dae":5307,"nor":5308,"orary":5309,"standard":5310,"prep":5311,"ATOR":5312,"scores":5313,"CHOI":5314,"Ġutil":5315,"tempdir":5316,"CEP":5317,"Children":5318,"Vis":5319,"az":5320,"weak":5321,"LOB":5322,"glyph":5323,"srv":5324,"acter":5325,"sqlite":5326,"ĠPer":5327,"licate":5328,"Ġtuple":5329,"Current":5330,"DEX":5331,"director":5332,"ading":5333,"traits":5334,"LENGTH":5335,"Ġmin":5336,"scr":5337,"calendar":5338,"rename":5339,"internet":5340,"))+":5341,"Random":5342,"ĠName":5343,"Ġinst":5344,"fileno":5345,"filtered":5346,"-)<":5347,"bbox":5348,"ftype":5349,"speed":5350,"Ġregister":5351,"Ġlast":5352,"aller":5353,"tip":5354,"dialog":5355,"mtree":5356,"attachment":5357,"Sched":5358,"scenario":5359,"meter":5360,"canon":5361,"Execution":5362,"callbacks":5363,"QUERY":5364,"ntaxError":5365,"ket":5366,"deferred":5367,"Ġel":5368,"inp":5369,"until":5370,"ĠSet":5371,"Pay":5372,"lour":5373,"sitions":5374,"foreign":5375,"LP":5376,"usters":5377,"Bool":5378,"Definition":5379,"Ġobject":5380,"DEF":5381,">[,,,,":5382,"ĠPy":5383,"boundary":5384,"alle":5385,"getcwd":5386,"Ter":5387,"Ġ[:,":5388,"Lim":5389,"PRI":5390,"RC":5391,"cn":5392,"ARY":5393,"hyper":5394,"Pat":5395,"rout":5396,"']),<":5397,"subscribe":5398,"native":5399,"tm":5400,"INDEX":5401,"dialect":5402,"(,),<":5403,"BUIL":5404,"nonce":5405,"gradient":5406,"ond":5407,"plotlib":5408,"thumbna":5409,"att":5410,"unlink":5411,"ulator":5412,"Ġinter":5413,"interfaces":5414,"Cmd":5415,"Ġctx":5416,"plural":5417,">':,<":5418,"candidate":5419,">{":5420,"photo":5421,"coordin":5422,"flash":5423,"trove":5424,"always":5425,"argin":5426,"Over":5427,"city":5428,"lict":5429,"DOMAIN":5430,"geometry":5431,"abilities":5432,"devices":5433,"ingerprint":5434,"LIN":5435,"aws":5436,"crop":5437,"',{'":5438,"=''):<":5439,"')):<":5440,"Operator":5441,"literal":5442,"tzinfo":5443,"bum":5444,"LIC":5445,">{\"":5446,"td":5447,"Ġtempfile":5448,"matplotlib":5449,"ACCESS":5450,"categories":5451,"embed":5452,"sensor":5453,"Ġexecute":5454,"define":5455,"Ġfe":5456,"regions":5457,"assertIsNone":5458,"IZ":5459,"RT":5460,"appe":5461,"EVENT":5462,"PACK":5463,"Ġfields":5464,"obar":5465,"':})<":5466,"ĠAs":5467,")]=":5468,">+":5469,"OBJECT":5470,")}<":5471,"NAL":5472,"':[<":5473,"ctl":5474,"ribe":5475,"daemon":5476,"Ġtable":5477,"RECT":5478,"/')<":5479,"Ġuse":5480,"removed":5481,"=(\"":5482,"combin":5483,"tence":5484,"superuser":5485,"HttpRequest":5486,"Features":5487,"REG":5488,"=),":5489,"Ġlocal":5490,"ancer":5491,"':}":5492,"Login":5493,"=['_":5494,"TOKEN":5495,"Org":5496,"initialize":5497,"mas":5498,"creation":5499,"union":5500,"extras":5501,"57":5502,"WIN":5503,"Ġany":5504,"Ġreturn":5505,"ĠError":5506,"major":5507,"lace":5508,"Ġ:]<":5509,"minutes":5510,"UNKNOWN":5511,"ĠK":5512,"ĠData":5513,"ordered":5514,"arge":5515,"('')<":5516,"uman":5517,"quiet":5518,"audio":5519,"cations":5520,"rmtree":5521,"orph":5522,"000":5523,"authenticated":5524,"IST":5525,"UD":5526,"Dictionary":5527,"Unit":5528,"StopIteration":5529,"allen":5530,"\":{\"":5531,"Ġ-=":5532,"LAY":5533,"receive":5534,"Transaction":5535,"exchange":5536,",,,],<":5537,"gon":5538,"readonly":5539,"192":5540,"msgs":5541,"RUN":5542,"wi":5543,"Ġredirect":5544,"outer":5545,"}',":5546,"gevent":5547,"latex":5548,"Ġflag":5549,"Authenti":5550,"delimiter":5551,"Send":5552,"ysql":5553,"wraps":5554,"Height":5555,"published":5556,"since":5557,"compatible":5558,"hours":5559,":]<":5560,"Used":5561,"SITE":5562,"Ġcache":5563,"posix":5564,"copia":5565,"FAIL":5566,"Verify":5567,"Identifier":5568,"sms":5569,"gu":5570,"represent":5571,"([[":5572,"Multiple":5573,"Wh":5574,"ymo":5575,"Opt":5576,"Ġforms":5577,"Ġ[:-]<":5578,"BinaryProtocol":5579,"(+":5580,"Bind":5581,"Hello":5582,"hn":5583,"orth":5584,"Ġ[]-":5585,"Cursor":5586,"evaluate":5587,"Den":5588,"health":5589,"lexer":5590,")%":5591,"Gre":5592,"uation":5593,"Fixt":5594,"Nu":5595,"([])<":5596,"Ġbe":5597,"pus":5598,"Ġthreading":5599,"clusters":5600,"Space":5601,"uro":5602,"ĠRequest":5603,"aris":5604,"=[,,":5605,"creds":5606,"converter":5607,"Ġfiles":5608,"restore":5609,"tit":5610,"dates":5611,"resolvers":5612,"needs":5613,"nr":5614,"currency":5615,"Ġconn":5616,"sizer":5617,"vpn":5618,"buff":5619,"Contains":5620,"Ġ\"<":5621,"inct":5622,"meth":5623,"':}<":5624,"argtypes":5625,"Insert":5626,"soft":5627,"Ġrequests":5628,"hide":5629,"infile":5630,"Required":5631,"Editor":5632,"ARD":5633,"ĠImage":5634,"gamma":5635,"Ġ-)<":5636,"dry":5637,"finder":5638,"Import":5639,"mob":5640,"tot":5641,"tour":5642,"VALUE":5643,"Ġeval":5644,"APPS":5645,"Flags":5646,"quantity":5647,"fk":5648,"Loop":5649,"Ġpypy":5650,"Parameters":5651,"Related":5652,"crypto":5653,"ĠApp":5654,",('":5655,"mut":5656,"Ġkeys":5657,"')+":5658,"dao":5659,"mitive":5660,"editable":5661,"ymous":5662,"uniform":5663,"spam":5664,"Arch":5665,"ADMIN":5666,"\":,\"":5667,"blueprint":5668,"28":5669,"Materials":5670,"lent":5671,"Ġinspect":5672,"ryp":5673,"Expr":5674,"ATCH":5675,"mimetype":5676,"CHECK":5677,"MEDIA":5678,"_'+":5679,"une":5680,"cmdline":5681,"Null":5682,"Rest":5683,"Ġ]=<":5684,"dynamic":5685,"Geometry":5686,")],":5687,"Non":5688,"PS":5689,"dashboard":5690,"Ġdistutils":5691,"hop":5692,"lm":5693,"tenv":5694,"KeyError":5695,"Ġurlparse":5696,"SYS":5697,"Ġsympy":5698,"ai":5699,"apsed":5700,"urlpatterns":5701,"ithub":5702,"ration":5703,"Ġio":5704,")['":5705,"wise":5706,"working":5707,"Ġdecor":5708,"Received":5709,"Ġexpected":5710,"foobar":5711,"MSG":5712,"PAGE":5713,"accep":5714,"Points":5715,"Ġcolumn":5716,">'),(\"":5717,"SECRE":5718,"anchor":5719,"logical":5720,"authenticate":5721,"fastbinary":5722,"03":5723,"through":5724,"=[],":5725,"nodelist":5726,"sudo":5727,"SCRIPT":5728,"stor":5729,"OPEN":5730,"authorized":5731,"\"}":5732,"'),('<":5733,"smtp":5734,"rollback":5735,"btn":5736,"MAN":5737,"TBinaryProtocol":5738,"leaf":5739,"broadcast":5740,"04":5741,"idge":5742,"Ġ][]":5743,"Initi":5744,"Statement":5745,"CREATE":5746,"BACK":5747,"ValidationTest":5748,"vc":5749,"oney":5750,"ody":5751,"Ġref":5752,"Ġparser":5753,"putVarInt":5754,"hr":5755,"endor":5756,"locator":5757,"cipy":5758,"Normal":5759,"BIN":5760,"Conn":5761,"manual":5762,"disks":5763,"$',":5764,"Rect":5765,"Script":5766,"Ġ[<":5767,"alive":5768,"checksum":5769,"Upload":5770,"zk":5771,"Ġ<<":5772,"ERS":5773,"Conf":5774,"transfer":5775,"vote":5776,"LOGGER":5777,"Route":5778,"FC":5779,"chrom":5780,"('__":5781,"ective":5782,"FILTER":5783,"SECRET":5784,"nick":5785,"ACTI":5786,"PASSWORD":5787,"Us":5788,"bold":5789,"installed":5790,"cuda":5791,"Lex":5792,"Ġfound":5793,"Sa":5794,"[<":5795,"={'<":5796,"AttributeError":5797,"factories":5798,"timi":5799,"quit":5800,"dicts":5801,"'\"":5802,"Copy":5803,"Article":5804,"sphinx":5805,"Ġspec":5806,"tend":5807,"('/')<":5808,"SCA":5809,"WE":5810,"Replay":5811,"rong":5812,"vistrail":5813,"timizer":5814,"((,":5815,"Ġheaders":5816,"come":5817,"POINT":5818,"eve":5819,"unused":5820,"upgrade":5821,"Ġglob":5822,")+\"":5823,"MPTY":5824,"oom":5825,"traj":5826,"checked":5827,"(':'":5828,"fron":5829,"rase":5830,"REQU":5831,"overwrite":5832,"-<":5833,"Ġfunctools":5834,"nom":5835,"pository":5836,",):<":5837,"IAL":5838,"NAMESPACE":5839,")[]":5840,"forum":5841,"ĠAr":5842,"FN":5843,"Te":5844,"RESS":5845,"opener":5846,"ĠTemplate":5847,"bility":5848,"xc":5849,"Ġuuid":5850,"integr":5851,"cipe":5852,"CHOICES":5853,"atar":5854,"rou":5855,"Inst":5856,"LOCAL":5857,"*<":5858,">-":5859,"NONE":5860,"bill":5861,"retval":5862,"__==":5863,">_('<":5864,"ĠMy":5865,"Byte":5866,"Queryset":5867,"BIT":5868,"Wa":5869,"()==<":5870,"Disk":5871,"paginator":5872,"ling":5873,"Ġnetwork":5874,"Can":5875,"sired":5876,"Ġ\"\"\"<":5877,"Ġmark":5878,"eol":5879,"sam":5880,"ĠElement":5881,"Depre":5882,"Display":5883,"nl":5884,">'}<":5885,"',,,":5886,"bus":5887,"havi":5888,"/',":5889,"mysql":5890,"maps":5891,"cmds":5892,"Ġscipy":5893,"ago":5894,"StringField":5895,"Ġ+\"/":5896,"45":5897,"ving":5898,"STATIC":5899,"Bit":5900,"DNA":5901,"sem":5902,"atype":5903,"Render":5904,"inplace":5905,"jar":5906,"xp":5907,"Merge":5908,"strategy":5909,"positional":5910,"Ġ!=\"":5911,"MODEL":5912,"Remote":5913,"Headers":5914,"autospec":5915,"queries":5916,"Pattern":5917,"NOR":5918,"tv":5919,"abstra":5920,"Processor":5921,"builtins":5922,"Registry":5923,"Slice":5924,"Ġmath":5925,"litext":5926,"Axis":5927,"ĠQ":5928,"Ġback":5929,"oro":5930,"noise":5931,"gh":5932,"elapsed":5933,"etag":5934,"swap":5935,"abstractmethod":5936,"Sha":5937,"Ġauth":5938,"defaultdict":5939,"Ġreq":5940,"vail":5941,"transition":5942,"Almost":5943,"restype":5944,"Linear":5945,"Ġsklearn":5946,"=_('":5947,"payment":5948,"78":5949,">*":5950,"Errors":5951,"REMO":5952,"udit":5953,"Annot":5954,"Sw":5955,"cator":5956,"gp":5957,"pan":5958,"allenge":5959,"ReplayAll":5960,"lc":5961,"Ġverbose":5962,"atistics":5963,"coll":5964,"Properties":5965,")|":5966,"cmap":5967,"flask":5968,"album":5969,"Show":5970,"fu":5971,"REF":5972,"ACT":5973,"168":5974,"recursive":5975,"MAC":5976,"Ġcompute":5977,"vertical":5978,"Prefix":5979,"legend":5980,"rd":5981,"linalg":5982,"fingerprint":5983,"Ġip":5984,"defs":5985,"Fix":5986,"AlmostEqual":5987,"Ġtop":5988,"CHANGE":5989,"NUMBER":5990,"RENT":5991,"spacing":5992,"CONNE":5993,"Generate":5994,"Tabular":5995,"DWORD":5996,"Rad":5997,"sca":5998,"fft":5999,"joint":6000,"ranges":6001,"TRAN":6002,"datasets":6003,"Ġcomp":6004,"Ġcommon":6005,"staff":6006,"Global":6007,"ToMany":6008,"Unknown":6009,"adj":6010,"Ġoslo":6011,"reqs":6012,"routing":6013,"gene":6014,"obs":6015,"vip":6016,"oft":6017,"variant":6018,"nw":6019,"Ġwith":6020,"Ġshutil":6021,"\",\"\")<":6022,"cells":6023,"Dependen":6024,"AIN":6025,"eper":6026,"hits":6027,"slot":6028,"funcs":6029,">[\"":6030,"FLAG":6031,"mr":6032,"([('":6033,"constraints":6034,"uted":6035,"dead":6036,"checker":6037,"Ġforce":6038,"DOWN":6039,"123456":6040,"retries":6041,"patcher":6042,"tracker":6043,"aw":6044,"':{":6045,"LEVE":6046,"Namespace":6047,"DIRECT":6048,"tbl":6049,"Ġdivision":6050,"Authorization":6051,"assertIsNotNone":6052,"Body":6053,"rval":6054,"amera":6055,"__=['":6056,"()[:":6057,"providers":6058,"topics":6059,"protection":6060,"ark":6061,"Tools":6062,"Br":6063,"Mid":6064,"Ġtypes":6065,"ĠStopIteration":6066,"hasattr":6067,"MEM":6068,"ALLED":6069,")>=":6070,"Windows":6071,"HAND":6072,"PR":6073,"squ":6074,"Ġrest":6075,"ModelForm":6076,"Positive":6077,"Vertex":6078,"registration":6079,"micro":6080,"CU":6081,"domains":6082,"Actor":6083,"Ġdebug":6084,"Ġ[,]":6085,"openstack":6086,"Ġ<=:<":6087,")),('<":6088,"design":6089,"learning":6090,"foot":6091,"netloc":6092,"copyright":6093,"splitext":6094,"QuerysetEqual":6095,"ABLE":6096,"Ġexp":6097,"robot":6098,"observer":6099,"=((":6100,"profiler":6101,"hexdigest":6102,"ied":6103,"dete":6104,"Fields":6105,"INSTALLED":6106,"formatted":6107,"Ġ:(":6108,"WRITE":6109,"Ġwrapper":6110,"',,-":6111,"appro":6112,"populate":6113,"bins":6114,"CLO":6115,"',(":6116,"Produ":6117,"META":6118,"ITH":6119,"provide":6120,"misc":6121,"receiver":6122,"LANG":6123,"Ġfirst":6124,"decoder":6125,">',,":6126,"subst":6127,"lltype":6128,"extended":6129,"Endpoint":6130,"inher":6131,"=(('":6132,"Join":6133,"Fixture":6134,"Ġraw":6135,"dictionary":6136,"assertQuerysetEqual":6137,"Remove":6138,"alizer":6139,"phi":6140,"))]<":6141,"certs":6142,"teardown":6143,"IM":6144,"gz":6145,"nat":6146,"Ġsimple":6147,">')),<":6148,"FAKE":6149,"publisher":6150,"(,\"":6151,"shortcut":6152,"Lexer":6153,"bj":6154,"pts":6155,"Ġtr":6156,"Ġargparse":6157,"UB":6158,"ound":6159,"usr":6160,"Transl":6161,"magic":6162,"arison":6163,"fallback":6164,"wiki":6165,"Ġadmin":6166,"Ġneutron":6167,"visi":6168,"connector":6169,"README":6170,"NC":6171,"Ori":6172,"Step":6173,"ope":6174,"Ġheader":6175,"Ġelem":6176,"depre":6177,"Ġpub":6178,"KET":6179,"neighbors":6180,"dimensions":6181,"fc":6182,"nic":6183,"reservation":6184,"']),":6185,"Ġ])":6186,"urope":6187,"Last":6188,"First":6189,"((,,":6190,"FILES":6191,"ni":6192,"addon":6193,"sistent":6194,"(['<":6195,"),,":6196,"05":6197,"Ġclass":6198,"Ġbody":6199,"passwd":6200,"The":6201,"shuffle":6202,"Virt":6203,"authors":6204,"MID":6205,"MULT":6206,"Ġne":6207,"Async":6208,"Ġmap":6209,"patial":6210,"ables":6211,"\",\"-":6212,"hell":6213,"ĠBad":6214,"wk":6215,"Ġelement":6216,"ino":6217,"subtype":6218,"Addr":6219,"../":6220,"Success":6221,"REQUI":6222,"96":6223,"gnore":6224,"dm":6225,"vg":6226,"life":6227,"\"),(\"":6228,"MAR":6229,"Sample":6230,"Ġsearch":6231,"='+":6232,"joined":6233,"given":6234,"\"\"\"<":6235,"ĠResponse":6236,"stage":6237,"erry":6238,"votes":6239,",-,-":6240,"xform":6241,"aper":6242,"','','":6243,">',(":6244,"logged":6245,"Usage":6246,"urlresolvers":6247,"maybe":6248,"SubElement":6249,"Validator":6250,"encryp":6251,"setLevel":6252,"keystone":6253,"Ġstruct":6254,"problem":6255,"VA":6256,"ited":6257,"STY":6258,"UNI":6259,"FFER":6260,"migrate":6261,"Ġboto":6262,"weet":6263,"docker":6264,"Tw":6265,"',\"":6266,"Section":6267,"processes":6268,"declar":6269,"'t":6270,"=)),('":6271,"Ġ%(":6272,"black":6273,"__=\"":6274,"crete":6275,"isode":6276,"Certificate":6277,"Batch":6278,"Find":6279,"VO":6280,"ume":6281,"Ġpos":6282,"quot":6283,"RESP":6284,"Ġtor":6285,"Metric":6286,",{})<":6287,"pycopia":6288,"Ġcallable":6289,"Ġ+(":6290,"perms":6291,"requirements":6292,"FRA":6293,"secs":6294,"associ":6295,"']]<":6296,"RequestHandler":6297,"cpus":6298,"Ġ+'\\":6299,"CL":6300,"ball":6301,"Ġresource":6302,"mine":6303,"general":6304,"capture":6305,"'][]['":6306,"frequency":6307,":',":6308,"]),":6309,"sity":6310,"Ġ',":6311,"Ip":6312,"deserialize":6313,"nored":6314,"Ġ+\".":6315,"Decode":6316,"spider":6317,"*(":6318,"_))<":6319,"gress":6320,"Ġproject":6321,"desired":6322,"WB":6323,"dw":6324,"maker":6325,"Timestamp":6326,"clause":6327,"']):<":6328,"coming":6329,"feat":6330,"lavors":6331,"notifier":6332,"Pickle":6333,"pli":6334,"sites":6335,"vilege":6336,"Ġ'\\":6337,"SES":6338,"ĠSimple":6339,"wave":6340,"shapes":6341,"communicate":6342,"Europe":6343,"MD":6344,"TL":6345,"must":6346,"ny":6347,"renderer":6348,"RequestContext":6349,"swift":6350,"scopes":6351,"Pi":6352,"OptionParser":6353,"Descriptor":6354,"cron":6355,"Extra":6356,"aging":6357,"CLU":6358,"atol":6359,"Commit":6360,"LIMIT":6361,"describe":6362,")})<":6363,"Ġmatplotlib":6364,"ĠCre":6365,"authorize":6366,"assignment":6367,"Ġvar":6368,"Ġlabel":6369,"Move":6370,"FunctionTable":6371,"FUN":6372,"IR":6373,"lue":6374,"vendor":6375,"additional":6376,"randn":6377,"Scal":6378,"Ġrule":6379,"tee":6380,"digit":6381,"Ġreset":6382,"':['<":6383,"Timer":6384,"Hy":6385,"aries":6386,"():":6387,"(,-":6388,"THON":6389,"subnets":6390,"LINK":6391,"CER":6392,"adap":6393,"ressed":6394,"maximum":6395,"registered":6396,"Notification":6397,"(,,))<":6398,"Relation":6399,"Pipeline":6400,"SPE":6401,"={}":6402,"ĠMGL":6403,"ĠMGLFunctionTable":6404,">'}":6405,"ĠClient":6406,"bsd":6407,"AME":6408,"Sm":6409,"reil":6410,"about":6411,"marks":6412,"small":6413,"BadRequest":6414,"tmpl":6415,"ENG":6416,"jac":6417,"cture":6418,"csrf":6419,"monkey":6420,"142":6421,"Optional":6422,"46":6423,"Next":6424,"mutable":6425,"Ġservice":6426,"DED":6427,"Ġemail":6428,"permissionGroup":6429,"protectionLevel":6430,"Ġlink":6431,"SELE":6432,"blog":6433,")+'":6434,"Credenti":6435,"OFF":6436,"sf":6437,"ceed":6438,"codec":6439,"generated":6440,"=).":6441,"park":6442,"Ġ]):<":6443,"pprint":6444,"='\\\\":6445,"Ġrel":6446,"Ġopenstack":6447,"artifact":6448,"Detail":6449,")<:<":6450,"idle":6451,"1024":6452,"Activity":6453,"variance":6454,"RY":6455,"bob":6456,"jax":6457,"INIT":6458,"alf":6459,"scriptions":6460,"terminal":6461,"/'+":6462,">:<":6463,"Icon":6464,"Sn":6465,"Word":6466,"ĠMock":6467,"BUFFER":6468,"Supported":6469,"ims":6470,"rag":6471,"stru":6472,"[-]<":6473,"Deprecation":6474,"bio":6475,"was":6476,"asm":6477,"ndarray":6478,"Ġnorm":6479,"Builtin":6480,"guest":6481,"advance":6482,"ENA":6483,"Player":6484,"assertAlmostEqual":6485,"Ġftype":6486,"matched":6487,"beat":6488,"examples":6489,"Print":6490,"Zip":6491,"ared":6492,"oration":6493,"matching":6494,"ĠImproperlyConfigured":6495,"_('<":6496,"heel":6497,"phy":6498,"SSH":6499,"Exists":6500,"lstrip":6501,"Ġtraceback":6502,"SESSION":6503,"Ġ[-].":6504,"Align":6505,"pixels":6506,"Trace":6507,"SYST":6508,"ILED":6509,"Train":6510,"rays":6511,"pathname":6512,"Ġ]==":6513,"minimum":6514,"Wait":6515,"average":6516,"horizontal":6517,"adjust":6518,"resolved":6519,"HEAD":6520,"EMPTY":6521,"Gen":6522,"Ids":6523,"strs":6524,"pot":6525,"Ġ[]]<":6526,"cade":6527,"Lang":6528,"Trove":6529,"ynamic":6530,"Contact":6531,"slave":6532,"STYLE":6533,"bc":6534,"containers":6535,"stubs":6536,".')<":6537,"95":6538,"RPC":6539,"fault":6540,"mpath":6541,"',_('":6542,"=[(\"":6543,"Ġ[]),":6544,"docstring":6545,"phrase":6546,"collector":6547,"snip":6548,"streams":6549,"Card":6550,"Sen":6551,"jam":6552,"java":6553,"ily":6554,"primitive":6555,"ĠAuth":6556,"frozenset":6557,"thumbnail":6558,"udo":6559,"VP":6560,"restart":6561,"ĠHttpResponseRedirect":6562,"hd":6563,"Dock":6564,"OwnerId":6565,"hdf":6566,"Ġhandler":6567,"STOP":6568,"logfile":6569,"realpath":6570,"negative":6571,"Ġissub":6572,"LEVEL":6573,"Imp":6574,"Sli":6575,"Ġcolor":6576,"UTF":6577,"inject":6578,"readlines":6579,"COMMAND":6580,"ENGINE":6581,"FE":6582,"subs":6583,",:,:":6584,"atomic":6585,"Ucs":6586,"nid":6587,"couch":6588,"pools":6589,"ĠPY":6590,"datap":6591,"Ġcur":6592,"Init":6593,"rypt":6594,"Ġmulti":6595,"opacity":6596,"prof":6597,">':\"":6598,"annotate":6599,"]),<":6600,"Ġext":6601,"ĠSchema":6602,"Note":6603,"Selection":6604,"WSGI":6605,"wp":6606,"andbox":6607,"HttpResponse":6608,"''<":6609,"github":6610,"accounts":6611,"DeprecationWarning":6612,"42":6613,"WH":6614,"{:":6615,"Ġplatform":6616,"DEVICE":6617,"arity":6618,"expan":6619,"balancer":6620,",__":6621,"google":6622,"rp":6623,"setText":6624,"Chain":6625,"Interrupt":6626,"coverage":6627,"Mes":6628,"elf":6629,"fileobj":6630,"grant":6631,"POM":6632,"Part":6633,"cas":6634,"returncode":6635,"BUT":6636,"Cannot":6637,"resolution":6638,"metaclass":6639,"erce":6640,"',('":6641,"minor":6642,"identifi":6643,"Browser":6644,"sz":6645,"usted":6646,"dence":6647,"Ġ[:,]":6648,"Adapter":6649,"ADDR":6650,"ĠAssertionError":6651,"Ġissubclass":6652,"]*":6653,"cx":6654,"Ġselect":6655,"Ġbool":6656,"drive":6657,"Ġtornado":6658,"RU":6659,"Ġchar":6660,"interpol":6661,"MODU":6662,"expiration":6663,"ToManyField":6664,"Cal":6665,"Ker":6666,"cpp":6667,"difference":6668,"requested":6669,"segments":6670,"friend":6671,"=()<":6672,">],":6673,"Ġsum":6674,"diffs":6675,"Cleanup":6676,"Ġgrr":6677,"/<":6678,">},":6679,"rtol":6680,"independent":6681,"Ġfin":6682,"licies":6683,"Ġpython":6684,"Functions":6685,"gis":6686,"three":6687,"positions":6688,">\"%":6689,"heading":6690,"ggreg":6691,"EW":6692,"tax":6693,"==[":6694,"fb":6695,"pings":6696,"tre":6697,"Ġcase":6698,"Ġ[:]:<":6699,"),(,,),(,,":6700,"Library":6701,"TING":6702,"Ġconvert":6703,"',[]":6704,"kwarg":6705,"phase":6706,"posts":6707,"constructor":6708,"SYSTEM":6709,"tl":6710,"ua":6711,"Ġtitle":6712,"seudo":6713,"RGB":6714,"each":6715,"ken":6716,"sessions":6717,"=',":6718,"codename":6719,"syntax":6720,"datas":6721,"critical":6722,"pieces":6723,"MainWindow":6724,"Scope":6725,"Ġfoo":6726,"mes":6727,"Ġspace":6728,"ACTIVE":6729,"MODULE":6730,"cname":6731,"Ġstats":6732,"Prop":6733,"ĠSe":6734,"bindings":6735,"terminate":6736,"OAuth":6737,"catch":6738,"human":6739,"printer":6740,"ConfigParser":6741,"EXP":6742,"Ġskip":6743,"Fin":6744,"XY":6745,"completion":6746,"Changed":6747,"deriv":6748,"ĠModel":6749,"chat":6750,"Ġimp":6751,"sical":6752,"styles":6753,"vtType":6754,"OPTIONS":6755,"RESULT":6756,"jump":6757,"ycle":6758,"colour":6759,"then":6760,"samp":6761,"izard":6762,"fsm":6763,"analysis":6764,"AutoField":6765,"Publish":6766,"Ġhashlib":6767,"Hist":6768,"PID":6769,"Ġpickle":6770,"precision":6771,"subset":6772,"Chunk":6773,"modname":6774,"ather":6775,"BLED":6776,"overrides":6777,"Missing":6778,"pur":6779,"Ġ]=(":6780,"makeOne":6781,"Ġ[]):<":6782,"={},":6783,"SUC":6784,"assette":6785,"Renderer":6786,"arcpy":6787,"NER":6788,"csi":6789,"hot":6790,"logout":6791,"alization":6792,"Security":6793,"training":6794,"allel":6795,":\",":6796,"jit":6797,"margin":6798,"Ġprefix":6799,"=\"/":6800,"Scale":6801,"ĠJ":6802,">'),(":6803,"scroll":6804,"DIS":6805,"endpoints":6806,"NORMAL":6807,"tell":6808,"=''.":6809,"locked":6810,"itervalues":6811,"ogram":6812,"ĠĠĠĠ":6813,",{<":6814,"Diff":6815,"Ġconf":6816,"Consu":6817,"RANGE":6818,"modelXbrl":6819,">'].":6820,"Face":6821,"Ġ|=":6822,"paragraph":6823,"xl":6824,"Ġpkg":6825,"CMD":6826,"Limit":6827,"Shape":6828,"vpc":6829,"checkout":6830,"viewer":6831,"LIB":6832,"qt":6833,"hashes":6834,"distinct":6835,"NEW":6836,"nm":6837,"ffici":6838,">'_":6839,"rendered":6840,"rotation":6841,"servable":6842,"pq":6843,"Ġ\",":6844,"Ġchunk":6845,"':'','":6846,"Release":6847,"reports":6848,"SyntaxError":6849,")._":6850,",[]":6851,"CB":6852,"zmq":6853,"ĠResource":6854,"Err":6855,"bam":6856,"FLO":6857,"evt":6858,"ugettext":6859,"keypair":6860,"ĠSy":6861,"ird":6862,"Dele":6863,"SIT":6864,"qn":6865,"altern":6866,"STRE":6867,"imports":6868,"ALLOW":6869,"delegate":6870,"TestSuite":6871,"sug":6872,"executor":6873,"Virtual":6874,"Ġnames":6875,"remap":6876,"iterations":6877,"Eval":6878,"ear":6879,"mf":6880,"touch":6881,"portal":6882,"')=='":6883,"hashlib":6884,"FOUND":6885,"expanduser":6886,"(':":6887,"tup":6888,"STRU":6889,"erarch":6890,"challenge":6891,"sic":6892,"commits":6893,"'),(,'":6894,"broker":6895,"anti":6896,")/<":6897,"bias":6898,"Organization":6899,"smo":6900,"xmlns":6901,"CreateModel":6902,"((,))<":6903,"DL":6904,"SW":6905,"bel":6906,"ov":6907,"Ġvalid":6908,"offsets":6909,"Ġ))<":6910,"does":6911,"cach":6912,"Ġorder":6913,"GIN":6914,"Ġchange":6915,"into":6916,"__(<":6917,"tral":6918,"unce":6919,"sist":6920,"Contents":6921,"highlight":6922,"((,),":6923,"IES":6924,"cardinal":6925,"::":6926,"Router":6927,"UAGE":6928,"fold":6929,"vif":6930,"discount":6931,"(),\"":6932,"Dimension":6933,"numeric":6934,"Ġ/<":6935,"Active":6936,"('.')<":6937,"Analy":6938,"Iterator":6939,"criter":6940,"zoom":6941,"Ġ0":6942,"optimizer":6943,"palet":6944,"FAILED":6945,"ana":6946,"keyname":6947,"factors":6948,"Validate":6949,"INET":6950,")-<":6951,"Ap":6952,"Ġnodes":6953,"Moved":6954,"Ġfloat":6955,"Ġ\"\"<":6956,"Ġrv":6957,"macro":6958,"CLIENT":6959,"))==":6960,"_='":6961,"itation":6962,"Ġcap":6963,"Selector":6964,"artist":6965,"ilog":6966,"Ġarray":6967,"modify":6968,"partitions":6969,"Some":6970,"SCHE":6971,"ster":6972,"ceil":6973,"(),'<":6974,"compiled":6975,"initialized":6976,"capabilities":6977,"managed":6978,"Skip":6979,"undo":6980,"heart":6981,">_,":6982,"vistrails":6983,"ipy":6984,"oss":6985,"policies":6986,"blocking":6987,"Classifier":6988,"importer":6989,"dispatcher":6990,"reporter":6991,"=**":6992,"ateway":6993,"Ġcfg":6994,"Ġorig":6995,"rypto":6996,"cdf":6997,"prod":6998,"Program":6999,"iteral":7000,"OUTPUT":7001,"topology":7002,"imat":7003,"istic":7004,"interactive":7005,"Ġtmp":7006,"LANGUAGE":7007,"Pop":7008,"fter":7009,"xf":7010,"coin":7011,"Information":7012,"Hook":7013,"hp":7014,"tls":7015,"alter":7016,"preserve":7017,"')).":7018,"players":7019,"Objects":7020,"Middleware":7021,"500":7022,"Ġexists":7023,"INPUT":7024,"=(,,":7025,"authorization":7026,"DOM":7027,")'%(":7028,"BL":7029,"Split":7030,"closure":7031,"roots":7032,"memcache":7033,"products":7034,"IGN":7035,"USERNAME":7036,"PARAME":7037,"Place":7038,"dtemp":7039,"Ġfp":7040,"LEFT":7041,"disp":7042,"Setup":7043,"bgp":7044,"AWS":7045,"Da":7046,"ĠComp":7047,">'),)<":7048,"\",\".":7049,"eps":7050,"activation":7051,"BYTE":7052,"48":7053,"NV":7054,"Ġword":7055,"=[[":7056,"imate":7057,"ggle":7058,"STREAM":7059,"PARAMETER":7060,"Fetch":7061,"yte":7062,"Ġ},":7063,"='',<":7064,"boardInterrupt":7065,"middleware":7066,"gray":7067,"hw":7068,"Ġ+]":7069,"statuses":7070,"ĠMe":7071,"{}).":7072,"bridge":7073,"rotate":7074,"World":7075,"WARNING":7076,"Fn":7077,"Other":7078,"bat":7079,">'/":7080,"mpa":7081,"('#":7082,"LAB":7083,"\")==":7084,"[%":7085,"ou":7086,"Ġit":7087,"cend":7088,"ditions":7089,"centile":7090,"xlink":7091,"adow":7092,"Ġpop":7093,"guess":7094,"itions":7095,"linux":7096,"Typed":7097,"candidates":7098,"instrument":7099,"FRAME":7100,"PT":7101,"atable":7102,"pause":7103,"(\"<":7104,"transfor":7105,"[],<":7106,"mpp":7107,"Experiment":7108,"unix":7109,"Make":7110,"fficient":7111,"EVT":7112,"Pe":7113,"Repository":7114,"Ġpandas":7115,"letter":7116,"svn":7117,"assertNotIn":7118,"Scheduler":7119,"NR":7120,"ĠObject":7121,"semb":7122,"strp":7123,"ALI":7124,"Env":7125,"assertRaisesRegex":7126,"Sync":7127,"stock":7128,"Ġdecorator":7129,"Git":7130,"well":7131,"conti":7132,"Ġ-,":7133,"IGNO":7134,"venv":7135,"Ġcallback":7136,"stand":7137,"Conv":7138,"Proto":7139,"PEND":7140,"depends":7141,"ris":7142,"iscsi":7143,"\":[\"":7144,"Ġ:'<":7145,"Ġdiff":7146,"serialization":7147,"abstraction":7148,"53":7149,"silon":7150,"Console":7151,"newline":7152,"COOK":7153,"RESPON":7154,"BAC":7155,"dal":7156,"rsync":7157,"inet":7158,"('',":7159,"ORD":7160,"Partial":7161,"datatype":7162,"Quest":7163,"clusive":7164,"CannotContain":7165,"independentData":7166,"fgraph":7167,"gzip":7168,"zure":7169,"roid":7170,"returned":7171,"QuerySet":7172,"Pair":7173,"orientation":7174,"provides":7175,"Ġwait":7176,"lope":7177,"vertices":7178,"Ġ+[":7179,",'')<":7180,"Ġ[]*":7181,"ARCH":7182,"':[],<":7183,"snap":7184,"Pow":7185,"TOP":7186,"Ġpart":7187,"pkt":7188,"(-)<":7189,"Callbacks":7190,"degree":7191,"08":7192,"Ġgraph":7193,"resid":7194,"mappings":7195,"processors":7196,"IOError":7197,"(-,":7198,"StubOut":7199,"shortcuts":7200,"wrong":7201,"inverse":7202,"uris":7203,"heap":7204,"()['":7205,"contexts":7206,"character":7207,"planation":7208,"EP":7209,"PK":7210,"TON":7211,"Ġextra":7212,"Ġdf":7213,"behavi":7214,"transa":7215,"jamas":7216,"Lines":7217,"PH":7218,"scaling":7219,"WINDO":7220,"Ġstream":7221,"inds":7222,"IND":7223,"endog":7224,"icago":7225,"Ġrepr":7226,"Question":7227,"prepa":7228,"Ġbar":7229,"CTL":7230,"PROCESS":7231,"listeners":7232,"47":7233,"hard":7234,"ctr":7235,"Ġsrc":7236,"ignored":7237,"External":7238,"BLOCK":7239,"hit":7240,"san":7241,"Ġ3":7242,"ropy":7243,"Chicago":7244,"Ġapply":7245,"ticks":7246,"Done":7247,"Vo":7248,"DEN":7249,"ectors":7250,"shp":7251,"Dataset":7252,"HTTPError":7253,"Quo":7254,"Collector":7255,"ANT":7256,"cms":7257,"flip":7258,"vl":7259,"Ġcursor":7260,"Ġentity":7261,"testdir":7262,"Ġsm":7263,"titles":7264,"Interval":7265,"Identity":7266,")),(":7267,"pull":7268,"Ġmy":7269,"Ġexpr":7270,"utation":7271,"Tags":7272,"floor":7273,"CKET":7274,"ZZ":7275,"cassette":7276,"Ġtimeout":7277,"station":7278,"putln":7279,"WithMock":7280,"(,),(,),(,),(,),(,),(,),(,),(,),(,),(,),(,),(,),(,),(,),(,),(,),":7281,"XM":7282,"gres":7283,"ONLY":7284,"Left":7285,"shipping":7286,"Ġencode":7287,"party":7288,"both":7289,"('.')":7290,"anonymous":7291,"StubOutWithMock":7292,"/'<":7293,"Use":7294,"ĠNode":7295,"':},<":7296,"ploration":7297,"Segment":7298,"latitude":7299,"measurements":7300,"ATTRIBUTES":7301,">)<":7302,"rating":7303,"assets":7304,"goal":7305,"retrieve":7306,"attempt":7307,"cardinality":7308,"\"}<":7309,"Chart":7310,"':\"''\",'":7311,"WAIT":7312,"Signal":7313,"ManyToManyField":7314,"discard":7315,"tabs":7316,"war":7317,"addWidget":7318,"ORIZ":7319,"privilege":7320,"Mark":7321,"''":7322,"Free":7323,"hass":7324,"Ġfunction":7325,"skipIf":7326,"TASK":7327,"WBEM":7328,"SUCCESS":7329,"ban":7330,"mixin":7331,"fieldname":7332,"translated":7333,"SOCK":7334,"avatar":7335,"RAY":7336,"ravel":7337,"parentObj":7338,"Ġforwards":7339,"books":7340,"Signature":7341,"normpath":7342,"inel":7343,"deque":7344,"ussian":7345,"=\"\",":7346,"longitude":7347,"regexp":7348,"Assign":7349,"neighbor":7350,"Deploy":7351,"Ġbackwards":7352,"UcsFactory":7353,"vailable":7354,"QQ":7355,"SL":7356,"Save":7357,"vid":7358,"Ġinclude":7359,"otal":7360,"ventory":7361,"Ġbin":7362,"secondary":7363,"CONTRO":7364,"Machine":7365,"truncate":7366,"59":7367,"Ġjoin":7368,"Integr":7369,"INTE":7370,")/(":7371,"EnumValue":7372,"Archive":7373,"ail":7374,"Ġoperator":7375,"RETR":7376,"CORE":7377,"Ġ\"\"\"":7378,"popen":7379,"Ġworld":7380,"ctxt":7381,"formula":7382,"),('_":7383,"SOL":7384,"periods":7385,"Full":7386,"Mix":7387,"numer":7388,"mkdtemp":7389,"deprecated":7390,"Mask":7391,"ium":7392,"mpi":7393,"ROM":7394,"Logging":7395,">']:<":7396,"Allow":7397,"hara":7398,"Sizer":7399,"Ġat":7400,"anno":7401,"ationError":7402,"Register":7403,"Lazy":7404,"NU":7405,"rw":7406,"noop":7407,"rain":7408,"()/":7409,"Ġ[][]<":7410,"REGE":7411,"SETTING":7412,"preter":7413,"tokenize":7414,"Encode":7415,"latform":7416,"gtk":7417,"instru":7418,"BytesIO":7419,"canonical":7420,"DT":7421,"Ġen":7422,"Ġplugin":7423,"Ġconnect":7424,"ĠEvent":7425,"Progress":7426,"Ġtree":7427,"Ġ],[":7428,"expire":7429,"Workflow":7430,"whitespace":7431,"OwnerAccount":7432,"combine":7433,"weakref":7434,"Authentication":7435,"58":7436,"Django":7437,"ict":7438,"ĠList":7439,"Ġmeta":7440,"mmal":7441,">>":7442,"AG":7443,"ovr":7444,"tun":7445,"Ġ#":7446,"Ġthe":7447,"',{})<":7448,"ollow":7449,"shake":7450,"Groups":7451,"accum":7452,"Click":7453,"fds":7454,"contract":7455,"('\"":7456,"Ġ+=[":7457,"ĠSub":7458,"explicit":7459,"Flask":7460,"jinja":7461,"outine":7462,"Ġfull":7463,"Coord":7464,"infos":7465,"effs":7466,"Language":7467,".\")<":7468,"SV":7469,"percentile":7470,"ĠOper":7471,"namedtuple":7472,"producer":7473,"avi":7474,"unct":7475,"upstream":7476,"Ġ]]<":7477,"ffe":7478,"Ġfetch":7479,"NETWORK":7480,"DataCacheDictionary":7481,"Monitor":7482,"attempts":7483,"Bro":7484,"cons":7485,"silent":7486,"moved":7487,"NotSupported":7488,"recorder":7489,"Lin":7490,"Sp":7491,"cards":7492,"flavors":7493,"who":7494,"Ġ\")<":7495,"alarm":7496,"coerce":7497,"Ġinto":7498,"()[]":7499,"tency":7500,">[,],<":7501,"iotype":7502,"queues":7503,"toolbar":7504,"attachments":7505,"FIELDS":7506,",,,,,,,,,,,,,,,,,,,,,,,,,,,,,,,,,,,,,,,,,,,,,,,,,,,,,,,,,,,,,,,,,,,,,,,,,,,,,,,,,,,,,,,,,,,,,,,,,,,,,,,,,,,,,,,,,,,,,,,,,,,,,,,,,,,,,,,,,,,,,,,,,,,,,,,,,,,,,,,,,,,,,,,,,,,,,,,,,,,,,,,,,,,,,,,,,,,,,,,,,,,,,,,,,,,,,,,,,,,,,,,,,,,,,,,,,,,,,,,,,,,,,,,,,,,,,,,,":7507,"wheel":7508,"Ġnet":7509,"Ġlogin":7510,"sect":7511,"draft":7512,"written":7513,"CALL":7514,"OM":7515,"Push":7516,"elt":7517,"addCleanup":7518,"corpus":7519,"cvs":7520,"legacy":7521,"CV":7522,"Rep":7523,"infra":7524,"Bundle":7525,"ned":7526,"movi":7527,"==-:<":7528,"sentence":7529,"overlap":7530,"Price":7531,");<":7532,"SCons":7533,"WID":7534,"REEN":7535,"orders":7536,"rendering":7537,"strptime":7538,"Sc":7539,"Scan":7540,"Ġcommit":7541,"peek":7542,"lio":7543,"Common":7544,"sence":7545,"FromString":7546,"languages":7547,"Ġexport":7548,"Spa":7549,"Ġ\\":7550,"explanation":7551,"TestModel":7552,"REQ":7553,"ĠTh":7554,"notifications":7555,"WARE":7556,"errypy":7557,"Literal":7558,"Conver":7559,">[,,":7560,"=-,":7561,"Accept":7562,"REGEX":7563,"\"})<":7564,"HER":7565,"quality":7566,"()*":7567,"NotImplemented":7568,"decoded":7569,"periments":7570,"triple":7571,"Consumer":7572,"rsplit":7573,"='*":7574,"Decoder":7575,"ARG":7576,"finalize":7577,"nonzero":7578,"Short":7579,"RESPONSE":7580,"Ġattrs":7581,"arrow":7582,"look":7583,"ads":7584,",,,,,,,,,,,,":7585,"ACL":7586,"Bucket":7587,"analyzer":7588,")',":7589,"las":7590,"'):":7591,"Temporary":7592,"bidden":7593,"Ġcell":7594,"fasta":7595,"consts":7596,"'m":7597,"Area":7598,"seline":7599,"inDataCacheDictionary":7600,"Inf":7601,"modes":7602,"ObjectProperty":7603,"ParseError":7604,"SSES":7605,"[('":7606,"STOR":7607,"',_":7608,"Ġ][]<":7609,"nodeName":7610,"Standard":7611,"Ġ*)<":7612,")==)<":7613,"Seq":7614,"attribXml":7615,"transactions":7616,"Ġ''.":7617,"Coeffs":7618,"refle":7619,"Ġkind":7620,"EXIST":7621,"merged":7622,"gyp":7623,"heartbeat":7624,"Ġprop":7625,"ini":7626,"keeper":7627,"cheme":7628,"BUTTON":7629,"(('<":7630,"68":7631,">'+'<":7632,"consume":7633,"completions":7634,"bon":7635,"gau":7636,"lit":7637,"Ġstat":7638,"recipe":7639,",'-":7640,"configur":7641,"libs":7642,"radar":7643,"percentage":7644,"STORE":7645,"FLOAT":7646,"Dest":7647,"Ten":7648,"Ġfake":7649,"Ġchain":7650,"inCoeffs":7651,"ric":7652,"door":7653,"Ġ[][],":7654,"iteration":7655,"Unique":7656,"Neg":7657,"passed":7658,"maint":7659,"='{":7660,"plane":7661,"\"),\"":7662,"Blue":7663,"conflict":7664,"mediate":7665,"allocate":7666,"-,":7667,"cube":7668,"DEV":7669,"fork":7670,"classifier":7671,"Decl":7672,"UPDATE":7673,"OpenStack":7674,"DC":7675,"bn":7676,"dsa":7677,"half":7678,"kv":7679,"pandas":7680,"ĠY":7681,"Ġpro":7682,"moder":7683,"needed":7684,"Ġsplit":7685,"offer":7686,"(,,,)<":7687,"zones":7688,"PYTHON":7689,"freqs":7690,"Ġdefer":7691,"counters":7692,"Variables":7693,"Geo":7694,"STRUCT":7695,"Sim":7696,"Ġparsed":7697,"reco":7698,"onal":7699,"statistics":7700,"lik":7701,"normalized":7702,"affinity":7703,"mobile":7704,"caten":7705,"frappe":7706,"IDENT":7707,"Saml":7708,"pwd":7709,"stuff":7710,"geno":7711,"unquote":7712,"Ġ[],)<":7713,"macros":7714,"PARAMS":7715,"',)\",'":7716,"CAP":7717,"Rate":7718,"Ġinsert":7719,"REE":7720,"Ġcustom":7721,"647":7722,"Ġpyjamas":7723,"RAW":7724,"Dependency":7725,"SELECT":7726,"=/":7727,"XX":7728,"gw":7729,"rsp":7730,"ĠAdd":7731,"minder":7732,"(_('":7733,"Alter":7734,"(/":7735,":]":7736,"Aggreg":7737,"dll":7738,"xi":7739,"xaxis":7740,"xyz":7741,"tives":7742,"srid":7743,"07":7744,"So":7745,"Uri":7746,"eye":7747,"Ġauto":7748,"arest":7749,"Ġinitialize":7750,"INTEGER":7751,"trac":7752,"Ġ+):<":7753,"dfp":7754,"CLASSES":7755,"minions":7756,"palette":7757,")[":7758,"Band":7759,"CTED":7760,"RL":7761,"rsa":7762,"vate":7763,"Ġfid":7764,"ars":7765,"posal":7766,"floatX":7767,"svc":7768,",,<":7769,"Dynamic":7770,"Plot":7771,"fip":7772,"pem":7773,"pyplot":7774,"Assert":7775,"ABC":7776,"(\\":7777,"=(,":7778,">('<":7779,"vdi":7780,"Ġlevel":7781,"reserved":7782,"excluded":7783,"timing":7784,"failUnlessEqual":7785,"Future":7786,"GEO":7787,"dur":7788,"'],'<":7789,"Filename":7790,"COMPLE":7791,"LABEL":7792,"31":7793,"audit":7794,"fy":7795,"hat":7796,"tgt":7797,"Ġan":7798,"season":7799,"FOL":7800,"TESTFN":7801,"clusion":7802,"Ġkw":7803,"confi":7804,"doctype":7805,"Condition":7806,"alice":7807,"Ġ-]":7808,"iters":7809,"ADATA":7810,"sentinel":7811,"restri":7812,"frag":7813,"SD":7814,"equ":7815,"fab":7816,"oms":7817,"ĠConnection":7818,"rewrite":7819,"aspect":7820,"='-":7821,"cesses":7822,"transpose":7823,"errmsg":7824,"UTC":7825,"HTTPS":7826,"caption":7827,"Connect":7828,"MARK":7829,"((\"":7830,"DING":7831,"wf":7832,"Ġof":7833,"ongo":7834,"gap":7835,"Ġqueue":7836,"=[])<":7837,"Lost":7838,"SHO":7839,"solver":7840,"sdk":7841,"Kernel":7842,"ey":7843,"retch":7844,"extent":7845,"statements":7846,"ĠSystem":7847,"epsilon":7848,"FormSet":7849,"delitem":7850,"subscriber":7851,"DecodeError":7852,"ZER":7853,"cdata":7854,"()}<":7855,"Parti":7856,"MSA":7857,"cntl":7858,"ChoiceField":7859,"REQUIRED":7860,")),)<":7861,"Clear":7862,"GIT":7863,"IFI":7864,"Ġlimit":7865,"alk":7866,"subparsers":7867,"White":7868,"CONTROL":7869,"'[":7870,"Soft":7871,"large":7872,"wind":7873,"positive":7874,"reversed":7875,"AGENT":7876,"enchmark":7877,"piece":7878,"substit":7879,"Origin":7880,"\",,":7881,"tty":7882,"dedent":7883,"omial":7884,"BaseCommand":7885,"episode":7886,"ĠIs":7887,"Messages":7888,"Bound":7889,"polyData":7890,"Ptr":7891,"yp":7892,"lied":7893,"kes":7894,"=='':<":7895,"ĠMulti":7896,"VIEW":7897,"Ġoptparse":7898,")')<":7899,":\\":7900,"yy":7901,"Ġlookup":7902,"=\"\\":7903,"IPV":7904,"particip":7905,"memoized":7906,"invoice":7907,"Producer":7908,"239":7909,"nobs":7910,"FileName":7911,"NOTI":7912,"{}'.":7913,"Creature":7914,"LOBAL":7915,"Draw":7916,"GT":7917,"ifs":7918,"etc":7919,"(\"\")<":7920,"Stroke":7921,"Double":7922,"batches":7923,"twitter":7924,"Ġinstall":7925,"fq":7926,"tan":7927,"testcase":7928,"intersection":7929,"capacity":7930,",,,])<":7931,"Distribu":7932,"routers":7933,"SamlBase":7934,"aker":7935,"utit":7936,"rebuild":7937,"inser":7938,"arrays":7939,"',[])<":7940,"Ġ]-":7941,"accur":7942,"SETTINGS":7943,"catenate":7944,"pkey":7945,"ality":7946,"elm":7947,"erarchy":7948,"RIGHT":7949,"Shell":7950,"rac":7951,"'])":7952,"Ġfd":7953,"ncies":7954,"Ġ[],'":7955,"NAMES":7956,"LOGIN":7957,"Ġ+'_":7958,"translator":7959,"hydr":7960,"NotFoundError":7961,"firewall":7962,"gm":7963,"mapre":7964,"==)<":7965,"prefer":7966,"Ġreport":7967,"itertools":7968,"ObjectName":7969,"ĠCheck":7970,"asyn":7971,"CERT":7972,"mapreduce":7973,"Fill":7974,"Total":7975,"sequen":7976,"Ġ[_":7977,"heet":7978,"\"]))<":7979,"histogram":7980,"declare":7981,"CRY":7982,"accepted":7983,"GO":7984,"mute":7985,"MET":7986,"widths":7987,"omega":7988,"discoro":7989,"ĠCreate":7990,"__'):<":7991,"codecs":7992,"cam":7993,"([,]":7994,"EXTE":7995,"multipart":7996,"QUEUE":7997,"TabularMSA":7998,"ran":7999,"Ġmd":8000,"references":8001,"Primary":8002,"CLOSE":8003,"Long":8004,"PB":8005,"RESOURCE":8006,"Media":8007,"CreateMock":8008,"cinder":8009,"gun":8010,"kze":8011,"ython":8012,"Ġtotal":8013,"ancy":8014,"arglist":8015,"TERN":8016,"kzeug":8017,"xls":8018,"Ġsection":8019,"addEdge":8020,"Ġ[]]":8021,"Expi":8022,"=='-":8023,"emails":8024,"Ġ[-])<":8025,"celery":8026,"dk":8027,"parallel":8028,"bud":8029,"collap":8030,"()[":8031,"curve":8032,"StringProperty":8033,"itize":8034,",_,":8035,"ENV":8036,"Checker":8037,"'d":8038,"HAS":8039,"uit":8040,"vectors":8041,"Ġpassword":8042,"Ġwin":8043,"intro":8044,"(_(\"":8045,"OPT":8046,"controllers":8047,"fetchall":8048,"PUB":8049,"Side":8050,"cum":8051,"rnd":8052,"Ġhelp":8053,"stc":8054,"bly":8055,"jsondict":8056,"transforms":8057,"Events":8058,"TEXTURE":8059,"LONG":8060,"rpm":8061,")<=":8062,"trim":8063,",'%":8064,"membership":8065,"protocols":8066,"fetchone":8067,"COOKIE":8068,"jected":8069,"sandbox":8070,"Ġdecode":8071,"incr":8072,"nose":8073,"fromstring":8074,"=[],<":8075,"Ġ]),<":8076,"Mouse":8077,"([,,,,":8078,"')]":8079,"tuples":8080,"Algorithm":8081,"Ġflags":8082,"quotas":8083,"AA":8084,"cart":8085,"mand":8086,"reak":8087,"outs":8088,"maxsize":8089,"Ġ'*":8090,"Ġ--":8091,"replacement":8092,"webapp":8093,"PROPER":8094,"tornado":8095,"definitions":8096,"predictions":8097,"duplicate":8098,"Bal":8099,"PDF":8100,"ko":8101,"tweet":8102,"Ġplot":8103,"Vide":8104,"EXCEP":8105,")\"%(":8106,"DR":8107,"Ġdomain":8108,"Ġwrap":8109,"(\"_":8110,"cython":8111,"ATED":8112,"mpling":8113,"Sort":8114,"Ġtags":8115,"enqueue":8116,"dian":8117,"']\",'":8118,"paren":8119,"compression":8120,"matcher":8121,"ĠSCons":8122,"))):<":8123,")*(":8124,"sistency":8125,"optimize":8126,"tel":8127,"ssue":8128,"readable":8129,"Alias":8130,"DataCacheFunctions":8131,"Fixed":8132,"Sec":8133,"TAR":8134,"kb":8135,"tech":8136,"fieldsets":8137,"hood":8138,"subscriptions":8139,"markup":8140,"ValidationTestModelAdmin":8141,"ĠSchemaMigration":8142,"FIN":8143,"]])<":8144,"eu":8145,"rg":8146,"lies":8147,"Acceler":8148,")*<":8149,"Ġcontextlib":8150,"inlineCallbacks":8151,"Drop":8152,"mn":8153,"simil":8154,"('$":8155,"Reply":8156,"Ġ:[":8157,"(,,,":8158,"voice":8159,"delivery":8160,"Redirects":8161,"Public":8162,"suggest":8163,"=(,)<":8164,"=(,))<":8165,"Red":8166,"Tex":8167,"slt":8168,"Ġrole":8169,"ital":8170,"chmod":8171,"experiments":8172,"']).":8173,"Ġsample":8174,"Setting":8175,"Ġlibcloud":8176,"nomial":8177,"STORAGE":8178,">\\":8179,"Hidden":8180,"kControl":8181,"plots":8182,"varname":8183,"ĠDummy":8184,"History":8185,"Platform":8186,"UES":8187,"ĠUnicode":8188,"openid":8189,"Matches":8190,"SchemaMigration":8191,"Sys":8192,"flex":8193,"Ġhtml":8194,"Ġusers":8195,"reen":8196,"atter":8197,"ffect":8198,"mv":8199,"oned":8200,"parsing":8201,"signatures":8202,"chool":8203,"solve":8204,"credit":8205,"UcsFactoryMeta":8206,"ama":8207,"camera":8208,"xen":8209,"Ġcluster":8210,"exploration":8211,"profiles":8212,"ints":8213,"')[]<":8214,"Resolver":8215,"marsh":8216,"Ġ+\"\\":8217,"Modified":8218,"Traits":8219,"Numeric":8220,"REMOTE":8221,"plier":8222,"Blob":8223,"Gateway":8224,"GLOBAL":8225,"gation":8226,"ĠFake":8227,">'__":8228,"anted":8229,"),),<":8230,"REGI":8231,")+'<":8232,"markdown":8233,"ByName":8234,"Ġ**+":8235,"frica":8236,"DNS":8237,"Sheet":8238,"tur":8239,"Ġper":8240,"coef":8241,"pod":8242,"ACCEP":8243,"setuptools":8244,"werkzeug":8245,"Calc":8246,"Ass":8247,"hv":8248,"devel":8249,"pike":8250,"----":8251,"CONTEXT":8252,"invoke":8253,"Ġlength":8254,"REL":8255,"npt":8256,"SENT":8257,"Ġ/)<":8258,"IPv":8259,"':\"('":8260,"Methods":8261,"OSError":8262,"DLE":8263,"QApplication":8264,"hid":8265,"Ġ+*":8266,"pyc":8267,"news":8268,"sound":8269,"Ġpprint":8270,"Ġgit":8271,"Selected":8272,"MENTS":8273,"benchmark":8274,"Africa":8275,"BAR":8276,"ĠField":8277,"stroke":8278,"ence":8279,"),))<":8280,"keyfile":8281,"mocked":8282,"soup":8283,"milli":8284,"Weight":8285,"67":8286,"yaxis":8287,"Ġtemp":8288,"Ġabs":8289,"Ġbytes":8290,"ĠJSON":8291,"mpc":8292,"Ġ['__":8293,"estimat":8294,">[],<":8295,"freeze":8296,"Distance":8297,"Topic":8298,"production":8299,"WIDTH":8300,"BA":8301,"Fault":8302,"hub":8303,"olve":8304,"cords":8305,"'],['":8306,"relpath":8307,"translations":8308,"(',')<":8309,"Scalar":8310,"cgi":8311,"ĠQueue":8312,"incoming":8313,"coe":8314,"assertDict":8315,"vertex":8316,"classname":8317,"four":8318,"()),)<":8319,"subplot":8320,"managers":8321,"attribStroke":8322,"epochs":8323,"=[]):<":8324,"Shared":8325,"Ġextract":8326,"'][]<":8327,"illow":8328,"=[{'":8329,"\",(":8330,"Ġ]).":8331,"Ġsp":8332,"comps":8333,"indexed":8334,"Ġ[:]=":8335,"maintain":8336,"Video":8337,"bet":8338,"Ġstack":8339,"Ġparts":8340,"mach":8341,"Internal":8342,"Example":8343,"Ġreplace":8344,"filing":8345,"prim":8346,"grains":8347,"seqs":8348,"HELP":8349,"Ġprepare":8350,"']['<":8351,"SCRIPTION":8352,")=='":8353,"Ġans":8354,"__=[<":8355,"pygame":8356,"ObjectPropertyType":8357,"'/":8358,"((<":8359,",{},":8360,"WM":8361,"zzy":8362,"Ġverify":8363,"retcode":8364,"Reset":8365,"explo":8366,"assigned":8367,"Switch":8368,"RSA":8369,"TLS":8370,"Ġrows":8371,"getenv":8372,"'](":8373,"Ġ+]<":8374,"pread":8375,"cay":8376,"specific":8377,"socketId":8378,"adoop":8379,"\")]<":8380,"ajax":8381,"slope":8382,"ĠID":8383,"ĠText":8384,"gens":8385,"haz":8386,"':[{'":8387,"agents":8388,"frac":8389,"snapshots":8390,"questions":8391,"QL":8392,"ceeded":8393,"addTest":8394,"DISP":8395,"DOT":8396,"drag":8397,"measurement":8398,"writeFieldEnd":8399,"writeFieldBegin":8400,"basis":8401,"basket":8402,"vms":8403,"ym":8404,"='')<":8405,"voc":8406,"DIRS":8407,"Ġconfigure":8408,"strides":8409,"={}):<":8410,"WHITE":8411,"semble":8412,"lf":8413,"trv":8414,"that":8415,"Try":8416,"())))<":8417,"ALLOWED":8418,"mpaign":8419,"JOB":8420,"turn":8421,"za":8422,"Ġappend":8423,"encrypt":8424,"fileName":8425,"();<":8426,"Enable":8427,"plug":8428,"ĠDec":8429,"latin":8430,"ATIONS":8431,"Cfg":8432,"PM":8433,"Screen":8434,"Ġqueryset":8435,"atal":8436,"ellow":8437,"ween":8438,"functionList":8439,"finite":8440,"UNIT":8441,"ElementTree":8442,"Prefixed":8443,"buttons":8444,"INTERNET":8445,"MCI":8446,"Ġbo":8447,"ĠGroup":8448,"Ġctypes":8449,"leading":8450,"chro":8451,"setObjectName":8452,"pytz":8453,"building":8454,"ĠMessage":8455,"Append":8456,"Details":8457,"www":8458,"identifiers":8459,":/":8460,"Ġlogger":8461,"Ġoauth":8462,"mel":8463,"tilities":8464,"peed":8465,"appy":8466,"dbapi":8467,"intercept":8468,",-)<":8469,"Ġcodecs":8470,"inherit":8471,"Credentials":8472,"Glyph":8473,"hmac":8474,"Ġput":8475,"Ġaddr":8476,"ĠOpen":8477,"TestBase":8478,"Ġdraw":8479,",\"-":8480,"(,,),<":8481,"rfc":8482,"detect":8483,"METADATA":8484,"pip":8485,"Ġsite":8486,"eli":8487,"Ġ[])":8488,"Ġ*=":8489,"byref":8490,"ferent":8491,"Ġ\"\\":8492,"Factor":8493,"Negative":8494,"Bot":8495,"WITH":8496,"fm":8497,"pci":8498,"Ġyaml":8499,"conditions":8500,"('+":8501,"argspec":8502,"debugger":8503,"CENT":8504,")+'\\":8505,"IPPROTO":8506,"goto":8507,"cycles":8508,"Anything":8509,"HANDLE":8510,"FACE":8511,"NON":8512,"inventory":8513,"posed":8514,"Ġsn":8515,"reads":8516,"nums":8517,"popup":8518,"MASK":8519,"Pix":8520,">',{<":8521,"logic":8522,"csr":8523,"LAST":8524,"baseline":8525,"HOME":8526,",,,]<":8527,"whitelist":8528,"CASE":8529,"Rpc":8530,"ock":8531,"ĠSkip":8532,"athon":8533,"ocity":8534,"Marker":8535,"ĠPermission":8536,"Converter":8537,"Ang":8538,"Gpu":8539,"sal":8540,"==_":8541,"More":8542,"Pose":8543,"Ġrdf":8544,"wallet":8545,"Tracker":8546,"scape":8547,"expanded":8548,"JO":8549,"OGR":8550,"leader":8551,"company":8552,"tmpfile":8553,"datad":8554,"wire":8555,"snippet":8556,"\"*":8557,"POR":8558,"oth":8559,"ĠU":8560,"ert":8561,"rack":8562,"lack":8563,">@_":8564,"=\".":8565,"Ġremote":8566,"Elem":8567,",]])<":8568,"fpath":8569,"ike":8570,"mult":8571,"Ġconstants":8572,"isnan":8573,"scipy":8574,"deletion":8575,"avas":8576,"Summary":8577,"PACKAGE":8578,"ities":8579,"mdao":8580,"ĠDatabase":8581,"trial":8582,"libr":8583,"stopped":8584,"TemporaryFile":8585,"PrefixedString":8586,"364":8587,"Mac":8588,"Right":8589,"ĠModule":8590,"']}<":8591,">\"<":8592,"Ġdt":8593,"trail":8594,"quick":8595,"USH":8596,"ENABLED":8597,"Light":8598,"ism":8599,"()==\"":8600,">\"-":8601,"attribOn":8602,"Compiler":8603,"VED":8604,"redirects":8605,"Visitor":8606,"Term":8607,"square":8608,"MIDDLE":8609,"ox":8610,"Ġqs":8611,"','__":8612,"shutit":8613,"Ġstep":8614,"Export":8615,"tenants":8616,">':[":8617,"ĠCON":8618,"central":8619,"glance":8620,"pidfile":8621,"Branch":8622,"\"},<":8623,"pf":8624,"vin":8625,"zoo":8626,"another":8627,"Ġcan":8628,"archi":8629,"Ġtt":8630,"astic":8631,"Packet":8632,"PROTOCOL":8633,"CY":8634,"RST":8635,"Ġfastbinary":8636,"probs":8637,"prite":8638,"ductor":8639,"includes":8640,"something":8641,"coordinates":8642,"accuracy":8643,"Cla":8644,"Embed":8645,"_='<":8646,"incip":8647,"linked":8648,"runs":8649,"Commands":8650,"Complex":8651,"attname":8652,"TRANS":8653,"Cancel":8654,"amp":8655,"qa":8656,"Ġpi":8657,"least":8658,"tice":8659,"Ġ]),":8660,"listing":8661,"interpreter":8662,"CHAN":8663,"skipped":8664,"Plane":8665,"Distribution":8666,"EXCEPTION":8667,"FD":8668,"pure":8669,"uous":8670,"Ġpa":8671,"Ġdump":8672,"DEP":8673,"','\\":8674,"()[].":8675,"packed":8676,"DISK":8677,"xmlrpc":8678,"2014":8679,"Extended":8680,"CURRENT":8681,"ĠNameError":8682,"Greater":8683,"Rot":8684,"want":8685,"todo":8686,"linspace":8687,"Ġsq":8688,"Ġ[]==\"":8689,"dirpath":8690,"ARRAY":8691,"ICAL":8692,"ĠKeyboardInterrupt":8693,"ADDRESS":8694,"projection":8695,"recipients":8696,"[,,],":8697,"problems":8698,"(':')<":8699,"prepared":8700,"budget":8701,"(?":8702,"Dn":8703,"every":8704,"xrange":8705,"Ġaddress":8706,"erature":8707,"Ġ][\"":8708,"compressed":8709,"expiry":8710,"Play":8711,"Poll":8712,"TIT":8713,"lert":8714,"SEC":8715,"extractor":8716,"Subscription":8717,"afka":8718,"medium":8719,"\")))<":8720,"land":8721,"verilog":8722,"fac":8723,"Ġ[]),<":8724,"Ġvm":8725,"Paths":8726,"surface":8727,"FUNCTION":8728,"=(,),":8729,"cores":8730,"']})<":8731,"()!=":8732,"Ġ[]=<":8733,"minus":8734,"supports":8735,"bufsize":8736,"Ġdec":8737,"Wrap":8738,"SMTP":8739,"Ġsuccess":8740,"TARGET":8741,",)":8742,"third":8743,"addHandler":8744,"objectId":8745,"loading":8746,"Html":8747,"Ġ]+=<":8748,"DATABASES":8749,",=":8750,"512":8751,"()]":8752,"')==":8753,"rffi":8754,"bytearray":8755,"bdm":8756,"cifs":8757,"Ġca":8758,"choo":8759,"','%":8760,"apple":8761,"Convert":8762,"(,):":8763,">\"--":8764,"ĠAb":8765,")=='<":8766,"drus":8767,"TEXTNS":8768,"Relationship":8769,"jpg":8770,"zlib":8771,"Ġplt":8772,"idmap":8773,"('{":8774,"tostring":8775,"ToOne":8776,"cial":8777,"energy":8778,"alphaMaterials":8779,"Rows":8780,"aneti":8781,"Safe":8782,"sembly":8783,"}}":8784,"Ġme":8785,"peak":8786,"contour":8787,"propa":8788,"glfw":8789,"aux":8790,"Ġ{}'.":8791,"unctuation":8792,"Pen":8793,"fcntl":8794,"Ġ).":8795,"fora":8796,"ulated":8797,"('[":8798,"mapped":8799,"weep":8800,"Ġgo":8801,"mks":8802,"Polygon":8803,"Accelerated":8804,"-]<":8805,"CAL":8806,"Db":8807,"Ġro":8808,"Ġerrno":8809,"unded":8810,"moid":8811,"applied":8812,"delt":8813,"Real":8814,"contextmanager":8815,"php":8816,"\"]=\"":8817,"wintypes":8818,"AddField":8819,"implicit":8820,"Ġsuite":8821,"ĠService":8822,"posixpath":8823,"datasource":8824,"Watch":8825,"ake":8826,"nf":8827,"plist":8828,"uplicate":8829,"POSIT":8830,"Forbidden":8831,"isoformat":8832,"issues":8833,"MIME":8834,"TBinaryProtocolAccelerated":8835,"CreateMockAnything":8836,"Go":8837,"bw":8838,"apic":8839,"readField":8840,"))/":8841,"illar":8842,"Signed":8843,")'%":8844,"eg":8845,"DESCRIPTION":8846,"detach":8847,"Ġ[,]<":8848,"assertRedirects":8849,"':'/":8850,"Ġschema":8851,"readStruct":8852,"backref":8853,",\"%":8854,"Users":8855,"changeset":8856,"udp":8857,"polys":8858,"ĠDB":8859,"Ġcloud":8860,"Publisher":8861,"It":8862,"cg":8863,"Ġns":8864,"Ġproduct":8865,"lets":8866,"ann":8867,"moment":8868,"__(**":8869,"Repr":8870,"().__":8871,"irth":8872,"VALUES":8873,"TestsFrom":8874,"authentication":8875,"versal":8876,"craw":8877,"ople":8878,"observed":8879,"=[,]<":8880,"formatters":8881,"writeStruct":8882,"voke":8883,"Ġsublime":8884,"Intangible":8885,"stored":8886,"directive":8887,"PENDING":8888,"Der":8889,"tn":8890,"Ġ;<":8891,"ĠOrderedDict":8892,"pyeq":8893,"URN":8894,"Ġ/(":8895,"emitter":8896,"VARI":8897,"ctivity":8898,"issu":8899,"']),)<":8900,"LES":8901,"velope":8902,">[<":8903,"KEND":8904,"EXEC":8905,"DateField":8906,"Payload":8907,"BUILD":8908,"=[,,]<":8909,"below":8910,"=+":8911,"TIN":8912,"atives":8913,"addComponent":8914,"npc":8915,"sampling":8916,"':_('<":8917,"synchron":8918,"Ġsignal":8919,"Ġpatterns":8920,"unary":8921,"vided":8922,"[],[],":8923,"rend":8924,"SECUR":8925,"circ":8926,"website":8927,"Ġ[-],":8928,"proxies":8929,"RM":8930,"}\\":8931,"isol":8932,"mentation":8933,"nest":8934,"startup":8935,"lengths":8936,"Division":8937,"sensitive":8938,"THREAD":8939,"avascript":8940,"tached":8941,"compar":8942,"REDIRECT":8943,"tagged":8944,"doctest":8945,"':\"['":8946,"[:]<":8947,"markers":8948,"FROM":8949,"PN":8950,"SR":8951,"ios":8952,"utions":8953,"wizard":8954,"Ġthread":8955,"',,'":8956,"concatenate":8957,"simpl":8958,"density":8959,"CSV":8960,"Attach":8961,"SCADE":8962,"112":8963,"Master":8964,"Ġbackend":8965,"Ġ{\"":8966,"roves":8967,"('!":8968,"assoc":8969,"itecture":8970,"')),":8971,"={:":8972,"drivers":8973,"facebook":8974,"Elements":8975,"Compute":8976,"BLOB":8977,"ares":8978,"tpl":8979,"Ġpackage":8980,"repl":8981,"det":8982,"utors":8983,"\",[":8984,"'),**":8985,"Entries":8986,"skipUnless":8987,"Ġsimplejson":8988,"Actions":8989,"Cy":8990,"hic":8991,"morph":8992,"unwrap":8993,"()]=":8994,"[]])<":8995,"Ġ/=":8996,"waiting":8997,"visitor":8998,"Snapshot":8999,"BB":9000,"hue":9001,"Ġmetadata":9002,"Ġhttplib":9003,"depart":9004,"Ġidenti":9005,"unked":9006,"shadow":9007,"Ġ+))<":9008,"coroutine":9009,"postgres":9010,"attribX":9011,"ĠDate":9012,"Widgets":9013,"AUTO":9014,"Ġevalpy":9015,"wkt":9016,"Mul":9017,"gdal":9018,"sb":9019,"trust":9020,"scatter":9021,"ami":9022,"subdir":9023,"ĠAPI":9024,"Idx":9025,"iodic":9026,"ViewSet":9027,"1000":9028,"Predi":9029,"\":[<":9030,"alignment":9031,"ĠServer":9032,"TZ":9033,"dct":9034,"ky":9035,"desk":9036,"conversion":9037,"approx":9038,"tau":9039,"Std":9040,"childNode":9041,"queued":9042,"OPER":9043,"imported":9044,"contributor":9045,"TERM":9046,"CASCADE":9047,"directed":9048,"sampler":9049,"SCHEMA":9050,"IMP":9051,"]),('_":9052,"Ġsentry":9053,"(\":":9054,"minal":9055,"Ġcsv":9056,"BACKEND":9057,"recent":9058,"',''))<":9059,"raft":9060,"Ġ]!=":9061,"Ġ+':":9062,"worktree":9063,"(,),(,":9064,"PATTERN":9065,"toolbox":9066,"scanner":9067,"combined":9068,"FACT":9069,"ache":9070,"bf":9071,"ian":9072,"osite":9073,"sot":9074,"targ":9075,"stype":9076,"boards":9077,"Ġsort":9078,"ĠOn":9079,"variate":9080,"Ġpublic":9081,"transformer":9082,"AX":9083,"AST":9084,"ASS":9085,"Benchmark":9086,"rss":9087,"ĠLog":9088,"verified":9089,"tention":9090,"sqlalchemy":9091,"folders":9092,"SECURITY":9093,"Ġtransform":9094,"Ġ]=[":9095,"Ġopenmdao":9096,"MISSION":9097,"FAILURE":9098,"09":9099,"SRC":9100,"air":9101,"imap":9102,"pal":9103,"clau":9104,"univ":9105,"Ġtx":9106,"(,,'":9107,"Creation":9108,"Transfer":9109,"DSA":9110,"749":9111,"RUNNING":9112,"bid":9113,"fut":9114,"Ġresolve":9115,"Indent":9116,">',[],{})<":9117,"Ġ[]!=":9118,"ListView":9119,"Running":9120,"MOCK":9121,"Finder":9122,"zie":9123,"Ġpattern":9124,"':[]":9125,"shi":9126,"Ġreview":9127,"MENU":9128,"BaseTestCase":9129,"NSION":9130,"EDIT":9131,"subjects":9132,"discovery":9133,"DY":9134,"ei":9135,"pdb":9136,"Ġcomment":9137,"ORDER":9138,"ilestone":9139,"Manage":9140,"000000":9141,"frontend":9142,"encrypted":9143,"CLUSTER":9144,"hicle":9145,"YPE":9146,"amo":9147,"atory":9148,"',**":9149,"keh":9150,"Ġrelease":9151,"Star":9152,"footer":9153,"offi":9154,"handles":9155,"ENTRY":9156,"badge":9157,"INSTANCE":9158,"slash":9159,"UTE":9160,"ĠDe":9161,"Ġstyle":9162,"Ġchoice":9163,"pyfunc":9164,"pygments":9165,"Ġpush":9166,"accessor":9167,"]=<":9168,"ylim":9169,"}/":9170,"throw":9171,"toc":9172,"nearest":9173,"Ġbad":9174,"autoGenerate":9175,"wxID":9176,"States":9177,"Ġmatches":9178,"',,-),('":9179,"interpolation":9180,"Dig":9181,"FW":9182,"ĠZ":9183,"ĠProject":9184,"geos":9185,"resume":9186,"Proc":9187,"loyee":9188,"Ġregion":9189,"blah":9190,"compose":9191,"legal":9192,",).":9193,"800":9194,"MB":9195,"mx":9196,"mor":9197,"aps":9198,"entropy":9199,"Repo":9200,"Ġfname":9201,"operand":9202,"crash":9203,"ĠHTTPError":9204,"fv":9205,"jwt":9206,"vcs":9207,"arp":9208,"lain":9209,"BOOL":9210,"iterkeys":9211,"rounding":9212,"libraries":9213,",)=":9214,"ENO":9215,"amer":9216,"eng":9217,"pager":9218,"Ġdat":9219,"ĠMis":9220,"udent":9221,"201":9222,"ĠDis":9223,"quoted":9224,"pename":9225,"NUMER":9226,"scheduled":9227,"ĠCommandError":9228,"MIDDLEWARE":9229,"Big":9230,"Ġmanager":9231,"reboot":9232,"anim":9233,">',[":9234,"neo":9235,"Ġ:_":9236,"LookupTable":9237,"Na":9238,"namedtype":9239,"provision":9240,"userid":9241,",'/":9242,"ORS":9243,"prefixes":9244,"250":9245,"Comparison":9246,"seqid":9247,"expired":9248,"instructions":9249,"-,,":9250,"624":9251,"ELE":9252,"Scene":9253,"vor":9254,"Ġmessages":9255,"unregister":9256,"mods":9257,"assertContains":9258,"tolist":9259,"ramid":9260,"Repe":9261,"ronic":9262,"UserFactory":9263,"Vertices":9264,"Versions":9265,"crud":9266,"Backup":9267,"bian":9268,"clauses":9269,"Atom":9270,"Ġup":9271,"Ġvistrails":9272,"erase":9273,"',),":9274,"amb":9275,"elems":9276,"platforms":9277,"slices":9278,"Ġreversed":9279,"Des":9280,"KIND":9281,"RFC":9282,"SCO":9283,"Ġchannel":9284,"Ġ\\\\":9285,"Ġperm":9286,"redmine":9287,"uuids":9288,"grees":9289,"HAVE":9290,"885":9291,"II":9292,"NN":9293,"ylabel":9294,"Ġserialize":9295,"Ġwerkzeug":9296,"tivi":9297,"getAttribute":9298,"isys":9299,"REPL":9300,"boxes":9301,"fullpath":9302,"assertDictEqual":9303,"ĠSkipTest":9304,"PORTED":9305,"CLE":9306,"GD":9307,"fla":9308,"orten":9309,"',{}).":9310,">',{'":9311,"ALIGN":9312,"Created":9313,"Dispatcher":9314,"bitmap":9315,"Ġ:\"#":9316,"DAY":9317,"(',":9318,"Follow":9319,"Mapper":9320,"eth":9321,"Ġms":9322,"Ġprofile":9323,"']])<":9324,"appa":9325,"prime":9326,"=['-":9327,"Ops":9328,"101":9329,"DOUT":9330,"maintainer":9331,"issuer":9332,"dshape":9333,"mption":9334,"cherrypy":9335,"Ġinner":9336,"','',":9337,"Ġreduce":9338,"ĠcStringIO":9339,"Ġpd":9340,"Execute":9341,"totals":9342,"Ġnormalize":9343,">]":9344,"Cs":9345,"bib":9346,"fresh":9347,"uate":9348,"Ġcompile":9349,"__),":9350,"istent":9351,"Redis":9352,"preview":9353,"journ":9354,"loadTestsFrom":9355,"DICT":9356,"cir":9357,"psutil":9358,"bsl":9359,"spike":9360,"visited":9361,"ZERO":9362,")[].":9363,"52":9364,"Center":9365,"tlist":9366,"Ġal":9367,"Ġfix":9368,"Ġusername":9369,"Ġ[,:":9370,"consistency":9371,"sibl":9372,"marathon":9373,"ptg":9374,"Super":9375,"Allowed":9376,"After":9377,"qr":9378,"stick":9379,"lev":9380,"Ġ](":9381,"Forward":9382,"Ġjsonify":9383,"servations":9384,"basicConfig":9385,"directories":9386,")()<":9387,",),(":9388,",(,))<":9389,"Dump":9390,"Ġfab":9391,"Ġ[::-":9392,"closing":9393,"Ġempty":9394,"LAttribute":9395,"webob":9396,"Submit":9397,"caps":9398,"releases":9399,"protected":9400,"datapath":9401,"ALIAS":9402,"XMLAttribute":9403,"Ctr":9404,"Cli":9405,"rmed":9406,"sat":9407,"spatial":9408,"school":9409,"Ġfactory":9410,"Ġexclude":9411,"too":9412,"isdigit":9413,"preferences":9414,"Ġrepo":9415,"regular":9416,"Focus":9417,"WINDOW":9418,"FOLDER":9419,"<<":9420,"Ok":9421,"RDF":9422,"imag":9423,"uda":9424,"stm":9425,">',['":9426,",'.":9427,"gender":9428,"):]<":9429,"hierarchy":9430,"Private":9431,"stripe":9432,"succeed":9433,"RETRY":9434,"tivities":9435,"Issue":9436,"ync":9437,"tities":9438,"concat":9439,"),[":9440,"='#":9441,"','').":9442,"Ġ]=[]<":9443,"Retry":9444,"()[])<":9445,"ffset":9446,"traver":9447,"netmask":9448,"corr":9449,"Ġvolume":9450,"1111":9451,"Already":9452,"certfile":9453,"Regression":9454,"ITEM":9455,"Canvas":9456,"Angle":9457,"deltas":9458,"\"'%":9459,"Later":9460,"bq":9461,"pycurl":9462,"lengthString":9463,"Visible":9464,"CODES":9465,"completer":9466,"analyze":9467,"aterial":9468,"bracket":9469,"AGER":9470,"Cred":9471,"OG":9472,"SMS":9473,"Ġssl":9474,"Ġmerge":9475,"sioned":9476,"fromtimestamp":9477,"'},":9478,"temperature":9479,"CommandError":9480,"tracking":9481,"TagLookupTable":9482,"switches":9483,"atern":9484,"Matcher":9485,"BuildTagLookupTable":9486,"uralNode":9487,"representation":9488,":'<":9489,"Break":9490,"HORIZ":9491,"VID":9492,"ctime":9493,"Ġcontainer":9494,"andra":9495,"observable":9496,"Ġ[][":9497,"DIFF":9498,"median":9499,"grads":9500,"grammar":9501,"Ġdis":9502,"rem":9503,"reject":9504,"stretch":9505,"('*":9506,"Ġ+)*":9507,"minator":9508,"Ġbind":9509,"))),<":9510,"MOD":9511,"__=__":9512,"Ans":9513,"Pac":9514,"wers":9515,"Ġdownload":9516,"vey":9517,"hemer":9518,"conns":9519,"oozie":9520,"middle":9521,"AFX":9522,")\"%":9523,"319":9524,"El":9525,"mmap":9526,"pth":9527,"sink":9528,"ĠForm":9529,"Ġshould":9530,"Ġfr":9531,"nsmap":9532,"ofs":9533,"Forms":9534,"capit":9535,"Mail":9536,"Denied":9537,"Annotation":9538,"NUMERIC":9539,"IV":9540,"ices":9541,"pseudo":9542,"srs":9543,"Ġalias":9544,"Ġdispatch":9545,"gend":9546,"']=[":9547,"ilter":9548,"Ġ+:":9549,",'#":9550,"ROW":9551,"fails":9552,"ĠPage":9553,"exprs":9554,"PROG":9555,"buckets":9556,"FloatField":9557,"{%":9558,"Ġnumber":9559,"('\\\\":9560,"Trig":9561,"downloader":9562,"Boot":9563,",[\"":9564,"Closed":9565,"writable":9566,"approved":9567,"Translation":9568,"qos":9569,"Ġlock":9570,"ined":9571,"exclusive":9572,"stacklevel":9573,"Subject":9574,"ished":9575,">},)<":9576,"COMMENT":9577,"Hyper":9578,"monkeypatch":9579,")[])<":9580,"139":9581,"Sorted":9582,"}.":9583,"ĠTime":9584,"ĠOutput":9585,"leave":9586,"assandra":9587,"applic":9588,"))*":9589,"DISA":9590,"},{\"":9591,"Ġ]+=":9592,"circle":9593,"Pacific":9594,"-,-":9595,"</":9596,"FP":9597,"Ġ),<":9598,"Ġdisplay":9599,"__=('":9600,"Ġignore":9601,"handled":9602,"Too":9603,"htmlhelp":9604,"IGH":9605,"PERMISSION":9606,"316":9607,"cfunc":9608,"Ġ^":9609,"house":9610,"ATURE":9611,"StrOpt":9612,"ĠSite":9613,"csw":9614,"('/')":9615,"Ġ[:].":9616,"SIGNAL":9617,"scalars":9618,"mgmt":9619,"ciphertext":9620,"400":9621,"HI":9622,"Utf":9623,"equi":9624,"solution":9625,"tali":9626,"uf":9627,"Ġobjects":9628,"Ġencoding":9629,"Ġmay":9630,"Ġ[][\"":9631,"prefetch":9632,"SAMPLE":9633,"CONNECTION":9634,"bri":9635,"did":9636,"udio":9637,"Ġbuf":9638,"Ġcontents":9639,"eled":9640,"Decor":9641,"sequences":9642,"ndb":9643,"sweep":9644,"wanted":9645,"Ġok":9646,"ĠJson":9647,"ada":9648,"iptables":9649,"formfield":9650,">[,,,],<":9651,"ious":9652,"ĠTag":9653,"QUO":9654,"Vari":9655,"headline":9656,"CUSTO":9657,"physical":9658,"ĠAbstract":9659,",(,":9660,"=\",":9661,"Native":9662,"]]<":9663,"ral":9664,"udy":9665,"quad":9666,"urljoin":9667,"velocity":9668,"Ġbr":9669,"'),'<":9670,"CONST":9671,"months":9672,"mug":9673,"plaintext":9674,"eggs":9675,"':{},<":9676,"preferred":9677,"svm":9678,"ĠUpdate":9679,"Ġhome":9680,"><<":9681,"Revision":9682,"sizeof":9683,"Stmt":9684,"otherarray":9685,"spective":9686,"Second":9687,"SIX":9688,"feedback":9689,"Payment":9690,"encryption":9691,"bash":9692,"ĠView":9693,"TestRunner":9694,"REA":9695,"Ġ:{<":9696,"gines":9697,"ĠTask":9698,"QUAL":9699,"Syn":9700,"cmc":9701,"Prior":9702,"articles":9703,"vocab":9704,"(\",":9705,"/\"+":9706,"Bus":9707,"FULL":9708,"RB":9709,"nnet":9710,"ums":9711,"xlabel":9712,"Ġsig":9713,"rod":9714,"assertGreater":9715,"ancestor":9716,"manent":9717,"specified":9718,"Ġmime":9719,"Subscri":9720,"NumberFormat":9721,"\"],\"":9722,"notebook":9723,"Ġsafe":9724,"SUPPORTED":9725,"({}":9726,"Xs":9727,"jk":9728,"presence":9729,"REN":9730,"handshake":9731,"ityError":9732,"Ġiteritems":9733,"Mesh":9734,"simplify":9735,"Day":9736,"GMT":9737,"Ġwrapped":9738,"ĠWeb":9739,"aring":9740,"people":9741,"uto":9742,"apy":9743,"='?":9744,"probe":9745,"amt":9746,"acters":9747,"GENER":9748,"Delta":9749,"Schedule":9750,"Ctrl":9751,"nex":9752,"Ġ):<":9753,"Ġraises":9754,"anced":9755,"autom":9756,"tenance":9757,"Ġpretty":9758,"ARGS":9759,"population":9760,"Vertical":9761,"VERBO":9762,"timestamps":9763,"Ġdefaultdict":9764,"pagination":9765,"ItemsEqual":9766,">{'<":9767,"PositiveIntegerField":9768,"Care":9769,"Ġlocation":9770,"rers":9771,"decompress":9772,"assertTemplate":9773,"thick":9774,"dbname":9775,"ĠSession":9776,"))])<":9777,"monit":9778,"CTX":9779,">']='":9780,"covery":9781,"PolyData":9782,"Two":9783,"_):":9784,"hadoop":9785,"ORITY":9786,"opened":9787,"HTTPServer":9788,"=-)<":9789,"different":9790,"SystemExit":9791,"Country":9792,"weekday":9793,"embedded":9794,"Theme":9795,"AlterField":9796,"++":9797,"Ep":9798,"hg":9799,"ĠURL":9800,"Ġpaths":9801,"lose":9802,"=[,,,,":9803,"Ġ-(":9804,"syco":9805,"\"]+":9806,"playlist":9807,"voter":9808,"'+'\",'":9809,"TRA":9810,"BC":9811,"Beta":9812,"DAT":9813,"invi":9814,"anger":9815,"':{}":9816,"assertItemsEqual":9817,"opcode":9818,"Reactor":9819,"basedir":9820,"elev":9821,"FilePath":9822,"$',<":9823,"Cat":9824,"Zone":9825,"ĠPost":9826,"Ġgevent":9827,"STDOUT":9828,"unity":9829,"dices":9830,"Stage":9831,"Ġmigr":9832,"\")),<":9833,"Ġhorizon":9834,"AssertionError":9835,"BUILTIN":9836,"samba":9837,"participant":9838,"ĠDecimal":9839,",[],":9840,"DRA":9841,"Fit":9842,"pargs":9843,"Ġseq":9844,"unsigned":9845,"pref":9846,"Ġcmp":9847,"going":9848,"WAY":9849,"Radius":9850,"FTP":9851,"bor":9852,"rho":9853,"udf":9854,"readed":9855,"temporary":9856,"architecture":9857,"FORE":9858,"Datetime":9859,"mux":9860,"solr":9861,"criteria":9862,"Quota":9863,"elihood":9864,"MQ":9865,"PP":9866,"_,<":9867,"pillar":9868,"Ġcl":9869,"(';":9870,"untjac":9871,"Ġcm":9872,"'))":9873,"contenttypes":9874,"ferer":9875,"locate":9876,"senses":9877,"visual":9878,"availability":9879,"clicked":9880,"declared":9881,"Permissions":9882,"OBJECTS":9883,"Deployment":9884,"VIDEO":9885,">\",":9886,"DD":9887,"FY":9888,"Troves":9889,"VS":9890,"oct":9891,"rn":9892,"stan":9893,"typename":9894,"illed":9895,"vered":9896,"persistent":9897,"Ġ[]).":9898,"passphrase":9899,"\"][":9900,"Ġeq":9901,"skill":9902,"tracked":9903,"Grad":9904,"ivy":9905,"CUSTOM":9906,"FL":9907,"Patch":9908,"birth":9909,"fobj":9910,"yellow":9911,"Ġtokens":9912,"atan":9913,"TestLoader":9914,"(((":9915,"ĠAl":9916,"POSIX":9917,"Ġnamespace":9918,"Indexed":9919,"Constants":9920,"Registration":9921,"jack":9922,"ĠCo":9923,"Ġpack":9924,"than":9925,"maxlen":9926,"kws":9927,"Reserved":9928,"))[]<":9929,"afp":9930,")]]),('_":9931,"lbry":9932,"visibility":9933,"Alignment":9934,"traverser":9935,"asta":9936,"Ġdevice":9937,"Ġprev":9938,"inlines":9939,"pex":9940,"existent":9941,"),(,":9942,"Ġ+=(":9943,"pore":9944,"=\"\"):<":9945,"newaxis":9946,"taskqueue":9947,"ĠAn":9948,"HTTPRequest":9949,"secrets":9950,"gorithms":9951,"CRIT":9952,"Ġfeature":9953,"assertTemplateUsed":9954,"033":9955,"Freque":9956,"ovs":9957,"ytes":9958,"Ġmove":9959,"__',":9960,"BOR":9961,"comparison":9962,"substr":9963,"KeyValue":9964,"Encoding":9965,"HTTPBadRequest":9966,"attribFont":9967,"URLCONF":9968,"enums":9969,"ĠDist":9970,"hypervisor":9971,"Extractor":9972,"Peer":9973,"assertRaisesRegexp":9974,"ĠMissing":9975,"EK":9976,"MON":9977,"ymax":9978,"Ġpartial":9979,"teams":9980,"determin":9981,"STACK":9982,"unset":9983,"outline":9984,"Equals":9985,"regression":9986,"SECON":9987,",\"_":9988,"CONTAIN":9989,"ANGO":9990,")[:]<":9991,"MANAGER":9992,"NotImplementedError":9993,"OVER":9994,"iod":9995,"jun":9996,"rfind":9997,"{'<":9998,"ĠDEBUG":9999,"pep":10000,"rich":10001,"curses":10002,"FIRST":10003,")==\"":10004,"nspath":10005,"distutils":10006,",[,,":10007,"sockopt":10008,"divmod":10009,"XbrlConst":10010,"RECORD":10011,"'\"}),<":10012,"!')<":10013,")\\":10014,"High":10015,"PHA":10016,"gar":10017,"Ġad":10018,"Ġchildren":10019,"ĠDocument":10020,"selen":10021,"means":10022,"rier":10023,"']},<":10024,"']=_":10025,"=\"<":10026,"execs":10027,"ephemer":10028,"Ġmk":10029,"ResourceOwnerId":10030,"letters":10031,"USED":10032,"aemon":10033,"mixed":10034,"broadcastable":10035,"Team":10036,"Azure":10037,"stp":10038,"anda":10039,"filesystem":10040,"outcome":10041,"vehicle":10042,"()):":10043,"Loc":10044,"Username":10045,"POLL":10046,"decrypt":10047,"workflows":10048,"friends":10049,"remainder":10050,"DEFINE":10051,"masked":10052,"62":10053,"82":10054,"Emp":10055,"LF":10056,"ZONE":10057,"ose":10058,"ĠParse":10059,"(\"+":10060,"traverse":10061,"Ġcp":10062,"=(,,)<":10063,"darwin":10064,"Trait":10065,"selenium":10066,"310":10067,"nsa":10068,"ptool":10069,"Ġescape":10070,"keyid":10071,"never":10072,"([,])<":10073,"Adv":10074,"Ġmuntjac":10075,"flows":10076,"recording":10077,"symlink":10078,"Background":10079,"Power":10080,"BLU":10081,"Nested":10082,"mcmc":10083,"xmpp":10084,"ĠQuery":10085,"getpid":10086,"conductor":10087,"sio":10088,"(,(,":10089,"Ġ:('":10090,"actors":10091,"Demo":10092,"generation":10093,"operators":10094,"HTTPConnection":10095,"breaks":10096,"PROVI":10097,"integration":10098,"Whitespace":10099,"inserted":10100,"EXTENSION":10101,"milliseconds":10102,"SCOPE":10103,"hh":10104,"ire":10105,"ske":10106,"004":10107,",\"\")<":10108,"KEYS":10109,"Ġ[:]+":10110,"consumption":10111,"INTERNAL":10112,"Jobs":10113,"Building":10114,"Slider":10115,":'+":10116,"Impl":10117,"OTH":10118,"Sur":10119,"ldb":10120,"qp":10121,"Ġby":10122,"Ġshared":10123,"reminder":10124,"']]":10125,"heat":10126,"SHORT":10127,"ĠFoo":10128,"Ġsahara":10129,"Green":10130,"lifetime":10131,"struction":10132,"DivisionError":10133,"slow":10134,"Ġupload":10135,"chk":10136,"(\"{":10137,"BOX":10138,"starts":10139,"RESET":10140,"john":10141,"(),[":10142,"Character":10143,"VIRT":10144,"infer":10145,"HASH":10146,"Conflict":10147,"between":10148,"aternion":10149,")'<":10150,",/":10151,"Sta":10152,"aes":10153,"gof":10154,"ming":10155,"pn":10156,"wo":10157,"ĠType":10158,"Ġoffset":10159,"Ġleft":10160,"atty":10161,"Ġ]=_":10162,"changelist":10163,"distri":10164,"pubkey":10165,"Quan":10166,"mirror":10167,",:]<":10168,">}]<":10169,"Errback":10170,"hive":10171,"lint":10172,"Ġmissing":10173,"riend":10174,"dag":10175,"agtail":10176,"dfs":10177,")+\"\\":10178,"ĠCustom":10179,"EXA":10180,"zipfile":10181,"Leaf":10182,"2000":10183,"BSD":10184,"titude":10185,"billing":10186,"ĠSyntaxError":10187,"attribXlink":10188,"Clip":10189,"GA":10190,"HMAC":10191,"Rob":10192,"mbox":10193,"getstate":10194,"conan":10195,"proposal":10196,"Reverse":10197,"song":10198,"trade":10199,"\"]=<":10200,"Ġganeti":10201,"ioloop":10202,"{}\".":10203,"Legend":10204,"successful":10205,"NED":10206,"\":['<":10207,"simulation":10208,",),)<":10209,"Mongo":10210,"_,**":10211,"online":10212,"cedu":10213,"objective":10214,"msgid":10215,"CommCare":10216,"addrs":10217,"ĠToken":10218,"Queries":10219,"listed":10220,"dotted":10221,"bottle":10222,"pkgs":10223,"tftp":10224,"ZeroDivisionError":10225,"successes":10226,"reflect":10227,"VERBOSE":10228,"MR":10229,"ether":10230,"rid":10231,"ĠSt":10232,"relu":10233,"ceptor":10234,"respon":10235,"starting":10236,"backoff":10237,"Uniform":10238,"FILENAME":10239,"':[(":10240,"contributors":10241,"escaped":10242,"PRESS":10243,"paginate":10244,"ĠConfigParser":10245,"UNICODE":10246,"hdfs":10247,"EXPAND":10248,"movie":10249,"propagate":10250,"Effect":10251,"far":10252,"invalidate":10253,"Ġ[('":10254,"('='":10255,"],[":10256,"syslog":10257,"Ġ*,":10258,"ressor":10259,"LICE":10260,"':\"'+'\",'":10261,"Composite":10262,"branches":10263,"Readable":10264,"folds":10265,"''.":10266,"GC":10267,"GREEN":10268,"Slug":10269,"bz":10270,"due":10271,"Ġuri":10272,"ala":10273,"provided":10274,"Ġcategory":10275,"viewpoint":10276,"((,,,":10277,"Serial":10278,"KED":10279,"Callable":10280,"Links":10281,"ZipFile":10282,"\"),)<":10283,"ier":10284,"Ġattribute":10285,"__),'":10286,"('^":10287,"uploaded":10288,"Ġ]={}<":10289,"Require":10290,"Ġflat":10291,"tableWidget":10292,"weigh":10293,"agger":10294,">']['":10295,"1637":10296,"ILD":10297,"baas":10298,"Defaults":10299,"dark":10300,"repeated":10301,"Workbook":10302,"LDAP":10303,"LOCATION":10304,"coordinator":10305,"rgba":10306,"332":10307,"Fam":10308,"rh":10309,"ru":10310,"rink":10311,"ufact":10312,"Ġcom":10313,"Ġnow":10314,"toggle":10315,"verti":10316,"RET":10317,"MessageBox":10318,"Cached":10319,"activated":10320,"ExecutionError":10321,"front":10322,"64740":10323,"javascript":10324,"money":10325,"sfa":10326,"vbox":10327,"Ġfilters":10328,"Ġensure":10329,"princip":10330,"=\"+":10331,"ffff":10332,"utility":10333,"functional":10334,"ILL":10335,"rottle":10336,"Ġconary":10337,"screenshot":10338,"lons":10339,"sycopg":10340,"Available":10341,"TW":10342,"reopen":10343,"=['%":10344,"addAction":10345,"ipt":10346,"\",\"/":10347,"SEARCH":10348,"Ġsystem":10349,"excinfo":10350,"authority":10351,">:(,'<":10352,"Compare":10353,"NEL":10354,"Alph":10355,"Cert":10356,"Vote":10357,"EVP":10358,"nv":10359,"Ġcookie":10360,"sever":10361,"INF":10362,"leon":10363,"anc":10364,"urlconf":10365,"formatting":10366,"validated":10367,"Ġph":10368,"locs":10369,"Ġbatch":10370,"ĠApi":10371,">[('":10372,">[,,,,,,,,":10373,"CTRL":10374,"DOC":10375,"FIFFV":10376,"Ġwebob":10377,">[,,,,],<":10378,"Importer":10379,"office":10380,"##":10381,"({})<":10382,"Pin":10383,"_=[(\"":10384,"bdist":10385,"bare":10386,"sdb":10387,"information":10388,"__=[\"":10389,"cause":10390,"LABLE":10391,"ENCO":10392,"ĠGit":10393,"PAY":10394,"polynomial":10395,"effects":10396,"recurse":10397,"interpret":10398,"imshow":10399,"fqdn":10400,"\"):":10401,")^":10402,"AVA":10403,"gte":10404,"milestone":10405,"nfs":10406,"ya":10407,"LITY":10408,"Ġ[,,":10409,"acces":10410,"moduleId":10411,"Ġ[:,],":10412,"mailbox":10413,">[(":10414,"cident":10415,"ENCE":10416,"SUF":10417,"requirement":10418,"scratch":10419,"alternative":10420,"marshal":10421,"72":10422,"SN":10423,"_\"+":10424,"aussian":10425,"pname":10426,"Ġlin":10427,"Ġtransaction":10428,"STA":10429,"':},":10430,"Ġscript":10431,"Review":10432,"soap":10433,"IDS":10434,"PEM":10435,"playback":10436,"CHUNK":10437,"Ġnamed":10438,"TextInput":10439,"HTTPClient":10440,"Ġ[:-])<":10441,"MISS":10442,"andidate":10443,"descend":10444,"capitalize":10445,"EXAMPLE":10446,"Google":10447,"tors":10448,"Ġsha":10449,"clas":10450,"fromUtf":10451,"portSpec":10452,"Resources":10453,"nonymous":10454,"contacts":10455,"hints":10456,"Ġinitial":10457,"=(),":10458,"Bits":10459,"Self":10460,"\\.":10461,"ĠContext":10462,"Ġ<(,):<":10463,"','*.":10464,"=-):<":10465,"tracklist":10466,"Calendar":10467,"datal":10468,"LUGIN":10469,"placeholders":10470,"cascade":10471,"ailgun":10472,"Hi":10473,"RD":10474,"Tip":10475,"hold":10476,"vcpus":10477,"Ġmember":10478,"Ġfailed":10479,"ats":10480,"asdf":10481,"formed":10482,"outdir":10483,"REST":10484,"([]":10485,"rena":10486,"fee":10487,")+(":10488,"CHILD":10489,"environments":10490,"attribColor":10491,")),))<":10492,"assignments":10493,",],[,]":10494,"DecimalField":10495,"declaration":10496,"Answer":10497,"DJ":10498,"TT":10499,"]]":10500,"eof":10501,"gist":10502,"Ġwx":10503,"ĠOK":10504,"=\"{":10505,"Ġ:('<":10506,"Ġrequire":10507,"mapho":10508,"funcname":10509,"childNodes":10510,"ĠAction":10511,"Units":10512,"snmp":10513,"glVertex":10514,"monitoring":10515,"Ġfnmatch":10516,"NamedTemporaryFile":10517,"tap":10518,"vx":10519,"xmin":10520,"Ġsign":10521,"Ġextension":10522,"Ġaccount":10523,"Ġselected":10524,"replay":10525,"asn":10526,"__')<":10527,"conds":10528,"concrete":10529,"Ġscan":10530,"lux":10531,"initializer":10532,"InstanceId":10533,")//":10534,"LUME":10535,"ocial":10536,"Depth":10537,"frequencies":10538,")&(":10539,"Initialized":10540,"BINARY":10541,"ĠSystemExit":10542,"datadir":10543,"ToOneField":10544,"Punctuation":10545,"cmake":10546,"fts":10547,"Ġdescription":10548,"ina":10549,"argmax":10550,"abo":10551,"ipsec":10552,"Observer":10553,"empt":10554,"databaseinfra":10555,"Rules":10556,"INSTALL":10557,"caching":10558,"contig":10559,"collapse":10560,"Glob":10561,"OWN":10562,"dont":10563,"nice":10564,"Ġ','":10565,"ĠAdmin":10566,"loglevel":10567,"Ġreal":10568,"Ġfree":10569,"why":10570,"Ġdatastore":10571,"databases":10572,"tooltip":10573,"Changes":10574,"ENDPOINT":10575,"([,,])<":10576,"Assignment":10577,"Quantity":10578,"'-":10579,"BIG":10580,"ImportError":10581,"RATE":10582,"bond":10583,"danger":10584,"gdata":10585,"gain":10586,"happy":10587,"pane":10588,"Ġpool":10589,"Ġtraits":10590,"INFORM":10591,"olds":10592,"isect":10593,"Excel":10594,"ĠMan":10595,"ĠsetUpClass":10596,"RandomState":10597,"configurations":10598,"Ġdecimal":10599,"ufacture":10600,"81":10601,"even":10602,"ymin":10603,"Ġaxis":10604,"Ġexpand":10605,"apon":10606,"Ġscope":10607,"Ġbit":10608,">')),('":10609,"Manip":10610,"aaaa":10611,"VerifyAll":10612,"Install":10613,"RULE":10614,"MovedAttribute":10615,"ju":10616,"lash":10617,"vList":10618,"Ġtok":10619,"roi":10620,"('@":10621,">',),('<":10622,">_=":10623,"chosen":10624,"ĠTable":10625,"Period":10626,"mios":10627,"pickled":10628,"Arguments":10629,"longest":10630,"\":[(\"":10631,"CONNECT":10632,"machines":10633,"=,)<":10634,"TDS":10635,"UX":10636,"wild":10637,"xmax":10638,"Ġclone":10639,"getName":10640,"termios":10641,"isnull":10642,"']=[]<":10643,"backward":10644,"ibuild":10645,"=(-":10646,"descriptions":10647,"ĠPlugin":10648,"Ġkivy":10649,"ConnectionError":10650,"Thing":10651,"reporting":10652,"ICK":10653,"Month":10654,"CATE":10655,"ior":10656,"spo":10657,"sus":10658,"uc":10659,"Ġunit":10660,"decay":10661,"estimate":10662,"acle":10663,"Ġ'/":10664,"Ġcms":10665,"METR":10666,"itemgetter":10667,"Pointer":10668,"USAGE":10669,"APIResource":10670,"associate":10671,"SecurityGroup":10672,"Soup":10673,"INFORMATION":10674,"CN":10675,"Ġexit":10676,"ĠDEFAULT":10677,"Ġtables":10678,"Ġcached":10679,"Ġenable":10680,"inside":10681,"attached":10682,"texture":10683,"urlname":10684,"()>:<":10685,"Ġrec":10686,"rowse":10687,"reground":10688,"IDP":10689,"TEX":10690,"wav":10691,"modifiers":10692,"NamedType":10693,"ĠĠĠĠĠĠĠ":10694,"privileges":10695,"parentObjId":10696,"Broadcast":10697,"BI":10698,"EV":10699,"Ġstrip":10700,"intr":10701,"deserialized":10702,"illa":10703,"\",[\"":10704,"Ġscr":10705,"TestResult":10706,"tended":10707,"Ġclick":10708,"Ġ-]<":10709,"Services":10710,"ĠFe":10711,"usages":10712,"implements":10713,"READY":10714,",),),<":10715,"Refresh":10716,"dropout":10717,"MAPP":10718,"RS":10719,"Score":10720,"TMP":10721,"lbl":10722,"lbaas":10723,"ene":10724,"ellip":10725,"__','__":10726,"trusted":10727,"male":10728,"ntp":10729,"thro":10730,"classification":10731,"\",),":10732,"==):<":10733,"Ġcert":10734,"exponent":10735,"ToString":10736,"Head":10737,"',,),('":10738,"sanitize":10739,"banner":10740,"COMPLETE":10741,"+<":10742,"61":10743,"=','":10744,"Abs":10745,"DONE":10746,"Qname":10747,"boss":10748,"cue":10749,"sprite":10750,"vault":10751,"Ġone":10752,"Ġargv":10753,"Ġproxy":10754,"Ġthis":10755,"invert":10756,"asure":10757,"',*":10758,"Ġimg":10759,"undefined":10760,"rax":10761,"libvirt":10762,"localtime":10763,"Colors":10764,"graphy":10765,"Ġ/,":10766,"CONN":10767,"FOUR":10768,")]))<":10769,"Foot":10770,"years":10771,"Syntax":10772,"Ġjinja":10773,"delayed":10774,"Pagin":10775,"Ġ}))<":10776,"trees":10777,"gauge":10778,"substitute":10779,"\"))":10780,"ISO":10781,"ImproperlyConfigured":10782,"Old":10783,"ttype":10784,"DESCRIPT":10785,"']!=":10786,"()(":10787,"icmp":10788,"ĠcPickle":10789,"nowled":10790,"distro":10791,"ILLI":10792,"FormatError":10793,"OptionError":10794,"Plugins":10795,"447":10796,"Delay":10797,"genome":10798,"Pixel":10799,"Trigger":10800,"789":10801,"Dat":10802,"Dim":10803,"Duration":10804,"FH":10805,"LM":10806,"Photo":10807,"Si":10808,"spread":10809,"ĠProcess":10810,">'',<":10811,"Ġ'-":10812,"Ġcb":10813,"tokenizer":10814,"COPY":10815,"RequestError":10816,"relations":10817,"statsd":10818,"('/',":10819,"ĠByte":10820,"Mapped":10821,"rollup":10822,"ltk":10823,",),(,":10824,"returnedString":10825,"mkstemp":10826,"Family":10827,"98":10828,"lng":10829,"Ġwe":10830,"Ġenviron":10831,"ĠEnvironment":10832,"Ġ[]])<":10833,"numVertices":10834,"Ġrecei":10835,"filt":10836,"executed":10837,"ĠIP":10838,"generators":10839,"Ġast":10840,"devnull":10841,"Ġ**<":10842,"hyp":10843,"gpuarray":10844,"Ġfrappe":10845,"BLUE":10846,"EST":10847,"Equ":10848,"Escape":10849,"Warn":10850,"material":10851,"oh":10852,"wig":10853,"Ġwidth":10854,"urse":10855,"itution":10856,"concept":10857,"Ġsaml":10858,"configured":10859,"newlines":10860,"ALPHA":10861,"IDs":10862,"ibs":10863,"autif":10864,"Download":10865,"ĠEmpty":10866,"aneous":10867,"sliver":10868,"Ticket":10869,"allery":10870,"://%":10871,"DESCRIPTOR":10872,"autiful":10873,"(.*":10874,"GID":10875,"vfs":10876,"}:":10877,"Ġallow":10878,"Ġallowed":10879,"__)":10880,"trize":10881,"cha":10882,"pes":10883,"verifier":10884,"permit":10885,"Connected":10886,"works":10887,"Additional":10888,"others":10889,"makeSuite":10890,"Ġpygments":10891,"Labels":10892,"scaled":10893,"VOLUME":10894,"mutex":10895,"\")):<":10896,"Pol":10897,"Sent":10898,"water":10899,"Ġth":10900,"Ġevents":10901,"Ġperform":10902,"fish":10903,",,'":10904,"scm":10905,"Ġregistr":10906,"checkJoin":10907,"sule":10908,"binder":10909,"Ġ[:]))<":10910,"INTERVAL":10911,"prediction":10912,",],[,],[,],[,],[":10913,"PRIORITY":10914,"fuzzy":10915,"MEMBER":10916,"BYTES":10917,"likelihood":10918,",)+":10919,"/*":10920,"Called":10921,"dum":10922,"yr":10923,"zable":10924,"Ġwarn":10925,"Ġstorage":10926,"Ġdisk":10927,"Ġwsgi":10928,"student":10929,">')))<":10930,"lop":10931,"opcodes":10932,"ester":10933,"social":10934,"itemsize":10935,"valent":10936,"deployments":10937,"Ġunpack":10938,"COLUM":10939,"Iterable":10940,"takes":10941,"Numpy":10942,"tunnel":10943,"Scroll":10944,"IDENTIFI":10945,"Blog":10946,"Dot":10947,"Kind":10948,"WER":10949,"dj":10950,"hu":10951,"ool":10952,"Ġquote":10953,"revert":10954,"(''.":10955,"Ġ]])<":10956,"putPrefixedString":10957,"homo":10958,"grab":10959,"ALG":10960,"multiline":10961,"picker":10962,"172":10963,"CPP":10964,"directives":10965,"Dao":10966,"Ġsmart":10967,"Aggregate":10968,"Clock":10969,"Lst":10970,"ljust":10971,"yn":10972,"sts":10973,"typecode":10974,"logo":10975,"Based":10976,"Encryp":10977,"blocksize":10978,"ObjectType":10979,"Separ":10980,"cannot":10981,"360":10982,"momentum":10983,"220":10984,"FLOW":10985,"MATCH":10986,"mal":10987,"assist":10988,"maxt":10989,"typed":10990,"campaign":10991,"ATIVE":10992,"BaseTest":10993,"(,,),":10994,"secgroup":10995,"Ġ[-:]":10996,"401":10997,"FONT":10998,"bookmark":10999,"effective":11000,"'==":11001,"BATCH":11002,"EE":11003,"LC":11004,"LW":11005,"Ġterm":11006,"__):<":11007,"liant":11008,"combo":11009,"Ġfuture":11010,"ansui":11011,"varargs":11012,"soa":11013,"Unauthorized":11014,")+)<":11015,"Activ":11016,"convertTo":11017,"SOCKET":11018,"Expand":11019,"HOSTNAME":11020,"Ġeventlet":11021,"cutoff":11022,"COMMIT":11023,"John":11024,"RECASE":11025,"deadline":11026,"talib":11027,"${":11028,"300":11029,"Qual":11030,"mass":11031,"nrows":11032,"degrees":11033,"race":11034,"Ġdone":11035,"ROP":11036,"sockets":11037,"nonlinear":11038,"rslt":11039,"polygon":11040,"mesos":11041,"IGNORECASE":11042,"840":11043,"Ignore":11044,"RON":11045,"rat":11046,"uator":11047,"Ġactual":11048,"osted":11049,"delattr":11050,"=\"#":11051,"Expected":11052,"Ġdst":11053,"Proble":11054,"pio":11055,"licates":11056,"randrange":11057,"ĠAc":11058,"Requests":11059,"Charset":11060,"grams":11061,"capability":11062,"Ġdev":11063,"suffixes":11064,"mimetypes":11065,"WEB":11066,"(,),(,),(,),(,),(,),(,),(,),(,),(,),(,),(,),(,),(,),(,),(,),(,),(,),(,),(,),(,),(,),(,),(,),(,),(,),(,),(,),(,),(,),(,),(,),(,),":11067,"Scanner":11068,"journal":11069,"stmts":11070,"CRITICAL":11071,"xlim":11072,"ĠProtocol":11073,"ĠComment":11074,"Ġdirector":11075,"decision":11076,"orange":11077,"allocation":11078,"excel":11079,"magi":11080,"upy":11081,"prune":11082,"Ġflush":11083,"jsonutils":11084,"Ġcli":11085,"suppress":11086,"Digest":11087,"patched":11088,"makefile":11089,")==(":11090,"goti":11091,"INTERFACE":11092,"12345":11093,"prepend":11094,"bsdusr":11095,"469":11096,"IME":11097,"PF":11098,"UBLE":11099,"lte":11100,"zf":11101,"}}<":11102,"Ġactive":11103,"Ġcolumns":11104,"Ġabc":11105,"resample":11106,"('>":11107,",'\\":11108,"nodeset":11109,"preference":11110,"answers":11111,"patches":11112,"schemas":11113,">')=='":11114,"Ġ!='':<":11115,"bandwidth":11116,"hrn":11117,"Radio":11118,"()[:]<":11119,"declarative":11120,"CLUDE":11121,"ENCODING":11122,"MISSING":11123,"+)<":11124,"PLUGIN":11125,"Ġvariable":11126,"opa":11127,"\",))<":11128,"RESER":11129,">')]<":11130,"SPI":11131,"Ġ[:]=='":11132,"ĠArg":11133,"Small":11134,"FMT":11135,"PTR":11136,"sx":11137,"Ġdest":11138,"stim":11139,"algorithms":11140,"engines":11141,"abbre":11142,"comma":11143,"maintenance":11144,"Exceptions":11145,"'),(,,'":11146,"izations":11147,"voked":11148,"converted":11149,"Instances":11150,"particle":11151,"Tables":11152,"STATS":11153,"Curve":11154,"drain":11155,"submissions":11156,"Hydrus":11157,"PROPERTY":11158,"POSITION":11159,"DRI":11160,"Less":11161,"ki":11162,"Ġloop":11163,"lored":11164,"Ġii":11165,"','+":11166,"=[('<":11167,"addErrback":11168,"Ġcs":11169,"mitter":11170,"POLIC":11171,",_('<":11172,"bytecode":11173,"hysical":11174,"rouped":11175,"Ġfinalize":11176,"POLICY":11177,">\")<":11178,"May":11179,"]',":11180,"dit":11181,"lk":11182,"nbits":11183,"Ġ4":11184,"Ġ><":11185,"conne":11186,"ulong":11187,"romise":11188,"filer":11189,"activities":11190,"dyn":11191,"prefixlen":11192,"cpd":11193,"admins":11194,"overflow":11195,"included":11196,"ServerError":11197,"Disabled":11198,"Spike":11199,"Ġsi":11200,"Ġdesc":11201,"getattribute":11202,"ulse":11203,"textwrap":11204,"ecycle":11205,"'%(<":11206,"(,),'":11207,"IPAddress":11208,"UPLOAD":11209,"Operations":11210,"Locked":11211,"slider":11212,"Reporter":11213,"ĠCONF":11214,"cedure":11215,",{\"":11216,"EQUAL":11217,"NL":11218,"crc":11219,"smp":11220,"Ġge":11221,"Ġgroups":11222,"Ġhead":11223,"Ġmenu":11224,"ford":11225,"periodic":11226,"Include":11227,"untu":11228,"001":11229,"locks":11230,"offline":11231,"chedule":11232,"stale":11233,"Subnet":11234,"TAGS":11235,"ĠGe":11236,"fontsize":11237,"UDP":11238,"Sensor":11239,"SUFFIX":11240,"386":11241,"VL":11242,"vstack":11243,"Ġar":11244,"Ġtrain":11245,"insecure":11246,"meg":11247,"atex":11248,"nost":11249,"Ġindent":11250,"','#":11251,"shorten":11252,"linter":11253,"bounce":11254,"figsize":11255,"(,)":11256,"ValueFlag":11257,"Ġ[:,]<":11258,"Ġpid":11259,"\"]==\"":11260,"failing":11261,"ULONG":11262,"('/'):<":11263,"aggregates":11264,"blobs":11265,"criterion":11266,"DISPLAY":11267,"vorite":11268,"DLL":11269,"Pending":11270,"Padding":11271,"TTransport":11272,"Yes":11273,"_(<":11274,"edi":11275,"Ġstore":11276,"Ġstatic":11277,"NTIC":11278,"STRI":11279,"elcast":11280,"__,'":11281,"ErrorCode":11282,"addons":11283,"Ġsock":11284,"Ġdns":11285,"systems":11286,"myid":11287,"facet":11288,"Ġcreated":11289,"converters":11290,"PROFILE":11291,"multiprocessing":11292,"infinity":11293,"sistence":11294,"ĠReg":11295,"()+<":11296,"requester":11297,"watcher":11298,"Dependencies":11299,"behaviors":11300,"hydrate":11301,"Associ":11302,"YA":11303,"lun":11304,"lify":11305,"nav":11306,"ĠConfiguration":11307,"coup":11308,"truth":11309,"estim":11310,"Replace":11311,"Ġ[::":11312,"DataSource":11313,"((-":11314,"ANK":11315,"URATION":11316,"MetaData":11317,"Ġhy":11318,"guous":11319,"SPEC":11320,"Linux":11321,"METRIC":11322,"Cd":11323,"Customer":11324,"Home":11325,"PDU":11326,"SING":11327,"pend":11328,"wc":11329,"Ġra":11330,"Ġloc":11331,"Ġattributes":11332,"Ġseen":11333,"Ġatom":11334,"tics":11335,"trap":11336,"lenv":11337,"SED":11338,"DataType":11339,"POP":11340,"graphic":11341,"idxs":11342,"overlay":11343,"contribu":11344,"',[[('":11345,"Complete":11346,")>=:<":11347,"Ġ[,],,)<":11348,"flexmock":11349,"xenapi":11350,"weighted":11351,")\")<":11352,"ered":11353,"ocp":11354,"ponent":11355,"Ġtrans":11356,"ĠLocal":11357,">'==":11358,"expose":11359,"proba":11360,"()>":11361,"()],<":11362,"curdir":11363,"Colour":11364,"iterate":11365,"VERTI":11366,"THRE":11367,"DOUBLE":11368,"quotes":11369,"ĠBaseCommand":11370,"Annotator":11371,"Apply":11372,"mixins":11373,"ffered":11374,"FACTORY":11375,"ephemeral":11376,"Alpha":11377,"maphore":11378,"MAPPING":11379,"eved":11380,"passes":11381,"vic":11382,"sss":11383,"Ġ]=='":11384,"estCase":11385,"Ġ[]/":11386,"readme":11387,"Direction":11388,"ACH":11389,"PED":11390,"charge":11391,"HTTPretty":11392,"MessageType":11393,"ieve":11394,"suites":11395,"Ġexample":11396,"caches":11397,"ĠThread":11398,";\")<":11399,"AES":11400,"Drag":11401,"xor":11402,"ĠNetwork":11403,"DELAY":11404,"tect":11405,"Ġironic":11406,"nodeType":11407,"()),('":11408,"authn":11409,"Ġreactor":11410,"workdir":11411,"rels":11412,"FAST":11413,"MessageEnd":11414,",-,":11415,"ĠOAuth":11416,"Such":11417,"followers":11418,"136":11419,"Year":11420,"pillow":11421,"Ġstdout":11422,"Ġviews":11423,"Ġfit":11424,"rex":11425,"incre":11426,"timetuple":11427,"pyui":11428,"NameOr":11429,"shares":11430,"numa":11431,"characters":11432,"Buffered":11433,"capt":11434,"TaskQueue":11435,"BoxLayout":11436,"follower":11437,"claim":11438,"softmax":11439,"Credential":11440,"*','":11441,"97":11442,"rings":11443,"xsi":11444,"':(,'":11445,"idom":11446,"getopt":11447,"setstate":11448,"(<<":11449,"blas":11450,"')],":11451,"posure":11452,"ARM":11453,"BaseClass":11454,"localize":11455,"ResponseError":11456,"Board":11457,"Ġtool":11458,"MethodNotSupported":11459,"defines":11460,"PARENT":11461,"Ġ+='\\":11462,"alerts":11463,"paste":11464,"DebugFormat":11465,"advanced":11466,"ĠObjectDoesNotExist":11467,"recobj":11468,"REGISTER":11469,"hazelcast":11470,"Decorator":11471,"/$',":11472,"CAN":11473,"HS":11474,"Press":11475,"]}<":11476,"pic":11477,"Ġma":11478,"Ġec":11479,"trash":11480,"=\"\"\"":11481,"openssl":11482,"={},<":11483,"ACES":11484,"kern":11485,"colormap":11486,"Ġglobal":11487,"cpmeas":11488,"parametrize":11489,"forever":11490,"xxx":11491,"Placeholder":11492,"CRYPT":11493,"mandatory":11494,"ACCEPT":11495,"$','":11496,"Car":11497,"mname":11498,"nes":11499,"{}<":11500,"Ġedge":11501,"ĠColor":11502,"tele":11503,"lost":11504,"assertNo":11505,"clk":11506,"shop":11507,"(\"__":11508,"perf":11509,"Ġscheme":11510,"commen":11511,"Ġ-*":11512,"Dirs":11513,"Observable":11514,"ĠMark":11515,"Thresh":11516,"USERS":11517,"sheets":11518,"StreamHandler":11519,"Ġ+=\"\\":11520,"guide":11521,">[,,,,,],<":11522,"51":11523,"Ext":11524,"ILABLE":11525,"hstack":11526,"rum":11527,"raster":11528,"ually":11529,"Ġraise":11530,"Ġparameters":11531,"Ġexisting":11532,"reuse":11533,"Ġ[...":11534,"paint":11535,"requestor":11536,"plank":11537,"computer":11538,"Prompt":11539,"waiter":11540,"symp":11541,"\"]),<":11542,"ĠnodeName":11543,"ByTag":11544,"306":11545,"slide":11546,"Ġ{}\".":11547,"guard":11548,"microsecond":11549,"MULTIL":11550,"plankton":11551,"488":11552,"CG":11553,"TTL":11554,"_=\"\"<":11555,"dg":11556,"hb":11557,"Ġdirname":11558,"derers":11559,"assertList":11560,"ipher":11561,"based":11562,"jose":11563,"immutable":11564,"Ġpoly":11565,"2013":11566,"OPTS":11567,"TOO":11568,"ENTITY":11569,"Ġ[-]=='":11570,"grey":11571,"ABS":11572,"Director":11573,"Printer":11574,"coeffs":11575,"PRIV":11576,"coefficient":11577,"=()):<":11578,"CANCE":11579,"HV":11580,"Money":11581,"Oc":11582,"dv":11583,"Ġmodules":11584,"Ġoperation":11585,"Ġteardown":11586,"ĠWorld":11587,"inomial":11588,"orn":11589,"pars":11590,"dbg":11591,"\":}<":11592,"']={'":11593,"(*(":11594,"ayes":11595,"PROXY":11596,"DOCU":11597,"county":11598,"mistr":11599,"JSONEncoder":11600,"affine":11601,"Smart":11602,"confirmed":11603,"applications":11604,"ĠByteSize":11605,"150":11606,"OLE":11607,"Ġse":11608,"Ġroute":11609,"Ġhazelcast":11610,"ender":11611,"quaternion":11612,"(\"[":11613,"Ġ+:]<":11614,"())==":11615,"sax":11616,"mantic":11617,"Ġ%==:<":11618,"blocked":11619,"clustering":11620,"fnmatch":11621,"ĠFlask":11622,"RIB":11623,"ranks":11624,"severity":11625,"assistant":11626,"!\")<":11627,"+',":11628,"OO":11629,"Ste":11630,"Ġsecurity":11631,"denom":11632,"='_":11633,"dataReceived":11634,"attrname":11635,"Ġ*+":11636,"ACCOUNT":11637,"supervisor":11638,"HENTIC":11639,"Ġ***":11640,"MIX":11641,"Ġcleanup":11642,"announce":11643,"ufacturer":11644,"-,<":11645,"CSS":11646,"}{":11647,"Ġlong":11648,"Ġproc":11649,"Ġupgrade":11650,"alone":11651,"chunked":11652,"('..":11653,"ising":11654,"say":11655,"')],<":11656,"0001":11657,">[[":11658,"EXPI":11659,"General":11660,"159":11661,"Ġtopic":11662,"purge":11663,"parentObjType":11664,"Declar":11665,"Priority":11666,"NameOrValueFlag":11667,".'<":11668,"Ds":11669,"fout":11670,"REDIS":11671,"Optim":11672,"popleft":11673,">:('":11674,"SHED":11675,")-)<":11676,"radio":11677,"Explo":11678,"broken":11679,"Ġapiproxy":11680,"Ġviewfinder":11681,"inode":11682,"SPECI":11683,"Ġbokeh":11684,"stanza":11685,"MULTILINE":11686,"eError":11687,"Ġshape":11688,"keyspace":11689,"lam":11690,"Ġ[][])<":11691,"messaging":11692,"Ġeach":11693,"winreg":11694,"Ġrad":11695,"charsets":11696,"ashboard":11697,"namespacedef":11698,"NumberOf":11699,"verifylist":11700,"gorical":11701,"Blocks":11702,"strerror":11703,"quantities":11704,"SUPPORT":11705,"Ġnetworkx":11706,"DetailView":11707,"OWNER":11708,"Problem":11709,"RR":11710,"UAL":11711,"spl":11712,"ybot":11713,"Ġcomponent":11714,"',{<":11715,"die":11716,"agency":11717,"umask":11718,"calle":11719,"modal":11720,"errs":11721,"Ġpylearn":11722,"Ġpyramid":11723,")==[":11724,"owned":11725,"ReadOnly":11726,"Ġwebsite":11727,"Ġbefore":11728,"Pipe":11729,"Analysis":11730,"suggestion":11731,"italic":11732,"Legendre":11733,"datalist":11734,"Hex":11735,"hm":11736,"kafka":11737,"vmin":11738,"Ġmedia":11739,"ĠContentType":11740,"atoms":11741,"chant":11742,"unnamed":11743,"umbs":11744,"=[{<":11745,"\",{\"":11746,"poten":11747,"pycsw":11748,"dbs":11749,"Records":11750,"Ġ[][:":11751,"mlp":11752,"Low":11753,"syms":11754,"ListType":11755,"errback":11756,"POWER":11757,"Ġnailgun":11758,"optparse":11759,"loaders":11760,"DERS":11761,"txid":11762,"personality":11763,"conditional":11764,"distributed":11765,"PLAT":11766,"Ġrefresh":11767,"assertListEqual":11768,",%":11769,"?%":11770,"Opa":11771,"Ring":11772,"blip":11773,"lxml":11774,"xcode":11775,"Ġwords":11776,"Ġmapping":11777,"Ġdestroy":11778,"inactive":11779,"getpass":11780,"BOT":11781,"compliant":11782,">\",<":11783,"blab":11784,"agne":11785,"ANDS":11786,"lobj":11787,"ĠMem":11788,"ĠIPython":11789,"Addon":11790,"InvalidOperation":11791,"Ġ**-":11792,"geojson":11793,"Ġ+'.'+":11794,"ĠApplication":11795,"samdb":11796,"Ġpublish":11797,"contiguous":11798,"SHOW":11799,"similarity":11800,",('<":11801,"529":11802,"implemented":11803,"zaxis":11804,"Ġusage":11805,"Ġoverride":11806,"diction":11807,"via":11808,"puts":11809,"writerow":11810,"eventlet":11811,"Ġxs":11812,"ARB":11813,"paypal":11814,"504":11815,"StructuralNode":11816,"Ġretval":11817,"abcd":11818,"CPU":11819,"street":11820,"reduced":11821,"ualenv":11822,"ovf":11823,"aresansui":11824,"8859":11825,"Ġfabric":11826,"ByTagName":11827,"'',":11828,"'\\\\":11829,"==['":11830,"Cross":11831,"Mgr":11832,"gus":11833,"ima":11834,"Ġlayer":11835,"tet":11836,">'\\":11837,"asc":11838,"gered":11839,"enforce":11840,"pam":11841,"shader":11842,"within":11843,"IDDEN":11844,"ROLL":11845,"Ġgl":11846,"ĠBasic":11847,"ERRORS":11848,"centers":11849,"\")[]<":11850,"TESTS":11851,"aug":11852,"rmdir":11853,"Ġ'.'":11854,"AUTHENTIC":11855,"cipient":11856,"OFFSET":11857,"Ġmultiprocessing":11858,"Embedded":11859,"TITLE":11860,"ELEMENT":11861,"determine":11862,"ĠArgument":11863,"HC":11864,"Hub":11865,"PAN":11866,"Solver":11867,"pret":11868,"qibuild":11869,"Ġfo":11870,"reconnect":11871,"getVarInt":11872,"dataflow":11873,"pylab":11874,"Testing":11875,"Ġflow":11876,"'):-":11877,"Locator":11878,"uniq":11879,"Times":11880,"aystack":11881,"Ġklass":11882,"SHUT":11883,"Before":11884,"dlg":11885,"TimeoutError":11886,"Bitmap":11887,"INITIAL":11888,"choose":11889,"Frac":11890,"utilities":11891,"vmax":11892,"testfile":11893,"=<<<":11894,"[],'":11895,"Increment":11896,"hosting":11897,"bygroups":11898,"Design":11899,"SIMPLE":11900,"FromStr":11901,"SETUP":11902,"797":11903,"SUPPRESS":11904,">],)<":11905,"IGNORE":11906,"mugshot":11907,"!=\"":11908,"AE":11909,"Bra":11910,"TC":11911,"UNA":11912,"bright":11913,"easy":11914,"glet":11915,"kin":11916,"mro":11917,"ĠIndex":11918,"Ġwraps":11919,"uel":11920,"isatty":11921,"':'+":11922,"Ġsleep":11923,"miss":11924,"Ġemit":11925,"CTYPE":11926,"Ġ],'":11927,"Ġ],)<":11928,"VersionHandler":11929,"Ġ[:-]":11930,"presentation":11931,"Override":11932,"monitors":11933,"Fig":11934,"fx":11935,"icen":11936,"rally":11937,"DECI":11938,"Ġ['--":11939,"buy":11940,"(\"#":11941,"subcommand":11942,"SEPAR":11943,"))==<":11944,"Manifest":11945,"':[,,":11946,"\")])<":11947,"isodes":11948,"ucher":11949,"spection":11950,"Capture":11951,"natural":11952,"adapters":11953,"estimator":11954,"'):-,('":11955,"FUT":11956,"GUID":11957,"ICON":11958,"Sol":11959,"lut":11960,"usion":11961,"Ġsetting":11962,"Ġgeneric":11963,"terest":11964,"fic":11965,"toler":11966,"Ġsol":11967,"maxint":11968,"Ġ[]!='":11969,"subtitle":11970,"summar":11971,"partner":11972,"simplejson":11973,"datum":11974,"Executor":11975,"cusolver":11976,"COMMANDS":11977,"GPIO":11978,"compatibility":11979,"predicates":11980,"ValidationTestModel":11981,",[]).":11982,"tanh":11983,"Camera":11984,"Dif":11985,"Ġlocale":11986,"Ġworkflow":11987,"ĠGeneric":11988,"alker":11989,"lision":11990,"nth":11991,"assertNum":11992,"datafile":11993,"BOOT":11994,"filled":11995,"Strict":11996,"dense":11997,"sigmoid":11998,"DiGraph":11999,"Sets":12000,"ĠMO":12001,"wrt":12002,"hashed":12003,"POOL":12004,"Ġ[],'<":12005,"MPP":12006,"Ġnx":12007,"lowercase":12008,"convertFromStr":12009,"texinfo":12010,"submitted":12011,"GRAM":12012,"survey":12013,")**<":12014,"mongodb":12015,"relationships":12016,"nickname":12017,"REMOVE":12018,"Ġoriginal":12019,"ĠOperation":12020,"OTHER":12021,"connectivity":12022,"=\"\"\"\"\"\"<":12023,"iris":12024,"jection":12025,"mw":12026,"xid":12027,"Ġlang":12028,"__('":12029,"vidence":12030,"Ġ]='":12031,"pyfile":12032,"()],":12033,"aming":12034,"formance":12035,"Ġ'):<":12036,"Strategy":12037,"Diag":12038,"Ġdetail":12039,",]))<":12040,"Ġsym":12041,"Geom":12042,"ĠAuthor":12043,"desktop":12044,"maxtag":12045,"$')<":12046,"(,<":12047,"==[]<":12048,"Cod":12049,"City":12050,"Mutable":12051,"Now":12052,"PUSH":12053,"Sho":12054,"TTP":12055,"]')<":12056,"Ġwindow":12057,"story":12058,"idp":12059,"getlist":12060,"setsockopt":12061,"strong":12062,"near":12063,"==(":12064,"()==:<":12065,"Ġ[]==:<":12066,"BODY":12067,"Ġcat":12068,"ALT":12069,"Ġpip":12070,"cps":12071,"Fast":12072,"TIFF":12073,"ĠBe":12074,"composite":12075,"Ġissue":12076,"Ġblocks":12077,"Deleted":12078,",,,,,,,,,,,,,,,,,,,,,,,,,,,,,,,,,,,,,,,,,,,,,,,,,,,,,,,,,,,,,,,,,,,,,,,,,,,,,,,,,,,,,,,,,,,,,,,,,,,,,,,,,,,,,,,,,,,,,,,,,,,,,,,,,,,,,,,,,,,,,,,,,,,,,,,,,,,,,,,,,,,,,,,,,,,,,,,,,,,,,,,,,,,,,,,,,,,,,,,,,,,,,,,,,,,,,,,,,,,,,,,,,,,,,,,,,,,,,,,,,,,,,,,,,,,,,,,,,,,,,,,,,,,,,,,,,,,,,,,,,,,,,,,,,,,,,,,,,,,,,,,,,,,,,,,,,,,,,,,,,,,,,,,,,,,,,,,,,,,,,,,,,,,,,,,,,,,,,,,,,,,,,,,,,,,,,,,,,,,,,,,,,,,,,,,,,,,,,,,,,,,,,,,,,,,,,,,,,,,,,,,,,,,,,,,,,,,,,,,,,,,,,,,,,,,,,,,,,,,,,,,,,,,,,,,,,,,,,,,,,,,,,,,,,,,,,,,,,,,,,,,,,,,,,,,,":12079,"PrimaryKey":12080,"Advanced":12081,"YAML":12082,"{},<":12083,"Ġrc":12084,"Ġengine":12085,"Ġpayload":12086,"Ġdim":12087,"Ġresources":12088,"Ġsegment":12089,"deno":12090,"atleast":12091,"STC":12092,"Ġ[,],":12093,"unparse":12094,"('?":12095,"past":12096,"Ġ:])<":12097,"Ġ'_":12098,"unichr":12099,"Bounds":12100,"(-,)<":12101,"ĠFilter":12102,"Expan":12103,"chanism":12104,"sensors":12105,"integrate":12106,"*',":12107,"Fra":12108,"Tick":12109,"cand":12110,"cxx":12111,"eb":12112,"fatal":12113,"ode":12114,"vn":12115,"Ġll":12116,"Ġproperty":12117,"onenti":12118,"utt":12119,"('~":12120,"atis":12121,"procs":12122,"instanti":12123,"Indic":12124,">\"\\":12125,"\":'":12126,"solete":12127,"rective":12128,"(-,,":12129,"Ġdele":12130,"Images":12131,"greater":12132,"170":12133,"failureException":12134,"packets":12135,"clusions":12136,",{}":12137,"DUP":12138,"GING":12139,"dpid":12140,"fif":12141,"vy":12142,"Ġlabels":12143,"Ġactions":12144,"Ġurlencode":12145,"relay":12146,"deb":12147,"abe":12148,">',))<":12149,"ased":12150,"=\"\".":12151,"REPORT":12152,"LOT":12153,"failIf":12154,"Ġdatabase":12155,"),(('":12156,"THE":12157,"FOO":12158,"Codec":12159,"APIView":12160,"jsvars":12161,"mountpoint":12162,"meaning":12163,"Guide":12164,"speaker":12165,"callers":12166,"Infinity":12167,"autifulSoup":12168,":')<":12169,"Jar":12170,"SID":12171,"Spatial":12172,"VArray":12173,"_=[('":12174,"ddns":12175,"spr":12176,"Ġdelta":12177,"see":12178,"inch":12179,"onts":12180,"sth":12181,"__),<":12182,"extern":12183,"nother":12184,"']=''<":12185,"appname":12186,"Ġ+,<":12187,"Ġ+=['":12188,"Req":12189,"EOFError":12190,"Ġ:,<":12191,"nets":12192,"executions":12193,"networkx":12194,"'..":12195,"dists":12196,"Ġ[],\"":12197,"TRUE":12198,"Ġdeep":12199,"ĠNotFound":12200,"Modules":12201,"ProcessError":12202,"EnumMember":12203,"ElementsByTagName":12204,"morphic":12205,"Ġreviewboard":12206,"NaN":12207,"mistral":12208,"Echo":12209,"mnt":12210,"rq":12211,"ĠTr":12212,"',,)<":12213,"unread":12214,"('|":12215,"verts":12216,"installer":12217,"interact":12218,"Datastore":12219,"quires":12220,"singular":12221,"Chars":12222,"PROV":12223,"tifier":12224,"Submission":12225,"HEIGHT":12226,"Ġ|<":12227,"HiddenInput":12228,"trailing":12229,"dangerous":12230,"(\",\"":12231,"*')<":12232,",)))<":12233,":\"+":12234,"MAT":12235,"Margin":12236,"Slot":12237,"_=='":12238,"cdn":12239,"cPickle":12240,"don":12241,"ored":12242,"uals":12243,"wants":12244,"Ġ':'":12245,"Ġdown":12246,"Ġdocument":12247,"Ġrobot":12248,"ansi":12249,"course":12250,"___":12251,"Ġim":12252,"peg":12253,"),[])<":12254,"Ġdj":12255,"writeln":12256,"Ġrecv":12257,"SEND":12258,"elect":12259,"Vars":12260,"ForeignKeyConstraint":12261,"Membership":12262,"([,,],":12263,"GEOS":12264,"HTTPSConnection":12265,"MY":12266,"Mal":12267,"OAUTH":12268,"dce":12269,"dpi":12270,"dtypes":12271,"fan":12272,"hers":12273,"lvm":12274,"mstats":12275,"malloc":12276,"pids":12277,"ĠValidationTestModelAdmin":12278,"referer":12279,"atile":12280,"'}))<":12281,"Ġ_,":12282,"amqp":12283,"tences":12284,",\"__":12285,"usec":12286,"Ġtz":12287,"\"]==":12288,"Opener":12289,"ĠPre":12290,"controls":12291,"Percent":12292,"mited":12293,"loops":12294,"Contin":12295,"PhoneMetadata":12296,"streamer":12297,"derived":12298,"Employee":12299,"IENT":12300,"Live":12301,"][":12302,"Ġcollection":12303,"ĠDelete":12304,"cool":12305,"Ġ+['":12306,"Ġsc":12307,"ROLE":12308,"ĠPath":12309,"herit":12310,"349":12311,"toolkit":12312,"cbc":12313,"Multipart":12314,"Suc":12315,"ĠLib":12316,"keepdims":12317,"Ġtextwrap":12318,"distances":12319,"MenuItem":12320,"({'<":12321,"WARN":12322,"diagonal":12323,"PKG":12324,"\"/":12325,":\")<":12326,"ASC":12327,"Cast":12328,"MNE":12329,"Pkg":12330,"Tester":12331,"rspec":12332,"vmo":12333,"Ġcompare":12334,"ortran":12335,"getElementsByTagName":12336,"contra":12337,"concurrency":12338,"consistent":12339,"dataframe":12340,"Ġ])))<":12341,"Ġsphinx":12342,"Recipe":12343,"()})<":12344,"cacert":12345,">':(":12346,"([,],":12347,"callLater":12348,"Prote":12349,"ormbases":12350,"interaction":12351,"FileSystem":12352,"APIT":12353,"Ġ+=+":12354,"Ġrval":12355,"ĠClo":12356,">:{'":12357,"fully":12358,"Numbers":12359,"cellprofiler":12360,"cellaneous":12361,")]:<":12362,">':'',<":12363,"international":12364,"subscribed":12365,"arcrole":12366,"DATETIME":12367,"confirmation":12368,"canonic":12369,"Ġstatsmodels":12370,"telnet":12371,"43":12372,"edition":12373,"sdist":12374,"tlv":12375,"Ġedit":12376,"Ġanswer":12377,"iness":12378,"ara":12379,"__=['<":12380,"idref":12381,"exon":12382,"dient":12383,"rices":12384,"='[":12385,"verification":12386,"Ġ]}<":12387,"Inv":12388,"mins":12389,"mocks":12390,"universal":12391,"transit":12392,"329":12393,"speciali":12394,"ryu":12395,"sentences":12396,"autocommit":12397,"truediv":12398,"indicator":12399,"PAILLI":12400,")|(":12401,"moderator":12402,"Frequency":12403,"CONTAINER":12404,"IDENTIFIER":12405,"PAILLIER":12406,"GATE":12407,"Mu":12408,"Put":12409,"ij":12410,"rpython":12411,"stem":12412,"})":12413,"ĠDict":12414,"Ġwidget":12415,"Ġtrace":12416,"unc":12417,"abbit":12418,"osh":12419,"timed":12420,"matron":12421,"bolic":12422,"Station":12423,"renderers":12424,"descriptors":12425,"ĠPack":12426,"menter":12427,"BUCKET":12428,"Tagged":12429,"Allocation":12430,"ometries":12431,"hexlify":12432,"TreeNode":12433,"angles":12434,"failUnlessRaises":12435,"carrier":12436,"Analyzer":12437,"baton":12438,"behavior":12439,"CENTER":12440,"DJANGO":12441,"convertToStr":12442,"Scr":12443,"Tk":12444,"_{":12445,"east":12446,"kvm":12447,"pig":12448,"Ġpolicy":12449,"rive":12450,"setFormatter":12451,"duit":12452,"prefs":12453,"\",\"_":12454,"corner":12455,"Comments":12456,"EXIT":12457,"drv":12458,"222":12459,"svg":12460,"Ġ}}<":12461,"='.'.":12462,"HANDL":12463,"Crypto":12464,"RF":12465,"fget":12466,"jd":12467,"vatar":12468,"Ġap":12469,"Ġtrack":12470,"ĠVERSION":12471,"storm":12472,"verted":12473,"typeid":12474,"strand":12475,"\",)],<":12476,"pyobj":12477,"igible":12478,"blk":12479,"LOADER":12480,"envs":12481,"CEL":12482,"itives":12483,"ĠBytes":12484,"111":12485,"Codes":12486,"pkginfo":12487,"226":12488,"Ġswift":12489,"privatekey":12490,"referenced":12491,">}))<":12492,"Classes":12493,"HasTraits":12494,"buffers":12495,"PRINT":12496,"63":12497,"HIGH":12498,"Im":12499,"SUM":12500,"huffle":12501,"mangle":12502,"pformat":12503,"Ġlambda":12504,"Ġservices":12505,"reviews":12506,"cts":12507,"qualified":12508,"alling":12509,"libcrypto":12510,"125":12511,"cachedir":12512,"izip":12513,"optparser":12514,"Assembly":12515,"seeds":12516,"occurren":12517,"tiles":12518,"'*<":12519,"Ġxmlrpc":12520,"MEMORY":12521,"Ġhomeassistant":12522,"Friend":12523,"Hmd":12524,"Pretty":12525,"TD":12526,"]\\":12527,"kvp":12528,"ĠRun":12529,"Ġbucket":12530,"rections":12531,"inference":12532,"rounds":12533,"chi":12534,"Ġtesting":12535,"igi":12536,"dual":12537,"latency":12538,"Ġdtype":12539,"tagName":12540,"pks":12541,"USD":12542,"MASTER":12543,"Measure":12544,"poller":12545,"2015":12546,"ĠBlock":12547,"twisted":12548,"Ġswitch":12549,"OneToOneField":12550,"Made":12551,"virtualenv":12552,"Ġ+'/'+":12553,"TLV":12554,"RANGES":12555,"CRYP":12556,"Clause":12557,"DECIMAL":12558,"atisfi":12559,")><":12560,",(<":12561,"=(,),<":12562,"dut":12563,"epi":12564,"xdata":12565,"ĠNew":12566,"ĠDomain":12567,"debian":12568,"ervice":12569,"intf":12570,"timeit":12571,"())]<":12572,"Ġ[]==<":12573,"groupby":12574,"traces":12575,"signup":12576,"debugging":12577,"merchant":12578,"modifier":12579,"EXPE":12580,"TEMPLATES":12581,"ĠNull":12582,"labeled":12583,"Miscellaneous":12584,"Packages":12585,"ĠArti":12586,"association":12587,"Destroy":12588,"equation":12589,"Ġnamedtuple":12590,"fordance":12591,"atexit":12592,"-'+":12593,"HDF":12594,"Horizontal":12595,"jip":12596,"kargs":12597,"Ġbuffer":12598,"Ġprotocol":12599,"Ġloader":12600,"inmap":12601,"Ġimpl":12602,"Trip":12603,"strat":12604,"attrgetter":12605,"compact":12606,"calib":12607,"Ġpk":12608,"linker":12609,"phys":12610,"\"][]":12611,"Union":12612,"AMF":12613,"ĠRel":12614,"Ġprevious":12615,"Writ":12616,"costs":12617,"mmutable":12618,"microseconds":12619,"accumulator":12620,"primitives":12621,"Ġrobo":12622,"ComparisonTest":12623,"_(,":12624,"dvr":12625,"mate":12626,"pitch":12627,"uu":12628,"ĠString":12629,"Ġarguments":12630,"ĠStream":12631,"urwid":12632,"envelope":12633,"colon":12634,"preprocess":12635,"REAS":12636,"ATT":12637,"Ġds":12638,"Stre":12639,"Ġ-))<":12640,"correlation":12641,"imize":12642,"FileField":12643,"sympy":12644,"showIndent":12645,"selectors":12646,"contribute":12647,"Positioner":12648,"=*<":12649,"ĠUnknown":12650,"metering":12651,"Dense":12652,"',,-)]]),('_":12653,"interpolate":12654,"smooth":12655,"ovrHmd":12656,"Ġbranch":12657,"ervices":12658,"/.":12659,"WD":12660,"_()<":12661,"bm":12662,"icontains":12663,"mip":12664,"tier":12665,"ategories":12666,"pedia":12667,"('../":12668,"')[].":12669,"==\"\":<":12670,"ĠClass":12671,"MAG":12672,"continuous":12673,"webpage":12674,"multiplier":12675,"illing":12676,"PIX":12677,"Aspect":12678,"ĠRead":12679,"Sym":12680,"separators":12681,"Binding":12682,"MULTIP":12683,"ABCMeta":12684,"xlsx":12685,"assertNumQueries":12686,"vmops":12687,"HH":12688,"LAR":12689,"bul":12690,"hsm":12691,"ji":12692,"Ġnu":12693,"ĠVersion":12694,"alink":12695,"elts":12696,"nowait":12697,"setAttribute":12698,"eting":12699,"Ġ+])<":12700,"Ġfmt":12701,"Ġcor":12702,"Resolution":12703,"intersect":12704,"refcount":12705,"FIC":12706,"ĠItem":12707,"ClientError":12708,"NewId":12709,"Ġimages":12710,"lifecycle":12711,"Ġtrac":12712,"Scaling":12713,"PUBLIC":12714,"Threshold":12715,"({},":12716,"NEXT":12717,"acls":12718,"ncol":12719,"('&":12720,"']*":12721,"outgoing":12722,"(,).":12723,"LOOK":12724,"Ġrx":12725,"sphere":12726,"countries":12727,"Ġ**)<":12728,"ĠLa":12729,"Ship":12730,"Ġsymbol":12731,"subtypeSpec":12732,"Tensor":12733,"equivalent":12734,"??":12735,"Game":12736,"PING":12737,"Scheme":12738,"ufo":12739,"Ġdep":12740,"ori":12741,"eros":12742,"ely":12743,"__'":12744,"cker":12745,"datacenter":12746,"Ġslug":12747,"nodeIdentifier":12748,"Ġ[]]=":12749,"([]))<":12750,"reddit":12751,"DataList":12752,"ĠMerge":12753,"Factors":12754,"URLField":12755,"Asset":12756,"triggered":12757,"SIGN":12758,"Edges":12759,"abstractions":12760,"REFER":12761,"adapt":12762,"BLACK":12763,"Partition":12764,"CHANNEL":12765,"Deriv":12766,"Aff":12767,"Anonymous":12768,"Roll":12769,"Span":12770,"bisect":12771,"iser":12772,"rub":12773,"spar":12774,"Ġtensor":12775,"INV":12776,"oracle":12777,"attack":12778,"peers":12779,"rescue":12780,"='{}":12781,"']!='":12782,"viz":12783,"Expect":12784,"subsample":12785,"Ġreader":12786,"Ġfinal":12787,"Ġcc":12788,"SECTION":12789,"luigi":12790,"\":\"\",<":12791,"sky":12792,"Ġmask":12793,"Ġale":12794,"ResourceOwnerAccount":12795,"Ġlxml":12796,"SCREEN":12797,"implementation":12798,"NetworkX":12799,"brain":12800,"lvl":12801,"ĠPerson":12802,"ĠAuthenti":12803,".'+":12804,"Audit":12805,"DROP":12806,"Java":12807,"LB":12808,"gather":12809,"lg":12810,"vd":12811,"}))<":12812,"sens":12813,"vest":12814,"Ġslice":12815,"createElement":12816,"subplots":12817,"joins":12818,"Ġregex":12819,"ĠSQL":12820,"Combo":12821,"Ġavailable":12822,"Ġnon":12823,"804":12824,"aggregation":12825,"stores":12826,"evaluator":12827,"SCALE":12828,"EXISTS":12829,"ElemNumber":12830,"thickness":12831,"nonlinearity":12832,"DOCUMENT":12833,"SEPARATOR":12834,"/\")<":12835,"Rank":12836,"oS":12837,"oi":12838,"vul":12839,"ĠInstance":12840,"Ġtrait":12841,"intent":12842,"ona":12843,"laci":12844,"tape":12845,"writeString":12846,"mbic":12847,"Ġtar":12848,"PEG":12849,"Ġkeyword":12850,"psp":12851,"websocket":12852,"Ġwatch":12853,"__,',":12854,"svd":12855,"backups":12856,"gaussian":12857,"ĠPyQt":12858,"ĠPermissionDenied":12859,"Ġsqlite":12860,"PLATFORM":12861,"\"')<":12862,")\"<":12863,"dts":12864,"ku":12865,"ĠCh":12866,"ĠOptionParser":12867,"reach":12868,"altitude":12869,"notice":12870,"isco":12871,"shel":12872,"matrices":12873,"Ġscore":12874,",'',":12875,"maxDiff":12876,"())+":12877,"readString":12878,"mini":12879,"maining":12880,"Ġorg":12881,"streaming":12882,"Texture":12883,"TextTestRunner":12884,"thetype":12885,"Grant":12886,"Checked":12887,"feeds":12888,"(\"/\")<":12889,"floatingip":12890,"BITS":12891,"SCHEME":12892,"movies":12893,"Predictions":12894,"RETURN":12895,"\"),(":12896,"marg":12897,"smb":12898,"xr":12899,"asize":12900,"ceipt":12901,"'][:":12902,"Ġ+_":12903,"appendChild":12904,"autop":12905,"Ġdriver":12906,"checkbox":12907,"disposition":12908,"Strip":12909,"Ġps":12910,"extends":12911,"genes":12912,"chunksize":12913,"Filters":12914,"Ġconfiguration":12915,"fitted":12916,"freezer":12917,"revisions":12918,"9026":12919,"7069":12920,"tarball":12921,"clipboard":12922,"LICATION":12923,"Ġ+\"/\"+":12924,"Finished":12925,"eigen":12926,"PROGRESS":12927,"Gaussian":12928,"Nd":12929,"fred":12930,"ipe":12931,"ipython":12932,"ology":12933,"sas":12934,"tmin":12935,"Ġui":12936,"asser":12937,"ended":12938,"exempt":12939,"ligh":12940,"motor":12941,"),**":12942,"etcd":12943,"neur":12944,"())[]<":12945,"dupe":12946,"Ġdif":12947,"apikey":12948,"ĠSto":12949,"Eng":12950,"Ġvt":12951,"webapi":12952,"TAIL":12953,"planes":12954,"COLLE":12955,"Ġ&=":12956,"dimshuffle":12957,"inherited":12958,"Synchron":12959,"opaque":12960,"Cls":12961,"IFT":12962,"aware":12963,"xm":12964,"Ġetree":12965,"relev":12966,"amel":12967,"paused":12968,"pocket":12969,"()._":12970,"Fire":12971,"omit":12972,"servicechain":12973,"arness":12974,"ROUND":12975,"Ġbra":12976,"(,),)<":12977,"Configur":12978,"115":12979,"8080":12980,"SAVE":12981,"aaa":12982,"Completion":12983,"Ġsalttesting":12984,"truncated":12985,"VirtualMachine":12986,"similar":12987,"SECURE":12988,"ambda":12989,"loseConnection":12990,"BD":12991,"ODS":12992,"Qui":12993,"Raster":12994,"^\\":12995,"clic":12996,"hunk":12997,"pct":12998,"Ġdependency":12999,"Ġcalculate":13000,"aste":13001,"ameter":13002,"',{}":13003,"apse":13004,"busy":13005,"computed":13006,"curs":13007,"Ġfont":13008,"Ġasync":13009,"={})<":13010,"COORD":13011,"BaseHandler":13012,"Ġep":13013,"Enter":13014,"izable":13015,"Ġrpc":13016,"109":13017,"facets":13018,"':\"'[]":13019,"8601":13020,"()+'<":13021,"fraction":13022,"ObjId":13023,"dashboards":13024,"SHARED":13025,"Traceback":13026,"saltenv":13027,"SECONDS":13028,"classic":13029,"'')<":13030,"Img":13031,"Late":13032,"ctive":13033,"gif":13034,"hbase":13035,"lxc":13036,"nda":13037,"uname":13038,"xb":13039,"Ġlo":13040,"ĠStorage":13041,"Ġbuiltins":13042,"urs":13043,"',),)<":13044,"getDao":13045,"clt":13046,"fromlist":13047,"notation":13048,"==:":13049,"objectType":13050,"minidom":13051,"starttime":13052,"baseurl":13053,"Notify":13054,">[(,,":13055,"Ġgc":13056,"ootype":13057,"Ġafter":13058,"Ġnltk":13059,"Buf":13060,"itories":13061,"EXTRA":13062,"LOGGING":13063,"Structured":13064,"rvs":13065,"Behavi":13066,"ĠEmail":13067,"retrieved":13068,"Ġframework":13069,"azim":13070,"ADMINS":13071,"Share":13072,">',,-":13073,"Sender":13074,"confidence":13075,"NOTIFY":13076,"estimators":13077,"IMPORT":13078,"Another":13079,"Gyp":13080,"Pseudo":13081,"Tlv":13082,"dbo":13083,"juris":13084,"kappa":13085,"rint":13086,"Ġ;":13087,"Ġunique":13088,"Ġtimestamp":13089,"Ġprovider":13090,"ĠAddress":13091,"Ġtyp":13092,"onmouse":13093,">'(":13094,"cosh":13095,"rescale":13096,"nothing":13097,"foreground":13098,"permanent":13099,"care":13100,"luon":13101,"UserDict":13102,"sendall":13103,"simplefilter":13104,"SKIP":13105,"Modal":13106,"tiny":13107,"Ġinterface":13108,"ENABLE":13109,"Blueprint":13110,"SHOLD":13111,"DOTALL":13112,"archives":13113,"isolated":13114,"Attachment":13115,"Bootstrap":13116,"REASON":13117,")',<":13118,"-]":13119,"71":13120,"BG":13121,"Cr":13122,"DH":13123,"DLayer":13124,"Etc":13125,"Wizard":13126,"gpio":13127,"vrf":13128,"wel":13129,"Ġcollect":13130,"exposure":13131,"unbound":13132,"\",),<":13133,"prs":13134,"Experi":13135,"tilt":13136,">\"_":13137,"numFeatures":13138,"Ġ'',<":13139,"dispose":13140,"Locale":13141,"pider":13142,"(,,):<":13143,"FORMS":13144,"SERIAL":13145,"WORDS":13146,"consumers":13147,"bios":13148,"HEADERS":13149,"mobber":13150,"extendedVersionHandler":13151,"asyncore":13152,"Secret":13153,"zookeeper":13154,"DEPTH":13155,"wildcard":13156,"Absolute":13157,"Coding":13158,"Alert":13159,"bk":13160,"gmtime":13161,"sses":13162,"ĠMo":13163,"Ġfail":13164,"Ġproperties":13165,"Ġoprot":13166,"reraise":13167,"filePath":13168,"isy":13169,"strument":13170,"(\"\",":13171,"persist":13172,"persistence":13173,"TestMixin":13174,"subclasses":13175,"ATI":13176,"Ġ'')<":13177,"=='.":13178,"Ġfolder":13179,"LET":13180,"dav":13181,"Look":13182,"loggers":13183,"toplevel":13184,"rolled":13185,"Ġkaresansui":13186,"Ġexpect":13187,"bitdepth":13188,"Ġiterable":13189,"expressions":13190,"allocated":13191,"Attrs":13192,"underline":13193,">-:'<":13194,"wells":13195,"numerator":13196,"invite":13197,".',<":13198,"BRO":13199,"DST":13200,"Daemon":13201,"Eq":13202,"Plain":13203,"dap":13204,"eig":13205,"ham":13206,"lda":13207,"ĠCase":13208,"Ġiprot":13209,",,]<":13210,"objec":13211,"importlib":13212,"BOARD":13213,"reading":13214,"minimal":13215,"startTime":13216,"community":13217,"Ġrequired":13218,"Ġfs":13219,"daily":13220,"DataStore":13221,"childs":13222,"Lists":13223,"(,,_":13224,">']))<":13225,"Subtensor":13226,")]+":13227,"organ":13228,"Ġretry":13229,"MethodType":13230,"Ġzope":13231,"DASH":13232,"trunc":13233,"daoList":13234,"MIDI":13235,"MovedModule":13236,"WINDOWS":13237,"Balance":13238,"nowledge":13239,"RESERVED":13240,"270":13241,"Using":13242,"YE":13243,"Ġpoint":13244,"Ġmon":13245,"Ġprompt":13246,"geometries":13247,"thunk":13248,"opname":13249,"urlsplit":13250,"calar":13251,"')!=":13252,"Ġ-)*":13253,"httpd":13254,"Ġbest":13255,"ĠAuto":13256,"stacks":13257,"Words":13258,"mktemp":13259,"permalink":13260,"Updated":13261,"Weak":13262,"Floating":13263,"AUTHOR":13264,"ĠHy":13265,"FORMATS":13266,"Deli":13267,")&<":13268,"mixer":13269,"attribOnmouse":13270,"LICEN":13271,"Black":13272,"bvl":13273,"dz":13274,"dro":13275,"fonts":13276,"ĠTo":13277,"DES":13278,"ida":13279,"','..":13280,"pardir":13281,"plur":13282,"amma":13283,"')})<":13284,"ROUT":13285,"POS":13286,"Ġgcloud":13287,"ObjectId":13288,"graphics":13289,"vocation":13290,"Ġtimedelta":13291,"Shift":13292,"learner":13293,"predicted":13294,"Abort":13295,"Termin":13296,"friendly":13297,"Integration":13298,"THRESHOLD":13299,"pocketMaterials":13300,"CReadable":13301,"Epoch":13302,"FREE":13303,"GG":13304,"Mob":13305,"TMessageType":13306,"UST":13307,"Ġac":13308,"Ġax":13309,"ĠContent":13310,"Ġbuilder":13311,"Ġryu":13312,"oname":13313,"tide":13314,"adm":13315,"isabs":13316,"']={}<":13317,"']]=":13318,"ilation":13319,"quested":13320,"sharing":13321,"configfile":13322,"Ġcrypto":13323,"picture":13324,"LOY":13325,"ModelObject":13326,"itsune":13327,"1044":13328,"Ġkitsune":13329,"Columns":13330,"multiply":13331,"2048":13332,"swagger":13333,"grain":13334,"intervals":13335,"='/'<":13336,"Stock":13337,"Ġfilenames":13338,"Attrib":13339,"recursion":13340,"spectrum":13341,"COLORS":13342,"CREATED":13343,"DIRECTORY":13344,"Facebook":13345,"Ġcellprofiler":13346,"OpenStackCloud":13347,"STAMP":13348,"asizeof":13349,"CReadableTransport":13350,"289":13351,">('":13352,"Age":13353,"Cart":13354,"FAL":13355,"MIC":13356,"ZIP":13357,"[\\":13358,"pnt":13359,"ĠCode":13360,"Ġshort":13361,"Ġfactor":13362,"Ġworker":13363,"ĠNe":13364,"ĠProfile":13365,"reward":13366,"rejected":13367,"assis":13368,"pets":13369,",,'<":13370,"testapp":13371,"testutils":13372,"upd":13373,"','\\\\":13374,"versioned":13375,"Ġ][:":13376,"Reservation":13377,"facade":13378,"(,)])<":13379,"subparser":13380,"']==<":13381,"ĠSh":13382,"FIXT":13383,"(*[":13384,"\"%(<":13385,"modification":13386,"Uploaded":13387,"Ġgot":13388,"TRACK":13389,"403":13390,"1145":13391,"Ġhist":13392,"ASSET":13393,"BlockRange":13394,"Ġsync":13395,"Rename":13396,">'],)<":13397,"GROUND":13398,"writeFieldStop":13399,"Metrics":13400,"silently":13401,"readFieldEnd":13402,"readFieldBegin":13403,"readStructEnd":13404,"readStructBegin":13405,"writeStructEnd":13406,"writeStructBegin":13407,"DISABLED":13408,"FIXTURE":13409,"PLAY":13410,"Tx":13411,"kr":13412,"psi":13413,"uv":13414,"vhd":13415,"Ġ5":13416,"instring":13417,"STD":13418,"('',<":13419,"moving":13420,"fromkeys":13421,"Ġinvalid":13422,"agenda":13423,"formdata":13424,"Ġredis":13425,"Statistics":13426,"corder":13427,"Nova":13428,"ListField":13429,"Unsupported":13430,"MockHttp":13431,"Company":13432,"Creator":13433,"2016":13434,"TIES":13435,"replication":13436,"Ġ**,":13437,"APPLICATION":13438,"Axes":13439,"UNIX":13440,"Destination":13441,"VERTICAL":13442,"MIXER":13443,"ĠBytesIO":13444,"EXPECTED":13445,"466":13446,"Cuda":13447,"aas":13448,"bage":13449,"cz":13450,"lh":13451,"Ġ}),<":13452,"Ġthreads":13453,"Ġmpf":13454,"uess":13455,"elastic":13456,"conduit":13457,"']=\"":13458,"illi":13459,"cursive":13460,"\",\"%":13461,"beros":13462,"ĠSSL":13463,"COVER":13464,"Ġ%'":13465,"closest":13466,"Ġbla":13467,"Under":13468,"Docs":13469,"TextCommand":13470,"Ġdataset":13471,"decryp":13472,"Present":13473,"radi":13474,"ramdisk":13475,"745":13476,"ĠIntegr":13477,"mutation":13478,"Twitter":13479,"blacklist":13480,"feats":13481,"ĠSearch":13482,"ĠMedia":13483,"Coordin":13484,"Ġlino":13485,"above":13486,"Paginator":13487,"ONT":13488,"WF":13489,"ea":13490,"gv":13491,"gcc":13492,"qi":13493,"ĠPro":13494,"Ġright":13495,"ĠProxy":13496,"Ġcompat":13497,"lometer":13498,"ets":13499,"=[,,,]<":13500,"taken":13501,"pores":13502,"__():<":13503,"dust":13504,"prece":13505,"linesep":13506,"']=='<":13507,"splitter":13508,"StringType":13509,"121":13510,"serviceobj":13511,"Ġ>=<":13512,"mismatch":13513,"specification":13514,"market":13515,"Orth":13516,"ĠBar":13517,"ceilometer":13518,"Ġcondition":13519,"Ġpredi":13520,"Ġ}):<":13521,"Workspace":13522,"tkinter":13523,"adjusted":13524,"Producing":13525,"gauss":13526,"PROPERTIES":13527,"elevation":13528,"sympify":13529,"onential":13530,"-\"+":13531,"876":13532,"=,**":13533,"Bcfg":13534,"aur":13535,"cStringIO":13536,"iq":13537,"ico":13538,"oa":13539,"Ġposition":13540,"ĠInput":13541,"Ġchanged":13542,"ĠHTML":13543,"DEL":13544,"obsolete":13545,"lend":13546,"outbox":13547,"tender":13548,"([-":13549,"mocker":13550,"checkers":13551,"GetService":13552,"Ġ!=-:<":13553,"fragments":13554,"aggregated":13555,"dnstr":13556,",],[,,":13557,"LoadBal":13558,"CANT":13559,"transformed":13560,"NegativeFlag":13561,"Ġrdflib":13562,"sticky":13563,"RIBBO":13564,"Indicator":13565,"7100":13566,"FAT":13567,"Migr":13568,"aval":13569,"iven":13570,"rkey":13571,"trend":13572,"Ġfa":13573,"ĠParser":13574,"Ġpair":13575,"Ġproto":13576,"Ġmongo":13577,"lead":13578,"STAR":13579,"cobj":13580,"opponent":13581,"abbr":13582,"tos":13583,"classdef":13584,"']}":13585,"osort":13586,"outf":13587,"bogus":13588,"signing":13589,"ACTER":13590,"stripped":13591,"IOLoop":13592,"aves":13593,"ĠRemote":13594,"996":13595,"tarfile":13596,"Corr":13597,"FUNC":13598,"Ġmigrations":13599,"CommCareCase":13600,"ĠProtocolError":13601,"!'<":13602,";')<":13603,">}),<":13604,"hosted":13605,"nis":13606,"pvals":13607,"slic":13608,"wmsg":13609,"Ġfun":13610,"Ġstderr":13611,"ĠLine":13612,"ĠFunction":13613,"ĠJob":13614,"Ġenum":13615,"former":13616,"terse":13617,"uploader":13618,"(\"'":13619,"bots":13620,"Concept":13621,"Contour":13622,"newdata":13623,"angular":13624,"Ġ:{'":13625,"Ġflavor":13626,"(),[])<":13627,"Optimizer":13628,"GetValue":13629,"DIV":13630,"structures":13631,"ĠTi":13632,"rtd":13633,"TAB":13634,"navi":13635,"Registered":13636,"Ġzipfile":13637,"seasonal":13638,"PublicKey":13639,"principal":13640,"'\"%":13641,"PG":13642,"Speed":13643,"cance":13644,"cators":13645,"gies":13646,"king":13647,"Ġpar":13648,"Ġalign":13649,"sex":13650,"roc":13651,"sics":13652,"REPE":13653,"sums":13654,"SEP":13655,"Directive":13656,"Ġtab":13657,"coreapi":13658,">[-":13659,"savefig":13660,"Ġgluon":13661,"barDs":13662,"Ġaff":13663,"flowError":13664,"ĠFloat":13665,"mktime":13666,"acency":13667,"ĠHas":13668,"cripts":13669,"follows":13670,"Ġzlib":13671,"DELETED":13672,"METHODS":13673,"Ġfinish":13674,"([,]))<":13675,"mnist":13676,"futures":13677,"@%":13678,"Cycle":13679,"EVAL":13680,"gae":13681,"grouped":13682,"ntry":13683,"rfile":13684,"Ġhe":13685,"ĠChange":13686,"stable":13687,"asin":13688,"rogate":13689,"abgp":13690,"dbm":13691,"BOOLE":13692,"omorph":13693,"ONENT":13694,"denied":13695,"ALER":13696,"FileHandler":13697,"copyfile":13698,"ircle":13699,"Seconds":13700,"IPNetwork":13701,"ĠDX":13702,"':[('":13703,"Tasks":13704,"glue":13705,"bitrate":13706,"Ġstar":13707,"Ġ[:-],":13708,"847":13709,"Hosts":13710,"SYNC":13711,"Ġcouch":13712,"Ġshutdown":13713,"Ġfeed":13714,"mutate":13715,"accepts":13716,"Orient":13717,"Tenant":13718,"FINI":13719,"turtle":13720,"permitted":13721,"estimated":13722,"AU":13723,"BUS":13724,"DN":13725,"Large":13726,"Pl":13727,"TREE":13728,"Wave":13729,"bis":13730,"Ġarr":13731,"Ġentries":13732,"ĠLocation":13733,"inten":13734,"oring":13735,"ifile":13736,"diter":13737,"assertLess":13738,"timeseries":13739,"tailed":13740,"Retr":13741,"preds":13742,"cafe":13743,">':('":13744,"Resolve":13745,"SEQU":13746,"']=(":13747,"interrupt":13748,"ModelPredictions":13749,"Ġ>)<":13750,"UserProfile":13751,"SetValue":13752,"placement":13753,"continuation":13754,",_,_":13755,"Viewer":13756,"HTTPException":13757,"Ġaw":13758,"attribId":13759,"webhook":13760,"Descr":13761,"Ġ+\"_":13762,"ĠRest":13763,"TemplateSyntaxError":13764,"TIMESTAMP":13765,"[,,])<":13766,"CHARACTER":13767,"trials":13768,"NCY":13769,"smoke":13770,"Gradient":13771,"icense":13772,"FR":13773,"KIT":13774,"_'):<":13775,"fancy":13776,"gce":13777,"Ġtp":13778,"ĠProduct":13779,"redo":13780,">'),'":13781,"lem":13782,"limited":13783,"Refs":13784,"Ġ[]>=":13785,"(,)]<":13786,"Ġfh":13787,"ĠSocket":13788,"644":13789,"RequestFactory":13790,"Ġpytz":13791,"ĠCall":13792,"Ġretri":13793,">'),**":13794,"olymp":13795,"AUTHORIZ":13796,"simrun":13797,"Identical":13798,"SMB":13799,"Targets":13800,"Dependent":13801,"coordinate":13802,"injector":13803,"identification":13804,"REPLY":13805,"QUOTA":13806,"TIFFTAG":13807,"/(":13808,"QLabel":13809,"but":13810,"vbd":13811,"Ġnt":13812,"Ġauthor":13813,"ĠColumn":13814,"Ġjs":13815,"Ġapps":13816,"ĠDefault":13817,"Ġdisable":13818,"stg":13819,"TestScheduler":13820,"computation":13821,"basepath":13822,"\":_":13823,"loadbalancer":13824,"ORIG":13825,"signer":13826,"DataError":13827,"binascii":13828,"102":13829,"Sequen":13830,"vox":13831,"MOVE":13832,"KEYWORD":13833,"Perm":13834,"Translate":13835,"FORA":13836,"Checkbox":13837,"ELLOW":13838,"Existing":13839,"Ġ[:-]+":13840,"Ġdimagi":13841,"themes":13842,"XmlMapped":13843,"Ġcocos":13844,"rospy":13845,"ZeroFlag":13846,"PositiveFlag":13847,"Evaluator":13848,"CannotContainNegativeFlag":13849,"CannotContainZeroFlag":13850,"CannotContainPositiveFlag":13851,"heapq":13852,"UNITS":13853,"bslpdu":13854,"Poller":13855,"Separator":13856,"tolerance":13857,"FALSE":13858,"XmlMappedEnumMember":13859,"\"==":13860,"\")+":13861,"Bag":13862,"ials":13863,"pz":13864,"rdtype":13865,"sque":13866,"winfo":13867,"ĠOrder":13868,"INCLUDE":13869,"mpo":13870,"cow":13871,"getValue":13872,"nobody":13873,"divide":13874,"setopt":13875,"tarea":13876,"Ġsingle":13877,"submodule":13878,"Ġrep":13879,"StringObjectPropertyType":13880,"GEST":13881,"Cols":13882,"ToSt":13883,"employ":13884,"ĠPa":13885,"Forum":13886,"replaced":13887,">']='<":13888,"LIG":13889,"overall":13890,"skipif":13891,"This":13892,"3018":13893,"sockname":13894,")].":13895,"ciphers":13896,"singleton":13897,"COMPONENT":13898,"Ġdoctest":13899,"CFG":13900,"Denver":13901,"Restore":13902,"}/{":13903,"Activation":13904,"azimuth":13905,"456":13906,"IZE":13907,"Pie":13908,"hl":13909,"Ġcomplete":13910,"Ġhosts":13911,"Ġcommands":13912,"Ġhelpers":13913,"stors":13914,"arri":13915,"asp":13916,"asing":13917,"':'.":13918,"']:":13919,"Inverse":13920,"Ġ[][].":13921,"readcr":13922,"acted":13923,"Ġdrop":13924,"querystring":13925,"')}<":13926,"')[:":13927,"posable":13928,"epub":13929,"GetAdditional":13930,"Compiled":13931,"PathSpec":13932,"ĠDjango":13933,"ĠBack":13934,"Subst":13935,"Ġtimezone":13936,"TOM":13937,"Ġnotify":13938,"Dispatch":13939,"decorate":13940,"SYM":13941,"personal":13942,"Joint":13943,"ByteSize":13944,"((,,))<":13945,"PHONE":13946,"Markup":13947,"denominator":13948,"%%":13949,"+')<":13950,"/\"<":13951,"Btn":13952,"Prec":13953,"Rational":13954,"Sparse":13955,"YELLOW":13956,"afi":13957,"agroup":13958,"dset":13959,"dos":13960,"efficient":13961,"jt":13962,"jpeg":13963,"uck":13964,"vary":13965,"west":13966,"Ġjobs":13967,"Ġthrift":13968,"revoke":13969,"intron":13970,"ortion":13971,"allet":13972,"nop":13973,"throttle":13974,",,,)<":13975,"setEnabled":13976,"=[_":13977,"paging":13978,"shards":13979,"Ġ+(\"":13980,"collision":13981,"modelObject":13982,"saas":13983,"writes":13984,"dsk":13985,"mbid":13986,"Ġ\"*":13987,"lags":13988,"Unchecked":13989,"648":13990,"\":\"+":13991,"menus":13992,"LIBR":13993,"selectable":13994,"EXTER":13995,"URLS":13996,"nonexistent":13997,"QtWidgets":13998,"Ġlfs":13999,"variation":14000,"00000":14001,"jail":14002,"hdrs":14003,"firmware":14004,"Ġdocutils":14005,"memoize":14006,"Ġinputs":14007,"SCAPE":14008,"Variant":14009,"throat":14010,"olympia":14011,"EXTERNAL":14012,"234":14013,"224":14014,"Wire":14015,"browse":14016,"fwd":14017,"gad":14018,"km":14019,"mang":14020,"padded":14021,"sreg":14022,"utime":14023,"Ġcontrol":14024,"Ġaccept":14025,"Ġtranslate":14026,"Ġtake":14027,"study":14028,"sibility":14029,"macs":14030,"issubclass":14031,"appable":14032,"plates":14033,"Exchange":14034,"\":},<":14035,"([]),":14036,">_('":14037,"Ġcv":14038,"Ġcancel":14039,"handling":14040,"Ġbii":14041,"species":14042,"Ensure":14043,"Ġpyface":14044,"ĠClear":14045,"URLError":14046,"ServiceError":14047,"ĠFound":14048,"consumed":14049,"builders":14050,"Ġunify":14051,"following":14052,"pipes":14053,"Planner":14054,"IFY":14055,"=[]*":14056,"balanced":14057,"HelpFormatter":14058,"ĠTemplateSyntaxError":14059,"TabularInline":14060,"),(,,),(,,),(,,),(,,":14061,"WBEMSTATUS":14062,"IgnoreArg":14063,"+(":14064,"Hdr":14065,"KER":14066,"QWidget":14067,"QMessageBox":14068,"RATION":14069,"Sql":14070,"]'<":14071,"bag":14072,"cisco":14073,"dq":14074,"dfa":14075,"dps":14076,"eze":14077,"tage":14078,"Ġask":14079,"Ġdeploy":14080,"Ġshell":14081,"Ġgeo":14082,"tets":14083,"mend":14084,"ITER":14085,"gebra":14086,"five":14087,"('</":14088,"']],<":14089,"'][])<":14090,"shlex":14091,"'}},<":14092,"=\"\")<":14093,"(,+":14094,"subpath":14095,"jsonify":14096,"toposort":14097,"collected":14098,"arer":14099,"Ġ[-:":14100,"componentType":14101,"309":14102,"centro":14103,"individ":14104,"deliver":14105,"Regexp":14106,"Ġinstances":14107,"COMMON":14108,"triggers":14109,"Engineer":14110,"buffered":14111,"',,,'":14112,"Dimensions":14113,"ĠUnicodeDecodeError":14114,"REGISTR":14115,"siblings":14116,"Equation":14117,"BOOLEAN":14118,"Ġbiicode":14119,"Cri":14120,"SZ":14121,"TX":14122,"Vec":14123,"]).":14124,"bx":14125,"bcc":14126,"fre":14127,"fuse":14128,"iel":14129,"nbytes":14130,"yo":14131,"Ġdescribe":14132,"Ġolympia":14133,"ife":14134,"gets":14135,"exif":14136,"testvars":14137,"isson":14138,"outube":14139,"()[-]<":14140,"(,)]":14141,"Ġgetopt":14142,"parseString":14143,"Ġcy":14144,"Ġassign":14145,"posted":14146,"matchers":14147,"BaseModel":14148,"lua":14149,"ĠAsync":14150,"imen":14151,"findAll":14152,"cursors":14153,"254":14154,"PATCH":14155,"Preference":14156,")-:<":14157,"securitygroup":14158,"173":14159,"Ġ&<":14160,"Ġdirection":14161,"849":14162,"gbp":14163,"DUMP":14164,"StyleName":14165,"Minimum":14166,"emr":14167,"Ġmoz":14168,"Ġbinary":14169,"Ġbinascii":14170,"CATEG":14171,"contribution":14172,"/',<":14173,"Emitter":14174,"Hard":14175,"KVM":14176,"doll":14177,"lw":14178,"mne":14179,"vv":14180,"Ġround":14181,"Ġfacts":14182,"redu":14183,"injected":14184,"ora":14185,"anh":14186,"':(,),'":14187,"appers":14188,"cepts":14189,"ĠtestGet":14190,"folio":14191,"userinfo":14192,"Inbox":14193,"pretend":14194,"phl":14195,"Ġbits":14196,"ĠMin":14197,"ledger":14198,"Fora":14199,"Compile":14200,"transcript":14201,"Ġwt":14202,"augment":14203,"boost":14204,"WebSocket":14205,"passive":14206,"compound":14207,"','_')<":14208,"ACTIV":14209,"FEATURE":14210,"Popup":14211,"VARIABLE":14212,"Catalog":14213,"715":14214,"Avg":14215,"QP":14216,"XForm":14217,"]{":14218,"aces":14219,"fld":14220,"lgroup":14221,"south":14222,"}')<":14223,"Ġpo":14224,"ĠHost":14225,"reserve":14226,"cocos":14227,"exts":14228,"='__":14229,"',''),<":14230,"chef":14231,"Removed":14232,"REVER":14233,"Ġrecords":14234,"workbench":14235,"ginx":14236,"tagSet":14237,"populated":14238,"sorting":14239,"monthly":14240,"Ġdic":14241,"Neigh":14242,"SSLError":14243,"OBJ":14244,"SIGINT":14245,"=*(":14246,"Ġtasks":14247,"slivers":14248,"combinations":14249,"inotify":14250,"Messa":14251,"Ġsummary":14252,"derivative":14253,"restricted":14254,"GOOG":14255,"(\",\")<":14256,"ĠDistutils":14257,"SINGLE":14258,"potential":14259,"TaggedItem":14260,"+*":14261,"Audio":14262,"NG":14263,"Tor":14264,"YES":14265,"ah":14266,"agraph":14267,"hol":14268,"iam":14269,"nbr":14270,"vb":14271,"vable":14272,"Ġdef":14273,"ĠOptions":14274,"ĠTransaction":14275,"rebase":14276,"raid":14277,"yscale":14278,"damage":14279,"immediate":14280,"Dev":14281,"epg":14282,"ParserTestCase":14283,"ProtocolMessage":14284,"bitcoin":14285,"OpenID":14286,"decorated":14287,"Ġsyn":14288,"]+',":14289,"limiter":14290,"copied":14291,"Docker":14292,"archived":14293,"VARIANT":14294,"LARGE":14295,")(<":14296,"KB":14297,"Physical":14298,"bble":14299,"cw":14300,"wik":14301,"ĠEntity":14302,"renamed":14303,"urandom":14304,"ameleon":14305,"',),(":14306,">',(('":14307,",'--":14308,"())),":14309,"BOUND":14310,"Ġcard":14311,"')),(":14312,"dented":14313,"lockfile":14314,"ĠSign":14315,"superclass":14316,"Ġbundle":14317,"bars":14318,"ĠPub":14319,"downloaded":14320,"structor":14321,"Manual":14322,"EXPER":14323,"MODI":14324,"PRODU":14325,"Interceptor":14326,"forced":14327,"audi":14328,"1554":14329,"chains":14330,"ĠCommandExecutionError":14331,"VARCHAR":14332,"Artifact":14333,"chronos":14334,"atistic":14335,"wavelet":14336,"crawler":14337,"Ġidentifier":14338,"CANCEL":14339,"Quick":14340,"219":14341,"822":14342,"Ast":14343,"HIST":14344,"kWindow":14345,"rscript":14346,"sun":14347,"deactivate":14348,"alty":14349,"getsize":14350,"getmtime":14351,"oldest":14352,"'],\"":14353,"quals":14354,"Ġ+],":14355,"maxiter":14356,"nodename":14357,"odd":14358,"later":14359,"REPO":14360,"Ġ*(-":14361,"again":14362,"pkl":14363,"'],[":14364,"cyan":14365,"attribFill":14366,"grace":14367,"successors":14368,"(['--":14369,"VERSIONS":14370,"MIB":14371,"HostSystem":14372,"terminator":14373,"fastq":14374,"solid":14375,"repeater":14376,"XYZ":14377,"RESULTS":14378,"whole":14379,"homogene":14380,"ALGOR":14381,"AUTHORIZATION":14382,"EXPERI":14383,"Lambda":14384,"QIcon":14385,"UINT":14386,"ktop":14387,"Ġids":14388,"Ġrouter":14389,"Ġlinks":14390,"Ġperson":14391,"Ġcomplex":14392,"DESC":14393,"covered":14394,"excl":14395,"Ġscale":14396,"linewidth":14397,"mplementation":14398,"Ġcd":14399,"ows":14400,"Ġ\"\".":14401,"129":14402,"Ġbasic":14403,"OpCode":14404,"timeouts":14405,"searcher":14406,"LAl":14407,"spell":14408,"160":14409,"repodir":14410,")*)<":14411,"Ġsubject":14412,"FORCE":14413,"centroid":14414,"Week":14415,"Ġpredict":14416,"repeti":14417,"invitation":14418,"ArgsCommand":14419,"performance":14420,"drill":14421,"orphan":14422,"IntegrityError":14423,"equip":14424,"Ġcloudcafe":14425,"Surface":14426,"victim":14427,"epilog":14428,">><":14429,"CMS":14430,"Duplicate":14431,"WI":14432,"bur":14433,"bmp":14434,"pression":14435,"rlib":14436,"sar":14437,"spark":14438,"vot":14439,"yc":14440,"Ġmp":14441,"Ġextend":14442,"Ġrules":14443,"Ġurlopen":14444,"Ġweakref":14445,"STAND":14446,"negate":14447,"texts":14448,"Reactive":14449,"Exc":14450,"indx":14451,"checkpoint":14452,"Ġcoro":14453,"')(":14454,"')),)<":14455,"ALY":14456,"ĠAzure":14457,"ConfigError":14458,"graphs":14459,"EXPORT":14460,"recsys":14461,"webdav":14462,"Connections":14463,"Health":14464,"picks":14465,"Processing":14466,"drafts":14467,"LookupError":14468,"Launch":14469,"ALGORITH":14470,"!\"<":14471,")}":14472,"232":14473,"FK":14474,"OID":14475,"TN":14476,"Ġhave":14477,"Ġwhich":14478,"Ġauthenticate":14479,"reat":14480,"lement":14481,"arms":14482,"getr":14483,"elist":14484,"unlock":14485,"testuser":14486,"Ġ'<%":14487,"observations":14488,"olation":14489,"keyboard":14490,"'}]<":14491,"()!='":14492,"sales":14493,"anging":14494,"DataSet":14495,"Ġtf":14496,"Ġgzip":14497,"ĠCal":14498,"ClientFactory":14499,"excludes":14500,"Closure":14501,"ĠHAS":14502,"segmentation":14503,"RECIP":14504,"12345678":14505,"reenas":14506,"sibling":14507,"DRAFT":14508,"pexpect":14509,"AUTHENTICATION":14510,"230":14511,"Amount":14512,"Freq":14513,"Flat":14514,"Har":14515,"IA":14516,"Io":14517,"Led":14518,"RPL":14519,"Salt":14520,"away":14521,"bdb":14522,"ections":14523,"know":14524,"nans":14525,"qisys":14526,"|'.":14527,"Ġtry":14528,"Ġts":14529,"Ġdirectory":14530,"Ġcontains":14531,"uninstall":14532,"lize":14533,"motion":14534,"outside":14535,"ippet":14536,"fieldnames":14537,"dulo":14538,"weapon":14539,"Ġord":14540,"rootDir":14541,"ListModel":14542,"sendData":14543,"pubdate":14544,"tifications":14545,"ENUM":14546,",:]=":14547,"ICMP":14548,"torrent":14549,"WindowCommand":14550,"Ġ>=(,):<":14551,"ĠOver":14552,"rpcapi":14553,"music":14554,"()+\"":14555,"ationalError":14556,"\"\"\"":14557,"neutronclient":14558,">'),),<":14559,"[-]":14560,"MESSAGES":14561,"Ġglobals":14562,"approval":14563,"(':',)<":14564,"Rotation":14565,"Ġscrapy":14566,"instantiate":14567,"sthrough":14568,"ASCII":14569,"LICENSE":14570,")','":14571,"Src":14572,"npy":14573,"snp":14574,"Ġta":14575,"Ġdepth":14576,"Ġsess":14577,"renew":14578,"chase":14579,"chown":14580,"Ġimportlib":14581,"android":14582,"isomorph":14583,"msvc":14584,"pypi":14585,"(,)))<":14586,"npb":14587,"Ġda":14588,"006":14589,"ĠSpec":14590,"Ġtb":14591,"Comb":14592,"Combin":14593,"finalized":14594,"administr":14595,"ConfigFile":14596,"Ġrs":14597,"ĠCategory":14598,">')})<":14599,")>)<":14600,"OrMore":14601,"FromFile":14602,"indentation":14603,"readers":14604,"'^[":14605,"greenlet":14606,"Ġ:\"\",<":14607,"REGION":14608,"When":14609,"Ġsnapshot":14610,"Subscriber":14611,"AVAILABLE":14612,"Ġdeleted":14613,"ĠAuthentication":14614,"squeeze":14615,");":14616,".\",<":14617,"880":14618,"Est":14619,"IX":14620,"Lab":14621,"Loss":14622,"Pan":14623,"gml":14624,"tTag":14625,"Ġmetric":14626,"Ġlazy":14627,"Ġpartition":14628,"Ġvim":14629,"recover":14630,"incorrect":14631,"erm":14632,"assertion":14633,"tids":14634,"ename":14635,"elrod":14636,"apt":14637,"filelist":14638,"etter":14639,"ancestors":14640,"ised":14641,"(),,":14642,"ours":14643,"Ġ'{":14644,"dispy":14645,"prices":14646,"ĠSoft":14647,"Ġpending":14648,"FileObject":14649,"GEN":14650,"numberOf":14651,">')):<":14652,"MOUSE":14653,"(['-":14654,"cats":14655,"Paged":14656,"externalbytes":14657,"\"],)<":14658,"Ġnovaclient":14659,"neighbo":14660,"CLOUD":14661,"LANGUAGES":14662,"wireLog":14663,"crawl":14664,"LIGHT":14665,"ReactiveTest":14666,"'_":14667,"Same":14668,"fps":14669,"ogr":14670,"Ġdefaults":14671,"ĠBuild":14672,"Ġlistener":14673,"DETAIL":14674,"attended":14675,"around":14676,"trc":14677,"']=['":14678,"Ġ+),":14679,"\",\"__":14680,"\",\"\",":14681,"backing":14682,"Ġday":14683,"Ġcgi":14684,"Div":14685,"KeyboardInterrupt":14686,"packaging":14687,"ModelSerializer":14688,"UserName":14689,"ĠCrypto":14690,"spd":14691,"Ġhex":14692,"Alloc":14693,"imgs":14694,"anything":14695,"qsl":14696,"ChangeSet":14697,"Ġreadline":14698,"Primitive":14699,"909":14700,"timings":14701,"dlr":14702,"LINES":14703,"CHARS":14704,"EmailField":14705,"ONGO":14706,"photos":14707,"=),[]])<":14708,"conflicts":14709,"Expired":14710,"HORIZONT":14711,"canonicalize":14712,"Delivery":14713,"284":14714,"Grow":14715,"KW":14716,"ahead":14717,"gal":14718,"pval":14719,"tte":14720,"ĠIN":14721,"ĠVer":14722,"Ġcontroller":14723,"Ġalpha":14724,"Ġcounter":14725,"Ġcalc":14726,"Ġextensions":14727,"infiles":14728,"dequeue":14729,"staging":14730,">'{":14731,"mpeg":14732,"ced":14733,"lore":14734,"returning":14735,"apache":14736,"Ġindices":14737,">',('":14738,"racle":14739,"']-":14740,"paid":14741,"matvec":14742,"Reason":14743,">\".":14744,"RELE":14745,"pecan":14746,">':['":14747,"libname":14748,"syspath":14749,"')'<":14750,"Coefficient":14751,"IDLE":14752,"Paragraph":14753,"lastic":14754,"ĠCa":14755,"LIVE":14756,"Round":14757,"forecast":14758,"sliced":14759,
[...]
