{"<BOF>":0,"<EOF>":1,"<EOL>":2,"<COMMENT>":3,"<STR_LIT>":4,"<INT_LIT>":5,"<INDENT>":6,"<DEDENT>":7,"!":8,"\"":9,"#":10,"$":11,"%":12,"&":13,"'":14,"(":15,")":16,"*":17,"+":18,",":19,"-":20,".":21,"/":22,"0":23,"1":24,"2":25,"3":26,"4":27,"5":28,"6":29,"7":30,"8":31,"9":32,":":33,";":34,"<":35,"=":36,">":37,"?":38,"@":39,"A":40,"B":41,"C":42,"D":43,"E":44,"F":45,"G":46,"H":47,"I":48,"J":49,"K":50,"L":51,"M":52,"N":53,"O":54,"P":55,"Q":56,"R":57,"S":58,"T":59,"U":60,"V":61,"W":62,"X":63,"Y":64,"Z":65,"[":66,"\\":67,"]":68,"^":69,"_":70,"`":71,"a":72,"b":73,"c":74,"d":75,"e":76,"f":77,"g":78,"h":79,"i":80,"j":81,"k":82,"l":83,"m":84,"n":85,"o":86,"p":87,"q":88,"r":89,"s":90,"t":91,"u":92,"v":93,"w":94,"x":95,"y":96,"z":97,"{":98,"|":99,"}":100,"~":101,"¡":102,"¢":103,"£":104,"¤":105,"¥":106,"¦":107,"§":108,"¨":109,"©":110,"ª":111,"«":112,"¬":113,"®":114,"¯":115,"°":116,"±":117,"²":118,"³":119,"´":120,"µ":121,"¶":122,"·":123,"¸":124,"¹":125,"º":126,"»":127,"¼":128,"½":129,"¾":130,"¿":131,"À":132,"Á":133,"Â":134,"Ã":135,"Ä":136,"Å":137,"Æ":138,"Ç":139,"È":140,"É":141,"Ê":142,"Ë":143,"Ì":144,"Í":145,"Î":146,"Ï":147,"Ð":148,"Ñ":149,"Ò":150,"Ó":151,"Ô":152,"Õ":153,"Ö":154,"×":155,"Ø":156,"Ù":157,"Ú":158,"Û":159,"Ü":160,"Ý":161,"Þ":162,"ß":163,"à":164,"á":165,"â":166,"ã":167,"ä":168,"å":169,"æ":170,"ç":171,"è":172,"é":173,"ê":174,"ë":175,"ì":176,"í":177,"î":178,"ï":179,"ð":180,"ñ":181,"ò":182,"ó":183,"ô":184,"õ":185,"ö":186,"÷":187,"ø":188,"ù":189,"ú":190,"û":191,"ü":192,"ý":193,"þ":194,"ÿ":195,"Ā":196,"ā":197,"Ă":198,"ă":199,"Ą":200,"ą":201,"Ć":202,"ć":203,"Ĉ":204,"ĉ":205,"Ċ":206,"ċ":207,"Č":208,"č":209,"Ď":210,"ď":211,"Đ":212,"đ":213,"Ē":214,"ē":215,"Ĕ":216,"ĕ":217,"Ė":218,"ė":219,"Ę":220,"ę":221,"Ě":222,"ě":223,"Ĝ":224,"ĝ":225,"Ğ":226,"ğ":227,"Ġ":228,"ġ":229,"Ģ":230,"ģ":231,"Ĥ":232,"ĥ":233,"Ħ":234,"ħ":235,"Ĩ":236,"ĩ":237,"Ī":238,"ī":239,"Ĭ":240,"ĭ":241,"Į":242,"į":243,"İ":244,"ı":245,"Ĳ":246,"ĳ":247,"Ĵ":248,"ĵ":249,"Ķ":250,"ķ":251,"ĸ":252,"Ĺ":253,"ĺ":254,"Ļ":255,"ļ":256,"Ľ":257,"ľ":258,"Ŀ":259,"ŀ":260,"Ł":261,"ł":262,"Ń":263,"EO":264,"EOL":265,"DE":266,"se":267,"NT":268,"DENT":269,"><":270,")<":271,"re":272,"sel":273,"self":274,"in":275,"on":276,"te":277,"de":278,"IN":279,":<":280,"INDENT":281,"DEDENT":282,"or":283,"st":284,">'":285,"Ġ<":286,"me":287,"at":288,"le":289,"al":290,"ST":291,"IT":292,"STR":293,"LIT":294,"er":295,"ar":296,"):<":297,"'<":298,",<":299,"as":300,"ti":301,"an":302,"ge":303,"ro":304,"ur":305,"def":306,"ue":307,"mp":308,"ce":309,"if":310,"ame":311,"Ġ:<":312,"en":313,"ser":314,"co":315,">'<":316,"fi":317,"Ġ[":318,"name":319,"el":320,"':":321,"ct":322,"ort":323,"lo":324,"ret":325,"ate":326,"',":327,"__":328,"it":329,"id":330,"urn":331,"return":332,"tr":333,"ch":334,"Ġi":335,"get":336,"pe":337,"con":338,"ut":339,"ex":340,"un":341,"mport":342,"li":343,"()<":344,"tion":345,"ad":346,"res":347,"for":348,"ck":349,"no":350,"si":351,"one":352,"ma":353,"ing":354,"ul":355,"('<":356,"ter":357,"('":358,"sert":359,"di":360,"nt":361,"mo":362,"assert":363,"cl":364,"None":365,"))<":366,"rom":367,"ass":368,"ap":369,"val":370,"from":371,"._":372,"th":373,"Tr":374,"]<":375,"ty":376,",,":377,"arg":378,"test":379,"op":380,"Ġin":381,"ri":382,"set":383,"ke":384,"up":385,"Ġ'<":386,"True":387,"ata":388,"pat":389,"qu":390,"),":391,"='":392,"Ġimport":393,"and":394,"ab":395,"','":396,"to":397,"ult":398,"ver":399,"ob":400,"Ġself":401,"ect":402,"),<":403,">',":404,"ror":405,"ati":406,"file":407,"is":408,"':'":409,"pro":410,"ra":411,"args":412,"path":413,"es":414,"et":415,"class":416,"data":417,"ol":418,"']":419,"der":420,"par":421,"il":422,"type":423,"key":424,"int":425,"value":426,"que":427,"ation":428,"not":429,"obj":430,"ms":431,"age":432,"ction":433,"vi":434,"str":435,"len":436,"Ġ['":437,"la":438,"{'":439,"os":440,"],":441,"app":442,"um":443,"')<":444,"=[":445,"ss":446,"ase":447,"ent":448,"del":449,"xt":450,"sion":451,"ed":452,"\",":453,"do":454,"eld":455,"time":456,"qual":457,"import":458,"(<":459,"rror":460,"pa":461,"Error":462,"Ġnot":463,"alse":464,"cep":465,"ment":466,"end":467,"sh":468,"ne":469,"bu":470,"False":471,"text":472,"',<":473,"=<":474,"add":475,">')<":476,"else":477,"all":478,"out":479,"lin":480,"ta":481,"quest":482,"Ġis":483,"(\"":484,"Ġtest":485,").":486,"able":487,"mat":488,"ve":489,"Ġ]":490,"Equal":491,"Ġ+":492,"ub":493,"log":494,"fo":495,"='<":496,"user":497,"ance":498,"result":499,"per":500,"url":501,"po":502,"==":503,"date":504,"assertEqual":505,"pr":506,"bo":507,"us":508,"ise":509,"list":510,"object":511,"request":512,"code":513,"inst":514,"ted":515,"che":516,">',<":517,"Ġ__":518,"col":519,"'}":520,"Ġs":521,"model":522,"fig":523,"py":524,",'":525,"[],":526,"put":527,"try":528,"__(":529,"attr":530,"wor":531,"ault":532,"ig":533,"cre":534,"db":535,",,,,":536,"est":537,"excep":538,"ze":539,"In":540,">',[],":541,"ack":542,"resp":543,"max":544,"raise":545,"default":546,">',[],{'":547,"he":548,"ĠNone":549,"Ġ_":550,">@":551,"kw":552,"node":553,"onse":554,"com":555,"instance":556,"ip":557,"Re":558,"fa":559,"ys":560,"()":561,"ith":562,"sc":563,"our":564,"Ġ[]":565,"ot":566,"field":567,"pl":568,"ite":569,"du":570,"ER":571,"BO":572,"art":573,"Fi":574,"**":575,"Test":576,"ht":577,"':('<":578,"Con":579,"}<":580,"config":581,"init":582,"print":583,"lient":584,"ource":585,"dir":586,"=\"":587,"pre":588,"ger":589,"(,":590,"EOF":591,"od":592,"ic":593,"dict":594,"BOF":595,"():<":596,"ure":597,"kwargs":598,"create":599,"read":600,"ange":601,"response":602,"with":603,".__":604,"append":605,"ader":606,"port":607,"dex":608,"unt":609,"\")<":610,"except":611,"stat":612,"ype":613,"Ex":614,"comp":615,"gth":616,"line":617,"format":618,"aut":619,"ca":620,"ho":621,"'}),<":622,"ler":623,"om":624,"min":625,"pass":626,"roup":627,"error":628,"til":629,"rip":630,"late":631,"am":632,">'%":633,"start":634,"cur":635,"{<":636,"client":637,"base":638,"length":639,"rent":640,"new":641,"sub":642,"ac":643,">\"":644,"RE":645,"info":646,"ff":647,"ist":648,"tions":649,"\",\"":650,"fun":651,"ew":652,"ild":653,"comm":654,"pec":655,"\":":656,"np":657,"ON":658,"sa":659,"ang":660,"thod":661,"AT":662,"util":663,"ten":664,"cess":665,"ts":666,"ject":667,"context":668,"jo":669,"ory":670,"temp":671,"has":672,"Ġ]<":673,"Ġ:":674,"form":675,"wri":676,"count":677,"Ġget":678,"mess":679,"son":680,"index":681,"message":682,"Mo":683,"back":684,"tent":685,"main":686,"version":687,"group":688,"size":689,"num":690,"join":691,"])<":692,"load":693,"Type":694,"method":695,"Ġd":696,">':":697,"ings":698,"ull":699,"ery":700,",**":701,"([":702,"tra":703,"vice":704,"elif":705,"())<":706,"Ġ'":707,"ext":708,"cal":709,"red":710,"ask":711,"Val":712,"write":713,"models":714,"mage":715,"call":716,"bl":717,"ok":718,"vent":719,"auth":720,"Ġre":721,"work":722,">_":723,"ary":724,"ds":725,"ator":726,"fil":727,"status":728,"':'<":729,"update":730,"header":731,"map":732,"Pro":733,"ec":734,"low":735,"ali":736,"state":737,"pla":738,"run":739,"ber":740,"OR":741,"lib":742,"ams":743,"Field":744,"ute":745,"St":746,"string":747,"mock":748,"ner":749,"=='":750,"sys":751,"Ġf":752,"msg":753,"dule":754,"ses":755,"ind":756,"table":757,"parse":758,"LE":759,"ans":760,"valid":761,"json":762,"mple":763,"check":764,"query":765,"\"<":766,"gin":767,"Ġc":768,"ank":769,"')":770,"=[]<":771,"output":772,"ml":773,"Name":774,"tag":775,"params":776,"gr":777,"Ġ*":778,"host":779,"cls":780,"']<":781,"tok":782,"abel":783,"by":784,"da":785,"tp":786,"content":787,"dis":788,"view":789,"ME":790,"ren":791,"scrip":792,"Str":793,"fe":794,",,,,,,,,":795,"net":796,"Co":797,"row":798,"reg":799,"open":800,"hel":801,"token":802,"filter":803,"['":804,"Lo":805,"pi":806,"\",<":807,"doc":808,"range":809,"Ġand":810,"den":811,"module":812,"Value":813,"options":814,"lic":815,"':<":816,"blank":817,"utils":818,"nd":819,",)<":820,"sett":821,"hand":822,"ity":823,"Ġ-":824,"tem":825,"umn":826,"var":827,"Ġas":828,"filename":829,"api":830,"00":831,"ango":832,"action":833,"sig":834,"sha":835,"image":836,"ow":837,"jango":838,"uni":839,"template":840,"orm":841,"lock":842,"pri":843,"Ġisinstance":844,"ument":845,"arget":846,"ile":847,"={":848,"lete":849,"md":850,"},<":851,"label":852,"=_":853,"spa":854,"fix":855,"AL":856,"event":857,"su":858,"cor":859,"word":860,"(),":861,"Res":862,"SE":863,"server":864,"so":865,"ray":866,"null":867,"Ġ[:":868,"im":869,"ress":870,"settings":871,"ces":872,"mb":873,"ibu":874,"sup":875,"clo":876,"objects":877,"Excep":878,"proper":879,"nection":880,"().":881,"parser":882,"Exception":883,"dy":884,"target":885,"ibute":886,"source":887,"']=":888,"und":889,",'<":890,"inter":891,"ele":892,"command":893,"item":894,"func":895,"pos":896,"man":897,"Ġdjango":898,"Ġos":899,",\"":900,"dow":901,"plit":902,"fields":903,"=(":904,"})<":905,"Ch":906,"cket":907,"=,":908,"match":909,"Data":910,"Ġx":911,"ID":912,"input":913,"],<":914,"act":915,"ref":916,"ies":917,"conn":918,"cont":919,"unit":920,"Ke":921,"eta":922,"parent":923,"values":924,">}<":925,"wid":926,"De":927,"ĠS":928,"vel":929,"CO":930,"split":931,"Ġ\"":932,"No":933,"ther":934,"we":935,"process":936,"bug":937,"items":938,"Case":939,"ib":940,"iter":941,"sign":942,"Di":943,"qui":944,"ree":945,"ag":946,"Ġp":947,"AR":948,"Ġ[\"":949,"trans":950,"),('":951,"body":952,"zer":953,"Ġlen":954,"array":955,"space":956,"rect":957,"File":958,"Key":959,">','":960,"help":961,"child":962,"Ad":963,"headers":964,"((":965,"delete":966,"ax":967,"'])<":968,"pected":969,"tle":970,"current":971,"nu":972,"String":973,"tern":974,"'%":975,"pack":976,"LO":977,"Ġor":978,"12":979,"Ġ]=":980,"cle":981,"expected":982,"loc":983,"Ġset":984,"TE":985,"arch":986,"service":987,"project":988,"FI":989,"use":990,"32":991,"arn":992,"column":993,"loat":994,"ule":995,"other":996,"debug":997,"session":998,"ore":999,"=)<":1000,"GE":1001,"Ġt":1002,"ging":1003,"root":1004,"ron":1005,"datetime":1006,"mer":1007,"Ġ%":1008,"ll":1009,"sor":1010,"cache":1011,"descrip":1012,"Not":1013,"wh":1014,"ard":1015,"AC":1016,"close":1017,"PE":1018,"TestCase":1019,"resource":1020,"dep":1021,"property":1022,"Base":1023,"exec":1024,"mail":1025,"link":1026,"title":1027,"ION":1028,"wa":1029,"order":1030,"Ġ])<":1031,"rame":1032,"Model":1033,"ph":1034,"remo":1035,"super":1036,"ly":1037,"AN":1038,"'):<":1039,"sy":1040,"nel":1041,"ine":1042,"Ġ>":1043,"core":1044,"Par":1045,"http":1046,"copy":1047,"lu":1048,"={<":1049,"connection":1050,"cmd":1051,"uid":1052,"ager":1053,"List":1054,"old":1055,"patch":1056,"!=":1057,"mis":1058,"ations":1059,"logger":1060,"rand":1061,"task":1062,"--":1063,"lob":1064,"logging":1065,"keys":1066,"make":1067,"foo":1068,"mary":1069,"RO":1070,"names":1071,"={}<":1072,"Ġ[]<":1073,"Ser":1074,"point":1075,"User":1076,"Set":1077,"(*":1078,"post":1079,"next":1080,"\"]":1081,"Ġb":1082,">'%(":1083,"last":1084,"Com":1085,"env":1086,"local":1087,"Col":1088,"NA":1089,"mit":1090,"exp":1091,"shape":1092,"build":1093,"\"%":1094,"Po":1095,"ValueError":1096,"=['":1097,"assertTrue":1098,"SS":1099,"tes":1100,"req":1101,"'))<":1102,"description":1103,")==":1104,"spec":1105,"types":1106,"Ob":1107,"function":1108,"ĠA":1109,"ant":1110,"rst":1111,"ĠM":1112,"(_":1113,"now":1114,"'),":1115,"als":1116,"uct":1117,"float":1118,"Ġe":1119,"job":1120,"mod":1121,"Id":1122,"lag":1123,">},<":1124,"denti":1125,"tive":1126,",*":1127,">[":1128,"number":1129,"domain":1130,"mode":1131,"ude":1132,"ime":1133,"handler":1134,"ream":1135,"place":1136,"En":1137,"rc":1138,"prefix":1139,"fact":1140,"ker":1141,"color":1142,"))":1143,"raw":1144,"ight":1145,"page":1146,"direct":1147,"err":1148,"exten":1149,"ep":1150,"level":1151,"off":1152,"Op":1153,"my":1154,"cate":1155,"change":1156,"ments":1157,"lines":1158,"top":1159,"UR":1160,"Up":1161,"password":1162,"win":1163,"lay":1164,"abs":1165,"files":1166,"play":1167,"ters":1168,"cs":1169,"Ġfor":1170,"dest":1171,"wr":1172,"rol":1173,"meta":1174,"nc":1175,"AP":1176,"fin":1177,"Get":1178,"requi":1179,"atch":1180,"unittest":1181,"={'":1182,"pk":1183,"HT":1184,"conf":1185,"equal":1186,"ak":1187,"network":1188,"aph":1189,"be":1190,">'.":1191,"iali":1192,"lamb":1193,"To":1194,"ion":1195,"'),<":1196,"lambda":1197,"option":1198,"adata":1199,"store":1200,"Ra":1201,"tain":1202,"UT":1203,"mar":1204,"attribute":1205,"Un":1206,"timeout":1207,"[]":1208,"CE":1209,"df":1210,"ĠI":1211,"find":1212,"ols":1213,"DI":1214,"enti":1215,"led":1216,"gener":1217,"mon":1218,"rule":1219,"ers":1220,"extra":1221,"Ġ[].":1222,"ded":1223,"hash":1224,",,,,,,,,,,,,,,,,":1225,"save":1226,"ust":1227,"(,),":1228,"ci":1229,"64":1230,"mem":1231,"results":1232,"met":1233,"'.":1234,"PO":1235,")))<":1236,"viron":1237,"Node":1238,"mpy":1239,"emp":1240,"':{'":1241,"Request":1242,"username":1243,"warn":1244,"ns":1245,"primary":1246,"address":1247,"clude":1248,"Ġ['<":1249,"dist":1250,"pattern":1251,"Ġsys":1252,"Ġg":1253,"width":1254,"Vi":1255,"cp":1256,"yi":1257,"unicode":1258,")+":1259,"of":1260,"ulti":1261,"Ar":1262,"','<":1263,"ize":1264,"iz":1265,"ĠTrue":1266,"argument":1267,"admin":1268,"email":1269,"random":1270,"xml":1271,"bar":1272,"block":1273,"Ġ+=":1274,"ister":1275,"yield":1276,"Ġ[],":1277,"AD":1278,"html":1279,"pop":1280,"ry":1281,"ess":1282,"exist":1283,"send":1284,"metadata":1285,">]<":1286,"exc":1287,"Raise":1288,"search":1289,"its":1290,">__":1291,"oo":1292,"sq":1293,"pub":1294,"Ġrange":1295,"frame":1296,"Object":1297,"Config":1298,"TP":1299,"fail":1300,"stream":1301,"uple":1302,"bin":1303,"lass":1304,"mission":1305,"==\"":1306,"olu":1307,"CH":1308,"package":1309,"Ġpy":1310,"first":1311,"opts":1312,"ttr":1313,"site":1314,"ĠValueError":1315,"errors":1316,"Ġr":1317,"ĠFalse":1318,"uuid":1319,"ties":1320,"ĠC":1321,"tocol":1322,"NO":1323,"const":1324,"Hand":1325,"manager":1326,"Raises":1327,"US":1328,"cord":1329,"'],":1330,"ath":1331,"Add":1332,"ir":1333,"\":\"":1334,"Comm":1335,"ix":1336,"sche":1337,"environ":1338,"Log":1339,"callback":1340,"Ġ!=":1341,"CT":1342,"Ġresult":1343,"ĠP":1344,"Time":1345,"io":1346,"UL":1347,"MA":1348,"char":1349,"ft":1350,"Do":1351,"ify":1352,"cer":1353,"cho":1354,"verse":1355,"unk":1356,"(,,":1357,"KE":1358,"Meta":1359,"assertRaises":1360,"contin":1361,"fake":1362,"author":1363,"plu":1364,"ched":1365,"iti":1366,"ING":1367,"bose":1368,"numpy":1369,"..":1370,"Ġname":1371,"queue":1372,"TY":1373,"graph":1374,"exception":1375,"down":1376,"ved":1377,"Text":1378,"flag":1379,"men":1380,"NAME":1381,"ui":1382,"verbose":1383,"ature":1384,"strip":1385,"Ġkey":1386,"while":1387,"remove":1388,"),)<":1389,"box":1390,"thread":1391,"uster":1392,"'],<":1393,"MP":1394,"dout":1395,"Ġv":1396,"offset":1397,"Command":1398,"\":<":1399,"Ġhas":1400,"ign":1401,"Mock":1402,"seriali":1403,"cy":1404,"sum":1405,"10":1406,"stop":1407,"Form":1408,"handle":1409,"annel":1410,"struct":1411,"va":1412,"river":1413,"continue":1414,"plugin":1415,"swith":1416,"atic":1417,"{}":1418,"rel":1419,"ay":1420,"Resp":1421,"igr":1422,"ble":1423,"bre":1424,"ctx":1425,"sition":1426,"IO":1427,"Ġk":1428,"xy":1429,"ght":1430,"register":1431,"sta":1432,"uture":1433,"For":1434,"ures":1435,"connect":1436,"oper":1437,"stdout":1438,"colle":1439,",_":1440,"dent":1441,"sen":1442,"tal":1443,"glob":1444,"Response":1445,"case":1446,"View":1447,"show":1448,"replace":1449,">']":1450,"Me":1451,"ffer":1452,"HTTP":1453,">')":1454,"sk":1455,"stack":1456,"thon":1457,"ifi":1458,"ong":1459,"the":1460,">:":1461,"idx":1462,"parame":1463,"contain":1464,"dtype":1465,"ATE":1466,"ids":1467,"lot":1468,"Ġ/":1469,"auto":1470,">':('<":1471,"uri":1472,"unique":1473,"addr":1474,"(),<":1475,"repr":1476,"LI":1477,"Ġm":1478,"[]<":1479,")):<":1480,"Ġa":1481,"FA":1482,"CON":1483,"Ver":1484,"param":1485,"ĠException":1486,"control":1487,"'})<":1488,"ttribute":1489,">'),<":1490,"ps":1491,"VER":1492,"tmp":1493,"getattr":1494,"ud":1495,"=[<":1496,"break":1497,"Ġ],":1498,"sing":1499,"mt":1500,"select":1501,"ual":1502,"Ġn":1503,"ccess":1504,"olume":1505,"entry":1506,">','<":1507,"==:<":1508,"ated":1509,"Char":1510,"Se":1511,"Ġ*<":1512,"iable":1513,"stance":1514,"Handler":1515,"ors":1516,"UN":1517,"execute":1518,"lated":1519,"TYPE":1520,"future":1521,"cf":1522,"encode":1523,"nodes":1524,"IP":1525,"br":1526,"attrs":1527,"orage":1528,"tuple":1529,"location":1530,"Bu":1531,"ctions":1532,"older":1533,"lice":1534,"device":1535,"'},<":1536,"common":1537,")]<":1538,"Dict":1539,"socket":1540,"Man":1541,"ash":1542,"pp":1543,"LA":1544,"gen":1545,"pect":1546,"ain":1547,"Ġ[])<":1548,"cluster":1549,"orig":1550,"Is":1551,"opt":1552,"exists":1553,"):":1554,"channel":1555,"role":1556,").__":1557,"lower":1558,"ĠTest":1559,"essage":1560,"SI":1561,"full":1562,"'].":1563,"vo":1564,"attrib":1565,"total":1566,"sec":1567,"ha":1568,"':\"":1569,"sp":1570,"dump":1571,"itor":1572,"Ġvalue":1573,"Aut":1574,"':{<":1575,"stats":1576,"active":1577,"Client":1578,"fs":1579,"validate":1580,"').":1581,"limit":1582,"tric":1583,"}),<":1584,"driver":1585,"licy":1586,"flow":1587,"ĠT":1588,"tags":1589,"src":1590,"face":1591,"EX":1592,"rec":1593,"Ġdata":1594,"rt":1595,"profile":1596,"Group":1597,"teger":1598,"related":1599,"feren":1600,"stra":1601,"setup":1602,"Ġcreate":1603,"zip":1604,")=":1605,"Message":1606,"wrap":1607,"web":1608,"Num":1609,"static":1610,"Fa":1611,"Ġ)<":1612,"choi":1613,"),(":1614,"sty":1615,"widget":1616,"norm":1617,"Class":1618,"Bo":1619,"Fact":1620,"tools":1621,"element":1622,"16":1623,"ding":1624,"lang":1625,"cursor":1626,"URL":1627,"record":1628,"ton":1629,"pay":1630,"Ele":1631,"ERR":1632,"bytes":1633,"uration":1634,"LOG":1635,"Ġ].":1636,"Ġ+=<":1637,"axis":1638,"ste":1639,"assertEquals":1640,"compile":1641,"cation":1642,"pc":1643,"derr":1644,"forms":1645,"Qu":1646,"Ġhasattr":1647,"extension":1648,"\",'":1649,"exit":1650,"sed":1651,"onent":1652,"Column":1653,"25":1654,"ULT":1655,"=-":1656,"can":1657,"pool":1658,"dif":1659,"stderr":1660,"'+":1661,")>":1662,"required":1663,"enco":1664,"Run":1665,"style":1666,"Comp":1667,"Index":1668,"Resource":1669,"volume":1670,"groups":1671,"tail":1672,"Ġopen":1673,"schema":1674,">'+":1675,"sample":1676,"mark":1677,"identi":1678,"factory":1679,"gine":1680,"true":1681,"MO":1682,"commit":1683,",(":1684,"BU":1685,"secon":1686,"expr":1687,"initi":1688,"Or":1689,"over":1690,"desc":1691,"INT":1692,"og":1693,"fn":1694,"stamp":1695,"sco":1696,"pol":1697,"Path":1698,"tests":1699,"ast":1700,"TR":1701,"train":1702,"are":1703,"entity":1704,"startswith":1705,"'%(":1706,"=,<":1707,"GET":1708,"VE":1709,"metric":1710,"('/":1711,",[":1712,"ie":1713,"TypeError":1714,"six":1715,"']['":1716,"enu":1717,"cli":1718,"Cre":1719,"left":1720,"decode":1721,"argv":1722,"lean":1723,"abled":1724,"reverse":1725,"clean":1726,"long":1727,"conver":1728,"Ġif":1729,">'}),<":1730,"login":1731,"Ġ[-":1732,"TH":1733,"Event":1734,"backend":1735,"ial":1736,"buffer":1737,"skip":1738,"PRO":1739,"buil":1740,"ative":1741,"ped":1742,"children":1743,"window":1744,"permission":1745,"tifi":1746,"multi":1747,"go":1748,"',)<":1749,"20":1750,"Ġline":1751,"TI":1752,"allow":1753,"right":1754,"ĠD":1755,"namespace":1756,"Stat":1757,"Factory":1758,"Ġelse":1759,"lication":1760,"lat":1761,"vm":1762,"sort":1763,"tree":1764,"Ht":1765,"comment":1766,"trace":1767,"buf":1768,"Instance":1769,"mented":1770,"classmethod":1771,"eq":1772,"OP":1773,"duct":1774,"member":1775,"ĠB":1776,"wait":1777,"(-":1778,"QU":1779,"IL":1780,"uter":1781,"lug":1782,"pu":1783,"flags":1784,"(__":1785,"Element":1786,"vider":1787,"\".":1788,"tiv":1789,"),(\"":1790,"ERROR":1791,"Ġrequest":1792,"delta":1793,"ale":1794,"sql":1795,"(,),(,),":1796,"Sub":1797,"ell":1798,"position":1799,"system":1800,"gi":1801,"cfg":1802,"bind":1803,"lease":1804,"Wid":1805,"access":1806,">'))<":1807,"CharField":1808,"EN":1809,"created":1810,"Ġ}<":1811,"chunk":1812,"Valid":1813,"called":1814,"utton":1815,"zone":1816,"plot":1817,"non":1818,"messages":1819,"python":1820,"DO":1821,"ference":1822,"vision":1823,"storage":1824,"gex":1825,"parameters":1826,"rot":1827,"okup":1828,"coun":1829,"Qt":1830,"ample":1831,"Item":1832,":'":1833,"policy":1834,"Auth":1835,"sw":1836,"Connection":1837,"parti":1838,"Var":1839,"wx":1840,"120":1841,"dirname":1842,"af":1843,"document":1844,"Ġurl":1845,"height":1846,"Http":1847,"ML":1848,"container":1849,"cen":1850,"']:<":1851,"TA":1852,"alt":1853,"\"%(":1854,"disk":1855,"gra":1856,"proxy":1857,"Number":1858,"FILE":1859,"her":1860,"Ġnode":1861,"Ġ+'":1862,"display":1863,"orted":1864,"40":1865,"':[":1866,"sn":1867,"columns":1868,"render":1869,"include":1870,"part":1871,",-":1872,"FO":1873,"ĠĠ":1874,"Parser":1875,"Content":1876,"SH":1877,"State":1878,"exceptions":1879,"utf":1880,"mplemented":1881,"owner":1882,"route":1883,"etch":1884,"gory":1885,",,,,,,,,,,,,,,,,,,,,,,,,,,,,,,,,":1886,"insert":1887,"track":1888,"Proper":1889,"encoding":1890,"\")":1891,"{\"":1892,"(**":1893,"section":1894,"Info":1895,"11":1896,"engine":1897,"vis":1898,"script":1899,"ont":1900,"protocol":1901,"Fun":1902,"cap":1903,"ants":1904,"resh":1905,"ustom":1906,"Ġh":1907,"words":1908,"timestamp":1909,"FAULT":1910,"Table":1911,"Server":1912,"KEY":1913,"Ro":1914,"\"]<":1915,"Le":1916,"filters":1917,"50":1918,"Ġl":1919,"eno":1920,"',:'":1921,"rows":1922,"Date":1923,"edge":1924,"Ġde":1925,"peri":1926,"ping":1927,"Call":1928,"origin":1929,"success":1930,"DEFAULT":1931,"day":1932,"ĠNot":1933,"account":1934,"UP":1935,"=):<":1936,"global":1937,"FF":1938,"rix":1939,"migr":1940,"aster":1941,"payload":1942,"loy":1943,"alize":1944,"seq":1945,"depen":1946,"tran":1947,"Ġtype":1948,"'\",'":1949,"variable":1950,"install":1951,"scope":1952,"_(":1953,"DB":1954,"ally":1955,"slug":1956,"kernel":1957,">':{<":1958,"Ac":1959,"lex":1960,"generate":1961,"By":1962,"users":1963,"Out":1964,"book":1965,"quo":1966,"\"))<":1967,"fd":1968,"ws":1969,"ener":1970,"Th":1971,"attributes":1972,"igh":1973,"ld":1974,"Integer":1975,"From":1976,"repo":1977,"SP":1978,"let":1979,"move":1980,"Arg":1981,"ĠsetUp":1982,"Implemented":1983,"Action":1984,")*":1985,"Ġtime":1986,"ixin":1987,"Tag":1988,"nore":1989,"anch":1990,"Per":1991,"sent":1992,"eval":1993,"ill":1994,"atures":1995,"extend":1996,"NE":1997,"Admin":1998,"VI":1999,"Version":2000,"apper":2001,"uage":2002,">{'":2003,"detail":2004,"100":2005,"POST":2006,"ord":2007,"__)<":2008,"NS":2009,"mi":2010,"vars":2011,"Query":2012,"compute":2013,"lineno":2014,"Attribute":2015,"ASE":2016,"=''<":2017,"\"):<":2018,"ift":2019,",]":2020,"\",'<":2021,"resol":2022,"Ġadd":2023,"step":2024,"cei":2025,"cook":2026,"lav":2027,"empty":2028,"ified":2029,"esc":2030,"SC":2031,"ba":2032,"HE":2033,"Al":2034,"annot":2035,"App":2036,"Ġ})<":2037,"plat":2038,"TO":2039,"olute":2040,"ctype":2041,"dt":2042,"Ġjson":2043,"Service":2044,"wer":2045,"dataset":2046,"He":2047,"img":2048,"Gr":2049,"sible":2050,"mask":2051,"imal":2052,"pt":2053,"mportError":2054,"[\"":2055,"':\"'":2056,"Image":2057,"lish":2058,"modules":2059,",:":2060,"round":2061,"cert":2062,"pair":2063,"labels":2064,"git":2065,"ression":2066,"public":2067,"Ġ[:]":2068,"properties":2069,"weight":2070,"AGE":2071,"contents":2072,"Ca":2073,"quen":2074,")/":2075,"Win":2076,"ng":2077,"wd":2078,"asic":2079,"report":2080,"Manager":2081,"dition":2082,"diff":2083,"Property":2084,"ĠF":2085,"Trans":2086,"parts":2087,"only":2088,"remote":2089,"Ġrun":2090,"uint":2091,"GL":2092,"batch":2093,"std":2094,"dim":2095,"absolute":2096,"fore":2097,"cell":2098,"Protocol":2099,"Result":2100,"),('<":2101,"convert":2102,"contr":2103,"Ġsub":2104,"alph":2105,"dev":2106,"\"),<":2107,"(['":2108,"And":2109,"({'":2110,"Code":2111,"Widget":2112,"head":2113,"loop":2114,"':,<":2115,"ĠNotImplemented":2116,"Def":2117,"==<":2118,"Ġdatetime":2119,"region":2120,"assertFalse":2121,"SO":2122,"component":2123,"DIR":2124,"sm":2125,"ĠImportError":2126,"slice":2127,"ink":2128,"sync":2129,"PAT":2130,"34":2131,"assertIs":2132,"exclude":2133,"ators":2134,"ye":2135,"API":2136,"Desc":2137,"Ġnp":2138,"bool":2139,"Mixin":2140,"Ġresponse":2141,"OK":2142,"anel":2143,"lookup":2144,"ATA":2145,"30":2146,"heck":2147,"loads":2148,"sched":2149,"loader":2150,"asses":2151,"agent":2152,"shot":2153,"Format":2154,"Context":2155,"fixt":2156,"Inter":2157,"fp":2158,"sock":2159,"paths":2160,")]":2161,"real":2162,"language":2163,"Gener":2164,"tokens":2165,"provider":2166,"dr":2167,"pick":2168,"Ġitem":2169,"verify":2170,"clear":2171,"Ġargs":2172,"events":2173,"Int":2174,"DS":2175,"rop":2176,"cale":2177,"Ġno":2178,"initial":2179,"consu":2180,"raises":2181,"controller":2182,"Lay":2183,"Struct":2184,"Fo":2185,"IC":2186,"Logger":2187,"imp":2188,"rest":2189,"directory":2190,"ED":2191,"tor":2192,"medi":2193,"release":2194,"bs":2195,"Task":2196,"force":2197,"curity":2198,"product":2199,"lis":2200,"folder":2201,"any":2202,"ĠKey":2203,"safe":2204,"fetch":2205,"ous":2206,"endpoint":2207,"dot":2208,"ignore":2209,"leep":2210,"inputs":2211,"StringIO":2212,"choices":2213,"ummy":2214,"ization":2215,"grid":2216,"Size":2217,"ason":2218,"Temp":2219,")),('":2220,"ins":2221,"dec":2222,"\\\\":2223,"indent":2224,"dumps":2225,"=('":2226,"ome":2227,"alog":2228,"ctor":2229,")==:<":2230,"signal":2231,"AM":2232,"simple":2233,"dependen":2234,"Point":2235,"bucket":2236,"enumer":2237,"FOR":2238,"dat":2239,"Fil":2240,"TEST":2241,"gl":2242,"short":2243,"ient":2244,",))<":2245,"Line":2246,"edit":2247,"Ġto":2248,"platform":2249,">']<":2250,">})<":2251,"Ġ|":2252,"topic":2253,"Create":2254,"=(<":2255,"14":2256,"=='__":2257,"secret":2258,"hist":2259,"pid":2260,"':,'":2261,"gate":2262,"helper":2263,"scale":2264,"nown":2265,"aml":2266,"gest":2267,"alpha":2268,"ternal":2269,"ride":2270,"Dis":2271,"actor":2272,"lavor":2273,"DER":2274,"gment":2275,"ssl":2276,"ek":2277,"own":2278,"Pre":2279,",],":2280,"[:":2281,"Window":2282,"rate":2283,"ĠNotImplementedError":2284,"__':<":2285,"fier":2286,"Frame":2287,"ava":2288,"enumerate":2289,"deploy":2290,"inf":2291,"database":2292,"enabled":2293,"('-":2294,"Ġlist":2295,"quence":2296,"zy":2297,"contrib":2298,"MM":2299,"BLE":2300,"queryset":2301,"subprocess":2302,"fname":2303,"Ġw":2304,"(,)<":2305,"rv":2306,"cted":2307,"Ġconfig":2308,"INE":2309,"au":2310,"eff":2311,"views":2312,"Cont":2313,"shared":2314,"Ġunittest":2315,"category":2316,"alias":2317,"VAL":2318,"Ġ>=":2319,"ĠO":2320,"Ġnumpy":2321,"Check":2322,"TER":2323,"Ġpath":2324,"sorted":2325,"Ġ+\"":2326,"proto":2327,"fit":2328,"she":2329,"ATION":2330,"SION":2331,"liter":2332,"iled":2333,"ship":2334,"Doc":2335,"Status":2336,"SET":2337,"Wor":2338,"defaults":2339,"saction":2340,"cast":2341,"15":2342,"\"])<":2343,"Ġsettings":2344,"ls":2345,"Ġsetup":2346,"Ġdb":2347,"serialize":2348,"dirs":2349,"dele":2350,"js":2351,"__=='__":2352,"STAT":2353,"sleep":2354,"mac":2355,"collection":2356,"Fore":2357,"zed":2358,"'),('":2359,"18":2360,"CK":2361,"With":2362,"parsed":2363,"__,":2364,"master":2365,"SER":2366,")-":2367,"IG":2368,"Ġenumerate":2369,"org":2370,"menu":2371,"apps":2372,"mount":2373,"Ġlogging":2374,"19":2375,"cr":2376,"USER":2377,"router":2378,"qs":2379,"av":2380,"WOR":2381,"tw":2382,"suite":2383,"PATH":2384,"activ":2385,"board":2386,"classes":2387,"ENT":2388,"24":2389,"Ġcheck":2390,"finally":2391,"mean":2392,"redirect":2393,"Filter":2394,"sym":2395,"layer":2396,"chain":2397,"matrix":2398,"actions":2399,"Module":2400,"actual":2401,"invalid":2402,"cent":2403,"ector":2404,"bot":2405,"Invalid":2406,"prop":2407,"binary":2408,"BASE":2409,"tool":2410,"Address":2411,"priv":2412,"DATA":2413,"Ġnew":2414,"tenant":2415,"()))<":2416,"ĠG":2417,"UM":2418,"ports":2419,"tach":2420,"=-<":2421,"VERSION":2422,"End":2423,"gor":2424,"Validation":2425,"Option":2426,"found":2427,"PI":2428,"usage":2429,"Ġ[:]<":2430,"Control":2431,"ql":2432,"sheet":2433,"imple":2434,"gg":2435,"Input":2436,"ĠTypeError":2437,"[])<":2438,"packages":2439,"regex":2440,"cept":2441,"istr":2442,"Fe":2443,"dered":2444,"Ed":2445,"warnings":2446,"itch":2447,"ive":2448,"Count":2449,"ick":2450,"('.":2451,"dst":2452,"serializer":2453,"tries":2454,"Ġ],<":2455,"prog":2456,"resources":2457,"pkg":2458,"=[('":2459,"ORT":2460,"Que":2461,"ply":2462,"56":2463,"warning":2464,"Ġu":2465,"Ġ!":2466,"Ġex":2467,"ZE":2468,"ipel":2469,"MAX":2470,"mk":2471,"Py":2472,"hook":2473,"ano":2474,"tz":2475,"Cache":2476,"Map":2477,"transform":2478,"tables":2479,"cc":2480,"bad":2481,"tif":2482,"zeros":2483,"oken":2484,")),<":2485,"},":2486,"An":2487,"Ġ{":2488,"testing":2489,"__=":2490,"staticmethod":2491,"rm":2492,"tx":2493,"year":2494,"Ġ+'<":2495,"reset":2496,"Foreign":2497,"Sele":2498,"prot":2499,"constants":2500,"Ġobj":2501,"mapping":2502,"sis":2503,"As":2504,"security":2505,"22":2506,"application":2507,"=[\"":2508,"hostname":2509,"subject":2510,"urls":2511,"ĠRe":2512,"points":2513,"second":2514,"elem":2515,"custom":2516,"publish":2517,"80":2518,">':'":2519,"Color":2520,")>:<":2521,"MS":2522,"cat":2523,"Ġsw":2524,"Tests":2525,"Ġxrange":2526,"ipeline":2527,"\"+":2528,"Function":2529,"Ġ'.":2530,"features":2531,"listen":2532,"TION":2533,"lugin":2534,")])<":2535,"agg":2536,"ffix":2537,"dispatch":2538,"ForeignKey":2539,"cb":2540,"hex":2541,"('\\":2542,"rpc":2543,"stract":2544,"lan":2545,"vt":2546,"Ġstr":2547,"oprot":2548,"rep":2549,"Ġret":2550,"images":2551,"Multi":2552,"indi":2553,"HO":2554,")),":2555,"On":2556,"ish":2557,"here":2558,"rs":2559,"Method":2560,"interval":2561,"Ġ**":2562,"rules":2563,"Sy":2564,"ning":2565,"ES":2566,"gf":2567,"Process":2568,"requests":2569,"Ġj":2570,"cloud":2571,"ĠR":2572,"expect":2573,"arti":2574,"esca":2575,"repos":2576,"bit":2577,"plan":2578,"font":2579,"credenti":2580,"pen":2581,"Ġren":2582,"cookie":2583,"Ġ<=":2584,"coder":2585,"term":2586,"Ġfield":2587,"\"),":2588,"builder":2589,"oauth":2590,"branch":2591,"Ġapp":2592,"AS":2593,"EL":2594,"ready":2595,"ĠKeyError":2596,"utable":2597,"Const":2598,"Ġuser":2599,"BUG":2600,"expi":2601,"Gui":2602,",,,":2603,"Found":2604,"sets":2605,"defin":2606,"ALL":2607,"registr":2608,"rl":2609,"month":2610,"lush":2611,"used":2612,"perm":2613,"37":2614,"Ho":2615,"ves":2616,"sender":2617,"plt":2618,"ordering":2619,"example":2620,"grad":2621,"PAR":2622,"Down":2623,"Update":2624,"86":2625,"reason":2626,"DEBUG":2627,"iteritems":2628,"Ġiter":2629,"mbol":2630,"lask":2631,"Ġfile":2632,"setattr":2633,"ected":2634,"prev":2635,"patterns":2636,"undle":2637,"All":2638,"apshot":2639,"depth":2640,"seconds":2641,"txt":2642,"consumer":2643,"recei":2644,"Hel":2645,"ctypes":2646,"cry":2647,"iprot":2648,"subnet":2649,"score":2650,"fill":2651,"SIZE":2652,"XML":2653,"Ġrender":2654,"ocket":2655,"retty":2656,"CONT":2657,"theano":2658,"Ret":2659,"JS":2660,"ystem":2661,"na":2662,"Callback":2663,"side":2664,"Ġdo":2665,"Reg":2666,"Ġon":2667,"ptr":2668,"merge":2669,"links":2670,"Ġ[-]":2671,"wrapper":2672,"igration":2673,"quote":2674,">(":2675,"(,))<":2676,"Ġparse":2677,"\"]=":2678,"arguments":2679,"'\\":2680,"gre":2681,"_=":2682,"urllib":2683,"Page":2684,"vide":2685,"AND":2686,"operator":2687,"Su":2688,"feature":2689,"math":2690,"Open":2691,"asy":2692,"sure":2693,"Ġoptions":2694,"traceback":2695,"aly":2696,"ave":2697,"hs":2698,"layout":2699,"private":2700,"Net":2701,"uler":2702,"seed":2703,"suffix":2704,"changed":2705,"ific":2706,"_,":2707,"bits":2708,"ice":2709,"migrations":2710,"Token":2711,"getLogger":2712,"boot":2713,"tear":2714,"SU":2715,"Ġarg":2716,"upper":2717,"Output":2718,"transl":2719,"bound":2720,"shell":2721,"itory":2722,"PA":2723,"once":2724,"arr":2725,"way":2726,"proc":2727,"button":2728,"cv":2729,"counter":2730,"Child":2731,"ĠL":2732,"ards":2733,"ĠAttribute":2734,"Ġ>:<":2735,"mu":2736,"upload":2737,"tact":2738,"rf":2739,"ACK":2740,"tron":2741,"ution":2742,"39":2743,"mil":2744,"Ġcls":2745,"updated":2746,"Be":2747,"escape":2748,"RA":2749,"cover":2750,"abc":2751,"()+":2752,"download":2753,"Oper":2754,"most":2755,"manage":2756,"CODE":2757,"17":2758,"Queue":2759,">],<":2760,"ized":2761,"QtGui":2762,"oog":2763,"serv":2764,"sole":2765,"basic":2766,"Ġ\"+":2767,"tt":2768,"\":'<":2769,"interface":2770,"ware":2771,"choice":2772,"transaction":2773,"assertIn":2774,"isinstance":2775,"Clo":2776,"kind":2777,")).":2778,"/%":2779,"Template":2780,"Exist":2781,"thing":2782,"AUT":2783,"comple":2784,"Parame":2785,"chema":2786,"Contain":2787,"complete":2788,">'):<":2789,"feed":2790,"Variable":2791,"ĠE":2792,"calls":2793,"factor":2794,"free":2795,"rad":2796,"Ġres":2797,"roll":2798,"ssh":2799,"ending":2800,"literals":2801,"200":2802,"Return":2803,"modified":2804,"ĠAttributeError":2805,"cols":2806,"defer":2807,"INTER":2808,"Level":2809,"arning":2810,"01":2811,"built":2812,"Change":2813,"identifier":2814,"36":2815,"Ġbase":2816,"={\"":2817,"avail":2818,"Label":2819,"httplib":2820,")[]<":2821,"abspath":2822,"Len":2823,"sep":2824,">'},<":2825,"ITE":2826,"missing":2827,"CONF":2828,"Plugin":2829,"{})<":2830,"Ġ+<":2831,"=\"\"<":2832,"signature":2833,"),'":2834,"collections":2835,"idden":2836,"Runtime":2837,"operation":2838,"less":2839,"worker":2840,"cm":2841,"oogle":2842,"outputs":2843,"Box":2844,"':['":2845,"Ġsup":2846,"We":2847,"uld":2848,"after":2849,"game":2850,"titem":2851,"flavor":2852,"Ġread":2853,"ical":2854,"methods":2855,"Ġupdate":2856,"gpy":2857,"sho":2858,"Ġun":2859,"writer":2860,"original":2861,"WS":2862,"fName":2863,"deli":2864,"Ġst":2865,"ACE":2866,"threading":2867,"sg":2868,"READ":2869,"div":2870,"sin":2871,"ulate":2872,"calc":2873,"Header":2874,"'}<":2875,"Ġcon":2876,"extensions":2877,"Of":2878,"('%":2879,"PRE":2880,"iso":2881,"iss":2882,"Exp":2883,"Thread":2884,"runner":2885,"yaml":2886,"tex":2887,"FORM":2888,"Source":2889,"elements":2890,"byte":2891,"lt":2892,">']=":2893,"Ġcontext":2894,"ward":2895,"Ġswgpy":2896,"','--":2897,"fmt":2898,"requires":2899,"tify":2900,"hosts":2901,"({<":2902,"prior":2903,"gram":2904,"hy":2905,"Stream":2906,"commands":2907,"OT":2908,"utron":2909,"('--":2910,"COL":2911,"ple":2912,"stfName":2913,"transport":2914,"Ġ]:<":2915,"Link":2916,">',)<":2917,"tasks":2918,"require":2919,"scheme":2920,"meri":2921,"creen":2922,"Array":2923,"tems":2924,"none":2925,"flush":2926,"mid":2927,"cip":2928,"fra":2929,"Ġ][":2930,"__.__":2931,"PORT":2932,"Ġmock":2933,"vals":2934,"card":2935,"ĠHttp":2936,"hi":2937,"salt":2938,"gt":2939,"history":2940,"attach":2941,")==<":2942,"Mem":2943,"pb":2944,"Entry":2945,"basename":2946,"Argument":2947,"instances":2948,"Spec":2949,">')(":2950,"Ġpre":2951,"identity":2952,"notifi":2953,"services":2954,"INFO":2955,"details":2956,"chine":2957,"ular":2958,"QUE":2959,"ational":2960,">%":2961,">'])<":2962,"memory":2963,"Default":2964,"ession":2965,"Dir":2966,"Block":2967,"locals":2968,"tab":2969,"indices":2970,"ported":2971,"Ġmatch":2972,"RI":2973,"lazy":2974,"Ġ]+":2975,"Document":2976,"=_('<":2977,"cies":2978,"override":2979,")!=":2980,"Back":2981,"handlers":2982,"APP":2983,"One":2984,"='%":2985,"\"\"":2986,"Graph":2987,"Ġmake":2988,"CP":2989,"delay":2990,"Ġunicode":2991,"(,'":2992,"parameter":2993,"Ġ&":2994,"single":2995,"Ġ[:-":2996,"plugins":2997,"Wri":2998,"locale":2999,"tensor":3000,"issue":3001,"duration":3002,"Read":3003,"ility":3004,"should":3005,"Pa":3006,"fol":3007,"Tree":3008,"Flag":3009,"Ġsix":3010,"fixed":3011,",,,,,,,,,,,,,,,,,,,,,,,,,,,,,,,,,,,,,,,,,,,,,,,,,,,,,,,,,,,,,,,,":3012,"mox":3013,"Project":3014,"extract":3015,"Ġ'+":3016,"decor":3017,"=['<":3018,"(,),(,),(,),(,),":3019,"flat":3020,"marker":3021,"fixture":3022,"tity":3023,"ĠBase":3024,"snapshot":3025,"rary":3026,"Ġmodels":3027,"MIN":3028,"panel":3029,"ition":3030,"reader":3031,"Exten":3032,"endswith":3033,"aded":3034,"MI":3035,"Ġo":3036,"pickle":3037,"sv":3038,"gether":3039,"Obj":3040,"workflow":3041,"intern":3042,"pd":3043,"scal":3044,"gy":3045,"assign":3046,"MENT":3047,"_.":3048,"()]<":3049,"states":3050,"period":3051,"System":3052,"scri":3053,"aggreg":3054,"emit":3055,"GS":3056,">',\"":3057,"click":3058,"Util":3059,"neutron":3060,"ug":3061,"XT":3062,"media":3063,"Sh":3064,"external":3065,"gettext":3066,"normal":3067,"Seriali":3068,"Job":3069,"Rel":3070,"this":3071,"selected":3072,"Button":3073,"RuntimeError":3074,"umb":3075,"rb":3076,"setdefault":3077,"Ġstart":3078,"poly":3079,"Exec":3080,"tempfile":3081,"Ġ}":3082,"csv":3083,"pipeline":3084,"CONFI":3085,"NOT":3086,"cwd":3087,"recor":3088,"\"],":3089,"duce":3090,"revision":3091,"ked":3092,"New":3093,"home":3094,"Float":3095,"Ġlog":3096,"Ġdi":3097,",),":3098,"__.":3099,"84":3100,"done":3101,"']='":3102,"keep":3103,"ops":3104,"NotFound":3105,"star":3106,"_)<":3107,"retry":3108,"Ġ[]=":3109,"oolean":3110,"constra":3111,"Ref":3112,"Ġ>>":3113,"(\"%":3114,"=\"%":3115,"cached":3116,"Port":3117,"generator":3118,"isted":3119,"versions":3120,"ination":3121,"outfile":3122,"setting":3123,"editor":3124,"Ġtw":3125,"//":3126,"Cur":3127,"SA":3128,"authenti":3129,"Ġabsolute":3130,"orter":3131,"vari":3132,"Pri":3133,"255":3134,"reque":3135,"push":3136,"bundle":3137,"together":3138,"hape":3139,"Uni":3140,"expand":3141,"Host":3142,"oc":3143,"tered":3144,"before":3145,"failure":3146,"switch":3147,"registry":3148,"allowed":3149,"STATUS":3150,"utc":3151,"SQ":3152,"ace":3153,"Network":3154,"dn":3155,"ValidationError":3156,"Ġ<:<":3157,"PY":3158,"ECT":3159,"PER":3160,"django":3161,"relation":3162,"90":3163,"termin":3164,"light":3165,">'),":3166,"times":3167,"Post":3168,"deleted":3169,"DateTime":3170,"rer":3171,"LU":3172,"ged":3173,"reference":3174,"SY":3175,"servers":3176,"(),)<":3177,">])<":3178,"ven":3179,"series":3180,"Boolean":3181,"fast":3182,"'][":3183,"apply":3184,"sequence":3185,"days":3186,"]=":3187,"ONE":3188,"permissions":3189,"FLA":3190,"rowser":3191,"samples":3192,"uch":3193,"summary":3194,"Ġerror":3195,"Colle":3196,"85":3197,"bi":3198,"iler":3199,"klass":3200,"':('":3201,"tim":3202,"ates":3203,"credentials":3204,"blob":3205,"visit":3206,"question":3207,"Buffer":3208,"Ph":3209,"Options":3210,"enable":3211,"timedelta":3212,"MODE":3213,"Descrip":3214,"cated":3215,"vs":3216,"gpu":3217,"Iter":3218,"JECT":3219,"cpu":3220,",],[":3221,"digest":3222,"added":3223,"power":3224,"Fake":3225,"dig":3226,"=('<":3227,"cos":3228,"Start":3229,">{<":3230,"()):<":3231,"export":3232,"zero":3233,"WN":3234,"Core":3235,"Ġrow":3236,"ater":3237,"JSON":3238,"Wr":3239,"high":3240,"Ġindex":3241,"dns":3242,"drop":3243,"70":3244,"counts":3245,"tile":3246,"Layout":3247,"Session":3248,"\").":3249,"Ġmain":3250,"ĠMeta":3251,"LATE":3252,"fer":3253,"person":3254,"dependencies":3255,"CRE":3256,"amount":3257,"false":3258,"Ma":3259,"Sett":3260,"Ġop":3261,"oly":3262,"ench":3263,"WORD":3264,"TEMP":3265,"Constant":3266,"CONFIG":3267,"alized":3268,"STRING":3269,"dar":3270,"='/":3271,"ection":3272,"thresh":3273,"errno":3274,"sqrt":3275,"Dec":3276,"constraint":3277,"Match":3278,"Ġprint":3279,"Buil":3280,"tf":3281,"tearDown":3282,"ik":3283,"stub":3284,"note":3285,"Simple":3286,"Parse":3287,"Ġ]))<":3288,"44":3289,"nan":3290,"cost":3291,"vers":3292,"Stop":3293,"some":3294,"rection":3295,"targets":3296,"AUTH":3297,"shutil":3298,"mpt":3299,"Ġzip":3300,"NUM":3301,"comments":3302,"jobs":3303,"stdin":3304,"ifier":3305,"progress":3306,"Ġgetattr":3307,"resolve":3308,"priority":3309,"ĠUser":3310,"tom":3311,"final":3312,"monitor":3313,"lip":3314,"proces":3315,"Storage":3316,">:,<":3317,"Range":3318,"sol":3319,"ATTR":3320,"finish":3321,"condition":3322,"support":3323,"unpack":3324,"dc":3325,"','-":3326,"vious":3327,"statement":3328,"tack":3329,"environment":3330,"available":3331,"repository":3332,"tb":3333,"sive":3334,"',),<":3335,"mime":3336,"blue":3337,"ĠH":3338,"decl":3339,";<":3340,"bal":3341,"CESS":3342,"ribu":3343,"Fail":3344,"Ġkwargs":3345,"HOST":3346,"vp":3347,"Ġsuper":3348,"agic":3349,"OF":3350,",,)<":3351,"partial":3352,"tical":3353,"Rule":3354,"wsgi":3355,"decimal":3356,"Ne":3357,"Ġy":3358,"analy":3359,"player":3360,"Ġtext":3361,"pytest":3362,"virt":3363,"TEXT":3364,"()==":3365,"repe":3366,"CS":3367,"console":3368,"integer":3369,"complex":3370,"Ġclo":3371,"pare":3372,"USE":3373,"'],'":3374,"(('":3375,"two":3376,"units":3377,"screen":3378,"entries":3379,"==\"__":3380,"ND":3381,"Length":3382,"Ġ]['":3383,"99":3384,"running":3385,"matches":3386,"__\":<":3387,"GER":3388,"Serializer":3389,"configuration":3390,"Ġwrite":3391,"ancel":3392,"33":3393,"nam":3394,"pending":3395,"uff":3396,"freq":3397,"schedule":3398,"coord":3399,"ured":3400,"Bin":3401,"EM":3402,"draw":3403,">':'<":3404,"present":3405,"symmetric":3406,"gb":3407,"ROOT":3408,">}":3409,"Ġdelete":3410,"']))<":3411,"fg":3412,"PUT":3413,"ram":3414,"pairs":3415,"76":3416,"loaded":3417,"uble":3418,"Ġ!='":3419,"URE":3420,"TED":3421,"My":3422,"ADD":3423,"PIPE":3424,":%":3425,"Ġform":3426,"anization":3427,"known":3428,"mag":3429,"__==\"__":3430,"Build":3431,"lon":3432,"internal":3433,"ics":3434,"ncy":3435,"cleaned":3436,"Ġall":3437,"machine":3438,"ases":3439,"icon":3440,"\":[":3441,"ible":3442,"Ġchild":3443,">'],<":3444,"pretty":3445,"lime":3446,"beta":3447,"404":3448,"mpl":3449,"Ġsy":3450,"',[":3451,"Ġevent":3452,"Bar":3453,"variables":3454,"Cl":3455,"Work":3456,"__()<":3457,"Ġdefault":3458,"contact":3459,"failed":3460,"Ġmodel":3461,"ips":3462,"Proxy":3463,"destination":3464,"sess":3465,"templates":3466,"when":3467,"lear":3468,"sim":3469,"gorith":3470,"roles":3471,"55":3472,"CI":3473,"WA":3474,"cii":3475,"periment":3476,"ntax":3477,"andid":3478,"\"],<":3479,"Magic":3480,"validation":3481,"...":3482,"seen":3483,"meas":3484,"edges":3485,"dl":3486,"theme":3487,"hour":3488,"angle":3489,"predi":3490,"neg":3491,"Ġload":3492,"Ġhandle":3493,"clone":3494,"Ġtwisted":3495,"callable":3496,"nullable":3497,"where":3498,"center":3499,"processor":3500,"TIME":3501,"(%":3502,"apter":3503,"cryp":3504,"izer":3505,"setUp":3506,"scheduler":3507,"verb":3508,"Parameter":3509,"=='<":3510,"Ġbuild":3511,"pad":3512,"quire":3513,"seg":3514,"Lock":3515,"Delete":3516,"mm":3517,"cut":3518,"ascii":3519,">'%(<":3520,"css":3521,"vector":3522,"price":3523,"Identi":3524,"basestring":3525,"crip":3526,"abstract":3527,"'^":3528,"Author":3529,"ural":3530,"trig":3531,"translation":3532,"Ge":3533,"timezone":3534,"globals":3535,"bro":3536,"atom":3537,"poll":3538,"Enum":3539,"pg":3540,"segment":3541,"Sign":3542,"cene":3543,"IntegerField":3544,"SSL":3545,"()-":3546,"existing":3547,">['":3548,"SK":3549,"Warning":3550,"ensure":3551,"accept":3552,"refresh":3553,"visible":3554,"world":3555,"Ġformat":3556,"hello":3557,"stmt":3558,"Phone":3559,"enum":3560,"=[(":3561,"roy":3562,"tificate":3563,"colors":3564,"metrics":3565,"named":3566,"Database":3567,"UE":3568,"review":3569,"href":3570,"dependency":3571,"DF":3572,"rev":3573,"Comment":3574,"sd":3575,"SM":3576,"ĠRuntimeError":3577,"holder":3578,"components":3579,"rove":3580,"responses":3581,"Layer":3582,"follow":3583,"Ġint":3584,"Ġexc":3585,"unds":3586,"89":3587,"geo":3588,"symbol":3589,"Pass":3590,"changes":3591,"Position":3592,"Ġval":3593,"mension":3594,"OB":3595,"ĠHttpResponse":3596,"\":{<":3597,"prompt":3598,"Pack":3599,"Does":3600,"LED":3601,"cu":3602,"ffi":3603,"digits":3604,"nn":3605,"Ġ+)<":3606,"MagicMock":3607,"ometry":3608,"Migration":3609,"vas":3610,"Redirect":3611,"Ġurllib":3612,"NotExist":3613,"keywords":3614,"Ġdict":3615,"inv":3616,"Ġsk":3617,"pages":3618,"async":3619,"Target":3620,"asset":3621,"QUEST":3622,"sitive":3623,"nected":3624,"possible":3625,"cd":3626,"cid":3627,"closed":3628,"expression":3629,"AB":3630,"OS":3631,"Ġcore":3632,"35":3633,"wal":3634,"Extension":3635,"assertNot":3636,"align":3637,"Ġoutput":3638,"lots":3639,"thumb":3640,"mapper":3641,"sources":3642,"[].":3643,"distance":3644,"SQL":3645,"ado":3646,"ipv":3647,"effect":3648,"reactor":3649,"imum":3650,"scription":3651,"0000":3652,"Ġcopy":3653,"olution":3654,">').":3655,",]<":3656,"Profile":3657,"mpty":3658,"tyle":3659,"MAP":3660,">':<":3661,"Ġ+='<":3662,"aff":3663,"best":3664,"TEMPLATE":3665,"records":3666,"compat":3667,"Ġpytest":3668,"members":3669,"inline":3670,"dle":3671,"prec":3672,"Ġmsg":3673,"networks":3674,"previous":3675,"]+":3676,"DU":3677,"Ren":3678,"-%":3679,"worksheet":3680,"nb":3681,"cond":3682,"ested":3683,"listener":3684,"\",),(\"":3685,"bases":3686,"ee":3687,"Ġ},<":3688,"Sto":3689,"symmetrical":3690,"Many":3691,"ach":3692,"Loader":3693,"DoesNotExist":3694,"Ġfilename":3695,"ja":3696,"des":3697,"VALID":3698,"1234":3699,"pace":3700,"SIG":3701,"Ordered":3702,"usto":3703,"LIST":3704,"cus":3705,"white":3706,"almost":3707,"__(*":3708,"fixtures":3709,"Dummy":3710,"Ġexception":3711,"29":3712,"begin":3713,"xx":3714,"alg":3715,"partition":3716,",],<":3717,"=__":3718,"configure":3719,"minute":3720,"GI":3721,"FIFF":3722,"video":3723,"mily":3724,"team":3725,"(\"/":3726,"Ġ+='":3727,"translate":3728,"cnt":3729,"tegr":3730,"functions":3731,"wrapped":3732,"Order":3733,"Row":3734,"TType":3735,"boo":3736,"ating":3737,"chemy":3738,"annotation":3739,"gateway":3740,",,],<":3741,"backup":3742,"contains":3743,"Location":3744,"Role":3745,"Mat":3746,"executable":3747,"supported":3748,"CR":3749,"family":3750,"timer":3751,"Ġutils":3752,"unknown":3753,"=*":3754,"rng":3755,",{'":3756,"nx":3757,"thr":3758,"VICE":3759,"scalar":3760,"Menu":3761,"Ġout":3762,"iff":3763,"lap":3764,"spe":3765,"REQUEST":3766,"74":3767,"reply":3768,"licen":3769,"Search":3770,"Settings":3771,"[-":3772,"dummy":3773,"vol":3774,"props":3775,"COMP":3776,"ĠIn":3777,"ones":3778,"ctionary":3779,"Ġfunc":3780,"med":3781,"getitem":3782,"LD":3783,"Application":3784,"ĠN":3785,"Schema":3786,"fl":3787,"Controller":3788,"Component":3789,"ifest":3790,"ustomer":3791,"Tab":3792,"Ġnova":3793,",])<":3794,"}'.":3795,"adding":3796,"descriptor":3797,"Api":3798,"If":3799,"Unless":3800,"Generic":3801,"retri":3802,"fh":3803,"Policy":3804,"HTML":3805,"Ab":3806,"cla":3807,"Regex":3808,"generic":3809,"allclose":3810,"Pool":3811,"Load":3812,"cript":3813,"Ġinstance":3814,"percent":3815,"ULL":3816,"subscri":3817,"pdu":3818,"Style":3819,"Ġattr":3820,"Ġtask":3821,"ADER":3822,"wn":3823,"(\"\\":3824,"serve":3825,"deep":3826,"archive":3827,"ĠGet":3828,"vert":3829,"recv":3830,"75":3831,">'})<":3832,"CA":3833,"ground":3834,"Account":3835,"CLA":3836,"LS":3837,"sr":3838,"deployment":3839,"cri":3840,"ii":3841,"just":3842,"Ġvis":3843,"gent":3844,"chart":3845,"docs":3846,"Select":3847,"need":3848,"UID":3849,"threshold":3850,"watch":3851,"Ġcode":3852,"Ġmethod":3853,"metavar":3854,"Ġgoogle":3855,"rank":3856,"()[]<":3857,"Ġ'%":3858,"wner":3859,"spaces":3860,"'),(":3861,"channels":3862,"gorithm":3863,"hdr":3864,"Ġprocess":3865,"ĠtearDown":3866,"ITY":3867,"mote":3868,"([\"":3869,"LINE":3870,"Ġsql":3871,"38":3872,"IndexError":3873,"dp":3874,"Ġtoken":3875,"AndReturn":3876,"Ġreg":3877,"stri":3878,"alloc":3879,"FIX":3880,"Ġz":3881,"]))<":3882,"bg":3883,"ln":3884,"Ġerr":3885,"learn":3886,"management":3887,"({":3888,"scan":3889,"ius":3890,"Ġrandom":3891,"Attr":3892,"].":3893,"border":3894,"aa":3895,"DELE":3896,"mgr":3897,"places":3898,"FIEL":3899,"proj":3900,"poch":3901,"baz":3902,"Domain":3903,"CM":3904,"ils":3905,"article":3906,"shift":3907,"outh":3908,"cing":3909,"Record":3910,"Ġ\"%":3911,"ae":3912,"pix":3913,"pagin":3914,"Ġvalidate":3915,"Ġ[]+":3916,"wards":3917,"pipe":3918,"MGL":3919,"='',":3920,",),<":3921,"Bad":3922,"COMM":3923,"Ġtag":3924,"INST":3925,"Ġ[:])<":3926,"Device":3927,"ification":3928,"Panel":3929,"inal":3930,"ane":3931,"Ġfind":3932,"79":3933,"Xml":3934,"__='":3935,"Binary":3936,"Ġsocket":3937,"oriz":3938,"isten":3939,"operations":3940,"Stats":3941,"plain":3942,"Auto":3943,"dra":3944,"hidden":3945,"library":3946,"how":3947,"LL":3948,"pose":3949,"weights":3950,"firm":3951,"gistr":3952,"Ġsorted":3953,"Ġq":3954,"Stack":3955,"recur":3956,"Permission":3957,")(":3958,"fr":3959,"AF":3960,"(\"-":3961,"Interface":3962,"FORMAT":3963,"Web":3964,"sto":3965,"resses":3966,"Sup":3967,"Ġaction":3968,"submit":3969,"etree":3970,"green":3971,"arange":3972,"cmp":3973,"andard":3974,"Jo":3975,"Ġid":3976,"chars":3977,"many":3978,"angible":3979,"lite":3980,"tmpdir":3981,"Owner":3982,"ĠW":3983,"Ġclient":3984,"tick":3985,"pred":3986,"Ġflask":3987,"256":3988,"CHE":3989,"neigh":3990,"Encoder":3991,"Configuration":3992,"Hash":3993,"execution":3994,"Cho":3995,"filepath":3996,"NET":3997,"Ġassert":3998,">**":3999,"lb":4000,"sli":4001,"Begin":4002,"inner":4003,"may":4004,"formatter":4005,"ross":4006,"connections":4007,"destroy":4008,"zen":4009,"Ġ-<":4010,"Args":4011,"Ġmessage":4012,"unch":4013,"Ġstring":4014,"LEN":4015,"Foo":4016,"ategory":4017,"Ġ''<":4018,"Unicode":4019,"LOW":4020,"distribu":4021,"pm":4022,"compare":4023,"lyph":4024,"thrift":4025,"=%":4026,"Ġ[]['":4027,"('_":4028,"license":4029,"codes":4030,"Keyword":4031,"Collection":4032,"dims":4033,"country":4034,"ends":4035,"Local":4036,"namic":4037,"SERVER":4038,"\",\"--":4039,"ools":4040,"Ġresp":4041,"ĠIO":4042,"fri":4043,"fid":4044,"mbed":4045,"layers":4046,"dash":4047,"national":4048,"reshape":4049,"()),<":4050,"69":4051,"Ġch":4052,"dirty":4053,"like":4054,"),'<":4055,"Failure":4056,"PL":4057,"ump":4058,"Ġcollections":4059,">'--":4060,"candid":4061,"Coun":4062,"Ġ[],<":4063,"tol":4064,"packet":4065,"compress":4066,"uth":4067,"axes":4068,">:'":4069,"ANGE":4070,"arc":4071,"keyword":4072,"PhoneNumber":4073,"lities":4074,"':'#":4075,"ART":4076,"sl":4077,"Mod":4078,"getvalue":4079,"notify":4080,"aggregate":4081,"qname":4082,"Ġfrom":4083,"Ġapi":4084,"21":4085,"At":4086,"lege":4087,"LOC":4088,"CTION":4089,"Reference":4090,"IS":4091,"ia":4092,"stre":4093,"Types":4094,"aler":4095,"direction":4096,"alchemy":4097,"cred":4098,"builtin":4099,"Ġ1":4100,"assertIsInstance":4101,"zation":4102,"ide":4103,"helpers":4104,"Sequence":4105,"bt":4106,"Ġcurrent":4107,"GR":4108,"ANG":4109,"FT":4110,"aliases":4111,"=_(\"":4112,"utor":4113,"activity":4114,"sur":4115,"tep":4116,"STATE":4117,"got":4118,"enter":4119,"vr":4120,"=))<":4121,"Ġ[(":4122,"isfile":4123,"sublime":4124,"SCR":4125,"separ":4126,"faces":4127,"bench":4128,"Store":4129,"'),'":4130,"hq":4131,"Ġco":4132,"Description":4133,"tar":4134,"Ġopt":4135,"connected":4136,"fakes":4137,"Ġstatus":4138,"Ġdoc":4139,"instr":4140,"DATE":4141,"spi":4142,"measure":4143,"Listen":4144,"boto":4145,"seek":4146,"Timeout":4147,"Direct":4148,"orizon":4149,"Ġ:'":4150,"cycle":4151,"browser":4152,"gue":4153,"spect":4154,"funct":4155,"Ġremove":4156,"trigger":4157,"UND":4158,"mul":4159,"memo":4160,"ModelAdmin":4161,"Provider":4162,"alled":4163,"Suite":4164,"Access":4165,".%":4166,"RED":4167,"pie":4168,"Values":4169,"vec":4170,"Ġgroup":4171,"ĠCommand":4172,"prepare":4173,"isdir":4174,"Off":4175,"big":4176,"stone":4177,"26":4178,"served":4179,"Ġreverse":4180,"ateri":4181,"']+":4182,"Bytes":4183,"ingle":4184,"compiler":4185,"Json":4186,"quan":4187,"EXT":4188,"derer":4189,"widgets":4190,"iv":4191,"Ġpost":4192,"Tool":4193,"recip":4194,"vistra":4195,"OrderedDict":4196,"bd":4197,"__='<":4198,"_):<":4199,"Wrapper":4200,"crement":4201,"ĠĠĠ":4202,"(,):<":4203,"readline":4204,"cleanup":4205,"lab":4206,"threads":4207,"',,":4208,"Mar":4209,"bb":4210,")**":4211,"ftp":4212,"double":4213,"([<":4214,"dic":4215,"ET":4216,"hoto":4217,"ords":4218,"(_('<":4219,"datastore":4220,"()])<":4221,"acc":4222,",['":4223,"_('":4224,"Ġpatch":4225,"\",)<":4226,"ĠV":4227,"runtime":4228,"Max":4229,"ugh":4230,"Password":4231,"://":4232,"ĠInvalid":4233,"Decimal":4234,"normalize":4235,"Ġerrors":4236,"sertion":4237,"blocks":4238,"128":4239,"Ġ!=:<":4240,"evalu":4241,"typ":4242,"Formatter":4243,"functools":4244,"setter":4245,"cancel":4246,"Ġ[]==":4247,"ifiers":4248,"scene":4249,"']=='":4250,"ftime":4251,">'],":4252,"dio":4253,"Operation":4254,"13":4255,"osity":4256,"END":4257,"gid":4258,"Min":4259,"_%":4260,"TAG":4261,"__,<":4262,"binding":4263,"PhoneNumberDesc":4264,"vstruct":4265,"),(,,":4266,"validators":4267,"123":4268,"placeholder":4269,"='.":4270,"atio":4271,"TYPES":4272,"OUT":4273,"lim":4274,"itude":4275,"Ġ\".":4276,"processed":4277,"Ġstate":4278,"strings":4279,"ux":4280,"Ġvisit":4281,"numbers":4282,"recipient":4283,"strap":4284,"remain":4285,"(\".":4286,"itle":4287,"manifest":4288,")],<":4289,"selection":4290,"ident":4291,"astype":4292,"multiple":4293,"Ali":4294,"cookies":4295,"02":4296,"PC":4297,"UNK":4298,"Popen":4299,"ĠIOError":4300,"ush":4301,"utdown":4302,"Exit":4303,"LOCK":4304,"organization":4305,"oci":4306,"trip":4307,"etadata":4308,"steps":4309,"TS":4310,"arm":4311,"void":4312,"definition":4313,"Dist":4314,"sid":4315,"ability":4316,"Ġsave":4317,"PARAM":4318,"Channel":4319,"Ameri":4320,"addCallback":4321,"SPACE":4322,"Builder":4323,"Url":4324,"Ġdist":4325,"SCRIP":4326,"ĠHTTP":4327,"Ġ+,":4328,"\":,<":4329,"week":4330,"prob":4331,"loss":4332,"Ġother":4333,"America":4334,"apping":4335,"pdf":4336,"ĠNo":4337,"invo":4338,"VAR":4339,"urlparse":4340,"Ġ[]))<":4341,"tablename":4342,"['<":4343,"Ġlib":4344,"wb":4345,"pixel":4346,"MIT":4347,"strftime":4348,"Transport":4349,"Matrix":4350,"Ġclean":4351,"correct":4352,"Ġ+=\"":4353,"prote":4354,"signed":4355,"Poly":4356,"')),('":4357,"lendar":4358,"boolean":4359,"Member":4360,"customer":4361,"inx":4362,"addresses":4363,"()),":4364,"Lib":4365,"nova":4366,">:\"":4367,"lists":4368,"xpath":4369,"repeat":4370,"gui":4371,"ways":4372,"ero":4373,"phone":4374,"em":4375,"geom":4376,"deepcopy":4377,"dh":4378,"Mode":4379,"'s":4380,"very":4381,"curr":4382,"Product":4383,"Container":4384,"gn":4385,"rozen":4386,"HA":4387,"WR":4388,"serial":4389,"Site":4390,">'),('":4391,"dock":4392,"ANY":4393,"Ġsu":4394,"specs":4395,"ness":4396,"Write":4397,"tial":4398,"DELETE":4399,"GRO":4400,"ich":4401,"vlan":4402,"more":4403,"answer":4404,"validator":4405,"Pub":4406,"bla":4407,"Root":4408,"Ġcommand":4409,"Ġhash":4410,"Files":4411,"Failed":4412,"CONTENT":4413,"[,,":4414,"theta":4415,"brl":4416,"tid":4417,"relative":4418,"annotations":4419,"MAGE":4420,"Ġsubprocess":4421,"Font":4422,"Pr":4423,"unic":4424,"dup":4425,"neighb":4426,"Ġsend":4427,"bounds":4428,"Ġversion":4429,"ines":4430,"')]<":4431,"CES":4432,"Edit":4433,"chunks":4434,"Ġimage":4435,"conv":4436,"andom":4437,"canvas":4438,"QtCore":4439,"HEADER":4440,"]:<":4441,"disc":4442,"Ġsouth":4443,"using":4444,"Environ":4445,"verbosity":4446,"dleware":4447,"'*":4448,"Ġsource":4449,"MAIL":4450,"SUB":4451,"ture":4452,"latest":4453,"UNT":4454,"Ġ{'":4455,"reduce":4456,"chr":4457,"60":4458,"Ġview":4459,"Ġ[:,:":4460,"structure":4461,"ĠTestCase":4462,"Static":4463,"MMAL":4464,"Ġopts":4465,"','.":4466,"refs":4467,"failUnless":4468,"Ġquery":4469,"Lookup":4470,"Series":4471,"curren":4472,"Inline":4473,"chan":4474,"ulk":4475,"Handle":4476,"Folder":4477,"gs":4478,"cenar":4479,"Cluster":4480,"Ġweb":4481,"ĠStringIO":4482,"nested":4483,"equals":4484,"acy":4485,"Names":4486,"URI":4487,"collect":4488,"delim":4489,"epoch":4490,"pas":4491,"peer":4492,"Tran":4493,"DataCache":4494,"Entity":4495,"CHAR":4496,"construct":4497,"(,,)<":4498,"ros":4499,"Defin":4500,"Params":4501,"Generator":4502,"Ġ:\"":4503,"updates":4504,"Plan":4505,"fw":4506,"xs":4507,"signals":4508,"\"][\"":4509,"Ġresults":4510,",'_":4511,"projects":4512,"dd":4513,"grp":4514,"deps":4515,"VT":4516,"Reader":4517,"bp":4518,"Dialog":4519,"impl":4520,"Ġ{}<":4521,"IE":4522,"ferences":4523,"facts":4524,"Basic":4525,"padding":4526,"SSION":4527,"([,,":4528,"disable":4529,"charset":4530,"Main":4531,"(),'":4532,"constant":4533,"ting":4534,"grade":4535,"servation":4536,"take":4537,"Ġ[][]":4538,"Choice":4539,"Metadata":4540,"Report":4541,"VarInt":4542,"{}),<":4543,"88":4544,"MT":4545,"rup":4546,"Ġparams":4547,"cov":4548,"Stub":4549,">'%<":4550,"acity":4551,"FLAGS":4552,"Vector":4553,"CC":4554,"iform":4555,"),\"":4556,"DateTimeField":4557,"ga":4558,"Mis":4559,"VM":4560,"'][]":4561,"Width":4562,"Feature":4563,"enc":4564,">%(":4565,"Agent":4566,"Socket":4567,"Ġinfo":4568,"scripts":4569,"fire":4570,"backends":4571,"mq":4572,"special":4573,"cases":4574,"pointer":4575,"',),('":4576,"ACHE":4577,"extr":4578,"Comple":4579,"mongo":4580,"quired":4581,"Book":4582,",[])<":4583,"Edge":4584,"Ġold":4585,"selector":4586,"tivity":4587,"509":4588,"formset":4589,"received":4590,"submission":4591,"ĠX":4592,"rough":4593,"indexes":4594,"catalog":4595,"']='<":4596,"floating":4597,"\"\\":4598,"Ġ[]:<":4599,"Deta":4600,"Runner":4601,"serializers":4602,"BR":4603,"getter":4604,"']==":4605,"bottom":4606,"Email":4607,"OD":4608,"mc":4609,"mtime":4610,"TIM":4611,"UI":4612,"\"]:<":4613,"Package":4614,"77":4615,"Ġnext":4616,"gc":4617,"Expression":4618,"notification":4619,"bed":4620,"pin":4621,"adapter":4622,"inspect":4623,"Mon":4624,"ev":4625,"workspace":4626,"ditional":4627,"phinx":4628,"area":4629,"Ġtarget":4630,"coords":4631,"inger":4632,"adcast":4633,"Constra":4634,"documents":4635,"ĠUn":4636,"ups":4637,"band":4638,"Tra":4639,"NODE":4640,"BooleanField":4641,"Ġ-=<":4642,"span":4643,"rhs":4644,"23":4645,"ka":4646,"-:<":4647,"ring":4648,"plus":4649,"*.":4650,"Ġsh":4651,"program":4652,"localhost":4653,"OPTION":4654,"nargs":4655,"experiment":4656,"dimension":4657,"sentry":4658,"='\\":4659,"configs":4660,"Norm":4661,"Ġcount":4662,"')))<":4663,"CLI":4664,"Ġshow":4665,"redis":4666,"Driver":4667,"127":4668,">'+<":4669,"Environment":4670,"CUR":4671,"licit":4672,"appengine":4673,"sla":4674,"radius":4675,"uffle":4676,"nado":4677,"adv":4678,"acquire":4679,"tester":4680,"ldap":4681,"POINTER":4682,"Ġclose":4683,"mpu":4684,"(\"--":4685,"Ġcmd":4686,"PEN":4687,"TextField":4688,"kill":4689,"METH":4690,"Ġgenerate":4691,"Ġfn":4692,"Ġ//":4693,"started":4694,"Del":4695,"exact":4696,"subscription":4697,"iterable":4698,"MAIN":4699,")+<":4700,"sigma":4701,"Ġexceptions":4702,"oll":4703,")[:":4704,">=":4705,"asarray":4706,"Ġ[]=='":4707,"routes":4708,"Listener":4709,"NULL":4710,"anon":4711,"ĠOS":4712,"',['":4713,"Ġ{<":4714,"terms":4715,"parents":4716,"Cook":4717,"PASS":4718,"completed":4719,"OFP":4720,"Ġcorehq":4721,"algorithm":4722,"eries":4723,"migration":4724,"siz":4725,">:'<":4726,"car":4727,"pw":4728,">'),('<":4729,"','')<":4730,"Tangible":4731,"__))<":4732,"ORY":4733,"bra":4734,"ATTRI":4735,"clu":4736,"Top":4737,"live":4738,"Registr":4739,"(,'<":4740,"optional":4741,"Helper":4742,",,,,,,,,,,,,,,,,,,,,,,,,,,,,,,,,,,,,,,,,,,,,,,,,,,,,,,,,,,,,,,,,,,,,,,,,,,,,,,,,,,,,,,,,,,,,,,,,,,,,,,,,,,,,,,,,,,,,,,,,,,,,,,,,":4743,"(,),(,),(,),(,),(,),(,),(,),(,),":4744,"walk":4745,"inity":4746,">['<":4747,"PREFIX":4748,"meric":4749,"Writer":4750,"andas":4751,"IF":4752,"mouse":4753,"pow":4754,"DataFrame":4755,"copi":4756,"argparse":4757,"Ġ+'.":4758,"Cloud":4759,"ndim":4760,"bootstrap":4761,"BER":4762,"VStruct":4763,"Ġcol":4764,"Backend":4765,"ube":4766,"COLOR":4767,"Ġfilter":4768,"Ġtheano":4769,">',[],{}),<":4770,"erred":4771,"KEN":4772,">',),<":4773,"Arti":4774,"secure":4775,"CACHE":4776,"same":4777,"WORK":4778,"egg":4779,"prox":4780,"Person":4781,"SOUR":4782,"66":4783,"ratio":4784,"proble":4785,"figure":4786,"IMAGE":4787,"wt":4788,"randint":4789,"WAR":4790,"tic":4791,"chdir":4792,"Recei":4793,"mpro":4794,"resize":4795,"lst":4796,"mbols":4797,"pet":4798,"produ":4799,"predict":4800,"cenario":4801,"eded":4802,"Ġjob":4803,"discover":4804,"relationship":4805,"ANCE":4806,"gories":4807,"lif":4808,"topo":4809,"CF":4810,"GP":4811,"Parent":4812,"Title":4813,">')%":4814,"inc":4815,"forward":4816,"tract":4817,"\"\"<":4818,"Cer":4819,"compati":4820,"\"].":4821,"Msg":4822,"trait":4823,"Func":4824,"attemp":4825,"ONG":4826,"Ġ[-]<":4827,"':_":4828,"Ġ]*":4829,"Ġ*(":4830,"alect":4831,"cidr":4832,"Constraint":4833,"sparse":4834,"',)":4835,"diag":4836,"Dep":4837,"today":4838,"clients":4839,"lwrite":4840,"iface":4841,"Has":4842,"Attributes":4843,"Transform":4844,"Ġinit":4845,"inder":4846,"ons":4847,"direc":4848,"','/":4849,"Ġnum":4850,"parsers":4851,"lobal":4852,"ctrl":4853,"formats":4854,"returns":4855,"objs":4856,"27":4857,"EOUT":4858,"encoder":4859,"quota":4860,"verage":4861,"activate":4862,"RES":4863,"MAL":4864,"Ġtemplate":4865,"kwds":4866,"Ġsa":4867,"ERY":4868,"Named":4869,",_=":4870,"Utils":4871,"DA":4872,"ful":4873,"splitlines":4874,"strict":4875,"rr":4876,"visor":4877,"ks":4878,"mg":4879,"dom":4880,"SHA":4881,"coro":4882,"cybox":4883,"crypt":4884,"gam":4885,"share":4886,"ĠMigration":4887,"abi":4888,"ticket":4889,"Ġdate":4890,"Ġ{}":4891,"expires":4892,"frozen":4893,"lopen":4894,"ategy":4895,"notes":4896,"listdir":4897,"Ġinput":4898,"())":4899,"Empty":4900,"Ġclear":4901,"deri":4902,"alth":4903,"ulation":4904,"PROTO":4905,"Ġsalt":4906,"CHO":4907,"Custom":4908,"ĠIndexError":4909,">':{'":4910,"STO":4911,"processing":4912,"Ġ>=:<":4913,"Python":4914,"Ġ2":4915,"exe":4916,",],[,],[":4917,"Ġ['_":4918,"perform":4919,"TABLE":4920,"Cor":4921,"room":4922,"good":4923,"what":4924,"Cons":4925,"limits":4926,"BE":4927,"kip":4928,"Track":4929,"writeField":4930,"moves":4931,"hint":4932,"tcp":4933,"ĠSer":4934,"FIELD":4935,"workbook":4936,"ĠEx":4937,"ĠValidationError":4938,">'-":4939,"iki":4940,"(','":4941,"({\"":4942,"NING":4943,"Pick":4944,"TCP":4945,"inja":4946,"Ġxml":4947,"saved":4948,"Ġmode":4949,"Ġsqlalchemy":4950,"ĠOSError":4951,"COM":4952,"encoded":4953,"Clean":4954,"rdf":4955,"START":4956,"flatten":4957,"Ġmodule":4958,"sia":4959,"spawn":4960,"Ti":4961,"roke":4962,"Raw":4963,"Ġmax":4964,"EC":4965,"dia":4966,"autos":4967,"ProtocolBuffer":4968,"yes":4969,"ĠCon":4970,"Grid":4971,"Debug":4972,"iterator":4973,"':(":4974,"LY":4975,"'],)<":4976,"already":4977,"vim":4978,"MEDI":4979,"PROJECT":4980,"Zero":4981,"Ġport":4982,"hooks":4983,"87":4984,"GROUP":4985,"caller":4986,"Nodes":4987,"ContentType":4988,"curl":4989,"INVALID":4990,"COUNT":4991,"TIMEOUT":4992,"trun":4993,"mesh":4994,"avg":4995,"CLASS":4996,"Offset":4997,"Category":4998,"Ġcall":4999,"Ġserver":5000,"compo":5001,"https":5002,"cipher":5003,"lr":5004,"background":5005,"interp":5006,"Mapping":5007,"}\".":5008,"Ġgen":5009,"=[]":5010,">[,,],<":5011,"Items":5012,"findall":5013,"Configured":5014,"clf":5015,"olver":5016,"logs":5017,"sizes":5018,"mpf":5019,"rstrip":5020,"IsA":5021,"Only":5022,"finished":5023,"without":5024,"')),<":5025,"Ax":5026,"lv":5027,"cross":5028,"Cookie":5029,"kit":5030,"urlopen":5031,"itter":5032,"Ġsetuptools":5033,"Xbrl":5034,"jid":5035,"slots":5036,"Ġrecord":5037,"Abstract":5038,"coding":5039,"acl":5040,"lick":5041,"49":5042,"Sum":5043,"sted":5044,",'__":5045,"disabled":5046,"Directory":5047,"rgb":5048,"Flow":5049,"celer":5050,"locations":5051,"serialized":5052,"Cap":5053,"Sig":5054,"opy":5055,"BUTE":5056,"descr":5057,"Ġ')<":5058,"Tuple":5059,"Ġcontent":5060,"',))<":5061,"logy":5062,"makedirs":5063,"La":5064,"Single":5065,"Ġitems":5066,"clip":5067,"FS":5068,"','_":5069,"Results":5070,":-":5071,"Ġitertools":5072,"EMAIL":5073,"SERVICE":5074,"ATTRIBUTE":5075,"tc":5076,"erge":5077,"cision":5078,"Iteration":5079,"Ġend":5080,"Counter":5081,"54":5082,"()=='":5083,"cope":5084,"{},":5085,"tification":5086,"Ġmod":5087,"sections":5088,"mkdir":5089,"=),<":5090,"uses":5091,"Ġsession":5092,"Ġroot":5093,"balance":5094,"freque":5095,"REC":5096,"MESS":5097,"entities":5098,"Ġvalues":5099,"assertIsNot":5100,"DATABASE":5101,"abort":5102,"writ":5103,"launch":5104,"syn":5105,"png":5106,"Ġparent":5107,"formation":5108,"Ġtests":5109,"disconnect":5110,"VENT":5111,"zz":5112,"')])<":5113,"Deferred":5114,"clock":5115,"kg":5116,"Ġdir":5117,"MESSAGE":5118,"dri":5119,"px":5120,"dhcp":5121,"lhs":5122,"chron":5123,"checks":5124,"FIL":5125,"virtual":5126,"assertNotEqual":5127,"Ġstop":5128,"under":5129,"leg":5130,"election":5131,"LOAD":5132,"distribution":5133,"BY":5134,"ef":5135,"Ġhttp":5136,"coeff":5137,"Asia":5138,"SUP":5139,"tk":5140,"les":5141,"fullname":5142,"dx":5143,"jor":5144,"press":5145,"volumes":5146,"creator":5147,"realm":5148,"Region":5149,"Ġhost":5150,"certificate":5151,"msa":5152,".*":5153,"_=<":5154,"irc":5155,"tin":5156,"txn":5157,"06":5158,"wall":5159,"':'',<":5160,"Ġiss":5161,"']=<":5162,"have":5163,"resolver":5164,"vtk":5165,"calculate":5166,"UUID":5167,"Ġwarnings":5168,")&":5169,"setitem":5170,"Ġ(":5171,"Ġparam":5172,"subclass":5173,"IGHT":5174,"which":5175,"aterials":5176,"SOURCE":5177,"(,,,,":5178,"oid":5179,"demo":5180,"([(":5181,"workers":5182,"!='":5183,"lp":5184,"mix":5185,"Ġlines":5186,"sian":5187,"GB":5188,"rx":5189,"Ġpage":5190,"Ġ+'/":5191,"([],":5192,"har":5193,"rea":5194,"deg":5195,"Keys":5196,"Ġugettext":5197,"minion":5198,"Ġframe":5199,"atist":5200,"()).":5201,"ttl":5202,"BAD":5203,"ilo":5204,"Ġentry":5205,"Ġiniti":5206,"istered":5207,"'),)<":5208,"Engine":5209,"sertionError":5210,"IVE":5211,"gments":5212,"separator":5213,"pv":5214,"defined":5215,"ArgumentParser":5216,"predicate":5217,"remaining":5218,"bas":5219,"reload":5220,"Structure":5221,"mproper":5222,"STER":5223,"para":5224,"Ġblock":5225,"smart":5226,"CD":5227,"Flavor":5228,"symbols":5229,"flo":5230,"classifiers":5231,"failures":5232,"Help":5233,"Ġoption":5234,"Ġnose":5235,"Feed":5236,"bulk":5237,"mic":5238,"Ġidx":5239,"lencode":5240,"focus":5241,"Param":5242,"levels":5243,"alert":5244,"filenames":5245,"Enabled":5246,"urlencode":5247,"exog":5248,"allback":5249,"Close":5250,"Ġgr":5251,"tri":5252,"frames":5253,"BS":5254,"stride":5255,"shutdown":5256,"Memory":5257,"Volume":5258,"increment":5259,"suc":5260,"fragment":5261,"Ġenv":5262,"ĠConfig":5263,"lyConfigured":5264,"ĠTemp":5265,"orizontal":5266,"mproperlyConfigured":5267,"optim":5268,"framework":5269,"Any":5270,")!=:<":5271,"echo":5272,"tices":5273,"division":5274,"dog":5275,"linear":5276,"METHOD":5277,"cel":5278,"shard":5279,"communic":5280,"NOWN":5281,"Worker":5282,"rupt":5283,"GTH":5284,"guid":5285,"orient":5286,"algo":5287,"comb":5288,"Pos":5289,"Ġsize":5290,"credential":5291,"Cell":5292,"tracks":5293,"65":5294,"Ġconnection":5295,"Depen":5296,"MPLE":5297,"decorator":5298,"ĠFile":5299,"confirm":5300,"ofproto":5301,"dependent":5302,"OL":5303,"ww":5304,"namespaces":5305,"ula":5306,"ACTION":5307,"))))<":5308,"windows":5309,"decorators":5310,"utcnow":5311,"Ġmo":5312,"Ġ[:],":5313,"Symbol":5314,"dae":5315,"nor":5316,"orary":5317,"standard":5318,"prep":5319,"ATOR":5320,"scores":5321,"CHOI":5322,"Ġutil":5323,"tempdir":5324,"CEP":5325,"Children":5326,"Vis":5327,"az":5328,"weak":5329,"LOB":5330,"glyph":5331,"srv":5332,"acter":5333,"sqlite":5334,"ĠPer":5335,"licate":5336,"Ġtuple":5337,"Current":5338,"DEX":5339,"director":5340,"ading":5341,"traits":5342,"LENGTH":5343,"Ġmin":5344,"scr":5345,"calendar":5346,"rename":5347,"internet":5348,"))+":5349,"Random":5350,"ĠName":5351,"Ġinst":5352,"fileno":5353,"filtered":5354,"-)<":5355,"bbox":5356,"ftype":5357,"speed":5358,"Ġregister":5359,"Ġlast":5360,"aller":5361,"tip":5362,"dialog":5363,"mtree":5364,"attachment":5365,"Sched":5366,"scenario":5367,"meter":5368,"canon":5369,"Execution":5370,"callbacks":5371,"QUERY":5372,"ntaxError":5373,"ket":5374,"deferred":5375,"Ġel":5376,"inp":5377,"until":5378,"ĠSet":5379,"Pay":5380,"lour":5381,"sitions":5382,"foreign":5383,"LP":5384,"usters":5385,"Bool":5386,"Definition":5387,"Ġobject":5388,"DEF":5389,">[,,,,":5390,"ĠPy":5391,"boundary":5392,"alle":5393,"getcwd":5394,"Ter":5395,"Ġ[:,":5396,"Lim":5397,"PRI":5398,"RC":5399,"cn":5400,"ARY":5401,"hyper":5402,"Pat":5403,"rout":5404,"']),<":5405,"subscribe":5406,"native":5407,"tm":5408,"INDEX":5409,"dialect":5410,"(,),<":5411,"BUIL":5412,"nonce":5413,"gradient":5414,"ond":5415,"plotlib":5416,"thumbna":5417,"att":5418,"unlink":5419,"ulator":5420,"Ġinter":5421,"interfaces":5422,"Cmd":5423,"Ġctx":5424,"plural":5425,">':,<":5426,"candidate":5427,">{":5428,"photo":5429,"coordin":5430,"flash":5431,"trove":5432,"always":5433,"argin":5434,"Over":5435,"city":5436,"lict":5437,"DOMAIN":5438,"geometry":5439,"abilities":5440,"devices":5441,"ingerprint":5442,"LIN":5443,"aws":5444,"crop":5445,"',{'":5446,"=''):<":5447,"')):<":5448,"Operator":5449,"literal":5450,"tzinfo":5451,"bum":5452,"LIC":5453,">{\"":5454,"td":5455,"Ġtempfile":5456,"matplotlib":5457,"ACCESS":5458,"categories":5459,"embed":5460,"sensor":5461,"Ġexecute":5462,"define":5463,"Ġfe":5464,"regions":5465,"assertIsNone":5466,"IZ":5467,"RT":5468,"appe":5469,"EVENT":5470,"PACK":5471,"Ġfields":5472,"obar":5473,"':})<":5474,"ĠAs":5475,")]=":5476,">+":5477,"OBJECT":5478,")}<":5479,"NAL":5480,"':[<":5481,"ctl":5482,"ribe":5483,"daemon":5484,"Ġtable":5485,"RECT":5486,"/')<":5487,"Ġuse":5488,"removed":5489,"=(\"":5490,"combin":5491,"tence":5492,"superuser":5493,"HttpRequest":5494,"Features":5495,"REG":5496,"=),":5497,"Ġlocal":5498,"ancer":5499,"':}":5500,"Login":5501,"=['_":5502,"TOKEN":5503,"Org":5504,"initialize":5505,"mas":5506,"creation":5507,"union":5508,"extras":5509,"57":5510,"WIN":5511,"Ġany":5512,"Ġreturn":5513,"ĠError":5514,"major":5515,"lace":5516,"Ġ:]<":5517,"minutes":5518,"UNKNOWN":5519,"ĠK":5520,"ĠData":5521,"ordered":5522,"arge":5523,"('')<":5524,"uman":5525,"quiet":5526,"audio":5527,"cations":5528,"rmtree":5529,"orph":5530,"000":5531,"authenticated":5532,"IST":5533,"UD":5534,"Dictionary":5535,"Unit":5536,"StopIteration":5537,"allen":5538,"\":{\"":5539,"Ġ-=":5540,"LAY":5541,"receive":5542,"Transaction":5543,"exchange":5544,",,,],<":5545,"gon":5546,"readonly":5547,"192":5548,"msgs":5549,"RUN":5550,"wi":5551,"Ġredirect":5552,"outer":5553,"}',":5554,"gevent":5555,"latex":5556,"Ġflag":5557,"Authenti":5558,"delimiter":5559,"Send":5560,"ysql":5561,"wraps":5562,"Height":5563,"published":5564,"since":5565,"compatible":5566,"hours":5567,":]<":5568,"Used":5569,"SITE":5570,"Ġcache":5571,"posix":5572,"copia":5573,"FAIL":5574,"Verify":5575,"Identifier":5576,"sms":5577,"gu":5578,"represent":5579,"([[":5580,"Multiple":5581,"Wh":5582,"ymo":5583,"Opt":5584,"Ġforms":5585,"Ġ[:-]<":5586,"BinaryProtocol":5587,"(+":5588,"Bind":5589,"Hello":5590,"hn":5591,"orth":5592,"Ġ[]-":5593,"Cursor":5594,"evaluate":5595,"Den":5596,"health":5597,"lexer":5598,")%":5599,"Gre":5600,"uation":5601,"Fixt":5602,"Nu":5603,"([])<":5604,"Ġbe":5605,"pus":5606,"Ġthreading":5607,"clusters":5608,"Space":5609,"uro":5610,"ĠRequest":5611,"aris":5612,"=[,,":5613,"creds":5614,"converter":5615,"Ġfiles":5616,"restore":5617,"tit":5618,"dates":5619,"resolvers":5620,"needs":5621,"nr":5622,"currency":5623,"Ġconn":5624,"sizer":5625,"vpn":5626,"buff":5627,"Contains":5628,"Ġ\"<":5629,"inct":5630,"meth":5631,"':}<":5632,"argtypes":5633,"Insert":5634,"soft":5635,"Ġrequests":5636,"hide":5637,"infile":5638,"Required":5639,"Editor":5640,"ARD":5641,"ĠImage":5642,"gamma":5643,"Ġ-)<":5644,"dry":5645,"finder":5646,"Import":5647,"mob":5648,"tot":5649,"tour":5650,"VALUE":5651,"Ġeval":5652,"APPS":5653,"Flags":5654,"quantity":5655,"fk":5656,"Loop":5657,"Ġpypy":5658,"Parameters":5659,"Related":5660,"crypto":5661,"ĠApp":5662,",('":5663,"mut":5664,"Ġkeys":5665,"')+":5666,"dao":5667,"mitive":5668,"editable":5669,"ymous":5670,"uniform":5671,"spam":5672,"Arch":5673,"ADMIN":5674,"\":,\"":5675,"blueprint":5676,"28":5677,"Materials":5678,"lent":5679,"Ġinspect":5680,"ryp":5681,"Expr":5682,"ATCH":5683,"mimetype":5684,"CHECK":5685,"MEDIA":5686,"_'+":5687,"une":5688,"cmdline":5689,"Null":5690,"Rest":5691,"Ġ]=<":5692,"dynamic":5693,"Geometry":5694,")],":5695,"Non":5696,"PS":5697,"dashboard":5698,"Ġdistutils":5699,"hop":5700,"lm":5701,"tenv":5702,"KeyError":5703,"Ġurlparse":5704,"SYS":5705,"Ġsympy":5706,"ai":5707,"apsed":5708,"urlpatterns":5709,"ithub":5710,"ration":5711,"Ġio":5712,")['":5713,"wise":5714,"working":5715,"Ġdecor":5716,"Received":5717,"Ġexpected":5718,"foobar":5719,"MSG":5720,"PAGE":5721,"accep":5722,"Points":5723,"Ġcolumn":5724,">'),(\"":5725,"SECRE":5726,"anchor":5727,"logical":5728,"authenticate":5729,"fastbinary":5730,"03":5731,"through":5732,"=[],":5733,"nodelist":5734,"sudo":5735,"SCRIPT":5736,"stor":5737,"OPEN":5738,"authorized":5739,"\"}":5740,"'),('<":5741,"smtp":5742,"rollback":5743,"btn":5744,"MAN":5745,"TBinaryProtocol":5746,"leaf":5747,"broadcast":5748,"04":5749,"idge":5750,"Ġ][]":5751,"Initi":5752,"Statement":5753,"CREATE":5754,"BACK":5755,"ValidationTest":5756,"vc":5757,"oney":5758,"ody":5759,"Ġref":5760,"Ġparser":5761,"putVarInt":5762,"hr":5763,"endor":5764,"locator":5765,"cipy":5766,"Normal":5767,"BIN":5768,"Conn":5769,"manual":5770,"disks":5771,"$',":5772,"Rect":5773,"Script":5774,"Ġ[<":5775,"alive":5776,"checksum":5777,"Upload":5778,"zk":5779,"Ġ<<":5780,"ERS":5781,"Conf":5782,"transfer":5783,"vote":5784,"LOGGER":5785,"Route":5786,"FC":5787,"chrom":5788,"('__":5789,"ective":5790,"FILTER":5791,"SECRET":5792,"nick":5793,"ACTI":5794,"PASSWORD":5795,"Us":5796,"bold":5797,"installed":5798,"cuda":5799,"Lex":5800,"Ġfound":5801,"Sa":5802,"[<":5803,"={'<":5804,"AttributeError":5805,"factories":5806,"timi":5807,"quit":5808,"dicts":5809,"'\"":5810,"Copy":5811,"Article":5812,"sphinx":5813,"Ġspec":5814,"tend":5815,"('/')<":5816,"SCA":5817,"WE":5818,"Replay":5819,"rong":5820,"vistrail":5821,"timizer":5822,"((,":5823,"Ġheaders":5824,"come":5825,"POINT":5826,"eve":5827,"unused":5828,"upgrade":5829,"Ġglob":5830,")+\"":5831,"MPTY":5832,"oom":5833,"traj":5834,"checked":5835,"(':'":5836,"fron":5837,"rase":5838,"REQU":5839,"overwrite":5840,"-<":5841,"Ġfunctools":5842,"nom":5843,"pository":5844,",):<":5845,"IAL":5846,"NAMESPACE":5847,")[]":5848,"forum":5849,"ĠAr":5850,"FN":5851,"Te":5852,"RESS":5853,"opener":5854,"ĠTemplate":5855,"bility":5856,"xc":5857,"Ġuuid":5858,"integr":5859,"cipe":5860,"CHOICES":5861,"atar":5862,"rou":5863,"Inst":5864,"LOCAL":5865,"*<":5866,">-":5867,"NONE":5868,"bill":5869,"retval":5870,"__==":5871,">_('<":5872,"ĠMy":5873,"Byte":5874,"Queryset":5875,"BIT":5876,"Wa":5877,"()==<":5878,"Disk":5879,"paginator":5880,"ling":5881,"Ġnetwork":5882,"Can":5883,"sired":5884,"Ġ\"\"\"<":5885,"Ġmark":5886,"eol":5887,"sam":5888,"ĠElement":5889,"Depre":5890,"Display":5891,"nl":5892,">'}<":5893,"',,,":5894,"bus":5895,"havi":5896,"/',":5897,"mysql":5898,"maps":5899,"cmds":5900,"Ġscipy":5901,"ago":5902,"StringField":5903,"Ġ+\"/":5904,"45":5905,"ving":5906,"STATIC":5907,"Bit":5908,"DNA":5909,"sem":5910,"atype":5911,"Render":5912,"inplace":5913,"jar":5914,"xp":5915,"Merge":5916,"strategy":5917,"positional":5918,"Ġ!=\"":5919,"MODEL":5920,"Remote":5921,"Headers":5922,"autospec":5923,"queries":5924,"Pattern":5925,"NOR":5926,"tv":5927,"abstra":5928,"Processor":5929,"builtins":5930,"Registry":5931,"Slice":5932,"Ġmath":5933,"litext":5934,"Axis":5935,"ĠQ":5936,"Ġback":5937,"oro":5938,"noise":5939,"gh":5940,"elapsed":5941,"etag":5942,"swap":5943,"abstractmethod":5944,"Sha":5945,"Ġauth":5946,"defaultdict":5947,"Ġreq":5948,"vail":5949,"transition":5950,"Almost":5951,"restype":5952,"Linear":5953,"Ġsklearn":5954,"=_('":5955,"payment":5956,"78":5957,">*":5958,"Errors":5959,"REMO":5960,"udit":5961,"Annot":5962,"Sw":5963,"cator":5964,"gp":5965,"pan":5966,"allenge":5967,"ReplayAll":5968,"lc":5969,"Ġverbose":5970,"atistics":5971,"coll":5972,"Properties":5973,")|":5974,"cmap":5975,"flask":5976,"album":5977,"Show":5978,"fu":5979,"REF":5980,"ACT":5981,"168":5982,"recursive":5983,"MAC":5984,"Ġcompute":5985,"vertical":5986,"Prefix":5987,"legend":5988,"rd":5989,"linalg":5990,"fingerprint":5991,"Ġip":5992,"defs":5993,"Fix":5994,"AlmostEqual":5995,"Ġtop":5996,"CHANGE":5997,"NUMBER":5998,"RENT":5999,"spacing":6000,"CONNE":6001,"Generate":6002,"Tabular":6003,"DWORD":6004,"Rad":6005,"sca":6006,"fft":6007,"joint":6008,"ranges":6009,"TRAN":6010,"datasets":6011,"Ġcomp":6012,"Ġcommon":6013,"staff":6014,"Global":6015,"ToMany":6016,"Unknown":6017,"adj":6018,"Ġoslo":6019,"reqs":6020,"routing":6021,"gene":6022,"obs":6023,"vip":6024,"oft":6025,"variant":6026,"nw":6027,"Ġwith":6028,"Ġshutil":6029,"\",\"\")<":6030,"cells":6031,"Dependen":6032,"AIN":6033,"eper":6034,"hits":6035,"slot":6036,"funcs":6037,">[\"":6038,"FLAG":6039,"mr":6040,"([('":6041,"constraints":6042,"uted":6043,"dead":6044,"checker":6045,"Ġforce":6046,"DOWN":6047,"123456":6048,"retries":6049,"patcher":6050,"tracker":6051,"aw":6052,"':{":6053,"LEVE":6054,"Namespace":6055,"DIRECT":6056,"tbl":6057,"Ġdivision":6058,"Authorization":6059,"assertIsNotNone":6060,"Body":6061,"rval":6062,"amera":6063,"__=['":6064,"()[:":6065,"providers":6066,"topics":6067,"protection":6068,"ark":6069,"Tools":6070,"Br":6071,"Mid":6072,"Ġtypes":6073,"ĠStopIteration":6074,"hasattr":6075,"MEM":6076,"ALLED":6077,")>=":6078,"Windows":6079,"HAND":6080,"PR":6081,"squ":6082,"Ġrest":6083,"ModelForm":6084,"Positive":6085,"Vertex":6086,"registration":6087,"micro":6088,"CU":6089,"domains":6090,"Actor":6091,"Ġdebug":6092,"Ġ[,]":6093,"openstack":6094,"Ġ<=:<":6095,")),('<":6096,"design":6097,"learning":6098,"foot":6099,"netloc":6100,"copyright":6101,"splitext":6102,"QuerysetEqual":6103,"ABLE":6104,"Ġexp":6105,"robot":6106,"observer":6107,"=((":6108,"profiler":6109,"hexdigest":6110,"ied":6111,"dete":6112,"Fields":6113,"INSTALLED":6114,"formatted":6115,"Ġ:(":6116,"WRITE":6117,"Ġwrapper":6118,"',,-":6119,"appro":6120,"populate":6121,"bins":6122,"CLO":6123,"',(":6124,"Produ":6125,"META":6126,"ITH":6127,"provide":6128,"misc":6129,"receiver":6130,"LANG":6131,"Ġfirst":6132,"decoder":6133,">',,":6134,"subst":6135,"lltype":6136,"extended":6137,"Endpoint":6138,"inher":6139,"=(('":6140,"Join":6141,"Fixture":6142,"Ġraw":6143,"dictionary":6144,"assertQuerysetEqual":6145,"Remove":6146,"alizer":6147,"phi":6148,"))]<":6149,"certs":6150,"teardown":6151,"IM":6152,"gz":6153,"nat":6154,"Ġsimple":6155,">')),<":6156,"FAKE":6157,"publisher":6158,"(,\"":6159,"shortcut":6160,"Lexer":6161,"bj":6162,"pts":6163,"Ġtr":6164,"Ġargparse":6165,"UB":6166,"ound":6167,"usr":6168,"Transl":6169,"magic":6170,"arison":6171,"fallback":6172,"wiki":6173,"Ġadmin":6174,"Ġneutron":6175,"visi":6176,"connector":6177,"README":6178,"NC":6179,"Ori":6180,"Step":6181,"ope":6182,"Ġheader":6183,"Ġelem":6184,"depre":6185,"Ġpub":6186,"KET":6187,"neighbors":6188,"dimensions":6189,"fc":6190,"nic":6191,"reservation":6192,"']),":6193,"Ġ])":6194,"urope":6195,"Last":6196,"First":6197,"((,,":6198,"FILES":6199,"ni":6200,"addon":6201,"sistent":6202,"(['<":6203,"),,":6204,"05":6205,"Ġclass":6206,"Ġbody":6207,"passwd":6208,"The":6209,"shuffle":6210,"Virt":6211,"authors":6212,"MID":6213,"MULT":6214,"Ġne":6215,"Async":6216,"Ġmap":6217,"patial":6218,"ables":6219,"\",\"-":6220,"hell":6221,"ĠBad":6222,"wk":6223,"Ġelement":6224,"ino":6225,"subtype":6226,"Addr":6227,"../":6228,"Success":6229,"REQUI":6230,"96":6231,"gnore":6232,"dm":6233,"vg":6234,"life":6235,"\"),(\"":6236,"MAR":6237,"Sample":6238,"Ġsearch":6239,"='+":6240,"joined":6241,"given":6242,"\"\"\"<":6243,"ĠResponse":6244,"stage":6245,"erry":6246,"votes":6247,",-,-":6248,"xform":6249,"aper":6250,"','','":6251,">',(":6252,"logged":6253,"Usage":6254,"urlresolvers":6255,"maybe":6256,"SubElement":6257,"Validator":6258,"encryp":6259,"setLevel":6260,"keystone":6261,"Ġstruct":6262,"problem":6263,"VA":6264,"ited":6265,"STY":6266,"UNI":6267,"FFER":6268,"migrate":6269,"Ġboto":6270,"weet":6271,"docker":6272,"Tw":6273,"',\"":6274,"Section":6275,"processes":6276,"declar":6277,"'t":6278,"=)),('":6279,"Ġ%(":6280,"black":6281,"__=\"":6282,"crete":6283,"isode":6284,"Certificate":6285,"Batch":6286,"Find":6287,"VO":6288,"ume":6289,"Ġpos":6290,"quot":6291,"RESP":6292,"Ġtor":6293,"Metric":6294,",{})<":6295,"pycopia":6296,"Ġcallable":6297,"Ġ+(":6298,"perms":6299,"requirements":6300,"FRA":6301,"secs":6302,"associ":6303,"']]<":6304,"RequestHandler":6305,"cpus":6306,"Ġ+'\\":6307,"CL":6308,"ball":6309,"Ġresource":6310,"mine":6311,"general":6312,"capture":6313,"'][]['":6314,"frequency":6315,":',":6316,"]),":6317,"sity":6318,"Ġ',":6319,"Ip":6320,"deserialize":6321,"nored":6322,"Ġ+\".":6323,"Decode":6324,"spider":6325,"*(":6326,"_))<":6327,"gress":6328,"Ġproject":6329,"desired":6330,"WB":6331,"dw":6332,"maker":6333,"Timestamp":6334,"clause":6335,"']):<":6336,"coming":6337,"feat":6338,"lavors":6339,"notifier":6340,"Pickle":6341,"pli":6342,"sites":6343,"vilege":6344,"Ġ'\\":6345,"SES":6346,"ĠSimple":6347,"wave":6348,"shapes":6349,"communicate":6350,"Europe":6351,"MD":6352,"TL":6353,"must":6354,"ny":6355,"renderer":6356,"RequestContext":6357,"swift":6358,"scopes":6359,"Pi":6360,"OptionParser":6361,"Descriptor":6362,"cron":6363,"Extra":6364,"aging":6365,"CLU":6366,"atol":6367,"Commit":6368,"LIMIT":6369,"describe":6370,")})<":6371,"Ġmatplotlib":6372,"ĠCre":6373,"authorize":6374,"assignment":6375,"Ġvar":6376,"Ġlabel":6377,"Move":6378,"FunctionTable":6379,"FUN":6380,"IR":6381,"lue":6382,"vendor":6383,"additional":6384,"randn":6385,"Scal":6386,"Ġrule":6387,"tee":6388,"digit":6389,"Ġreset":6390,"':['<":6391,"Timer":6392,"Hy":6393,"aries":6394,"():":6395,"(,-":6396,"THON":6397,"subnets":6398,"LINK":6399,"CER":6400,"adap":6401,"ressed":6402,"maximum":6403,"registered":6404,"Notification":6405,"(,,))<":6406,"Relation":6407,"Pipeline":6408,"SPE":6409,"={}":6410,"ĠMGL":6411,"ĠMGLFunctionTable":6412,">'}":6413,"ĠClient":6414,"bsd":6415,"AME":6416,"Sm":6417,"reil":6418,"about":6419,"marks":6420,"small":6421,"BadRequest":6422,"tmpl":6423,"ENG":6424,"jac":6425,"cture":6426,"csrf":6427,"monkey":6428,"142":6429,"Optional":6430,"46":6431,"Next":6432,"mutable":6433,"Ġservice":6434,"DED":6435,"Ġemail":6436,"permissionGroup":6437,"protectionLevel":6438,"Ġlink":6439,"SELE":6440,"blog":6441,")+'":6442,"Credenti":6443,"OFF":6444,"sf":6445,"ceed":6446,"codec":6447,"generated":6448,"=).":6449,"park":6450,"Ġ]):<":6451,"pprint":6452,"='\\\\":6453,"Ġrel":6454,"Ġopenstack":6455,"artifact":6456,"Detail":6457,")<:<":6458,"idle":6459,"1024":6460,"Activity":6461,"variance":6462,"RY":6463,"bob":6464,"jax":6465,"INIT":6466,"alf":6467,"scriptions":6468,"terminal":6469,"/'+":6470,">:<":6471,"Icon":6472,"Sn":6473,"Word":6474,"ĠMock":6475,"BUFFER":6476,"Supported":6477,"ims":6478,"rag":6479,"stru":6480,"[-]<":6481,"Deprecation":6482,"bio":6483,"was":6484,"asm":6485,"ndarray":6486,"Ġnorm":6487,"Builtin":6488,"guest":6489,"advance":6490,"ENA":6491,"Player":6492,"assertAlmostEqual":6493,"Ġftype":6494,"matched":6495,"beat":6496,"examples":6497,"Print":6498,"Zip":6499,"ared":6500,"oration":6501,"matching":6502,"ĠImproperlyConfigured":6503,"_('<":6504,"heel":6505,"phy":6506,"SSH":6507,"Exists":6508,"lstrip":6509,"Ġtraceback":6510,"SESSION":6511,"Ġ[-].":6512,"Align":6513,"pixels":6514,"Trace":6515,"SYST":6516,"ILED":6517,"Train":6518,"rays":6519,"pathname":6520,"Ġ]==":6521,"minimum":6522,"Wait":6523,"average":6524,"horizontal":6525,"adjust":6526,"resolved":6527,"HEAD":6528,"EMPTY":6529,"Gen":6530,"Ids":6531,"strs":6532,"pot":6533,"Ġ[]]<":6534,"cade":6535,"Lang":6536,"Trove":6537,"ynamic":6538,"Contact":6539,"slave":6540,"STYLE":6541,"bc":6542,"containers":6543,"stubs":6544,".')<":6545,"95":6546,"RPC":6547,"fault":6548,"mpath":6549,"',_('":6550,"=[(\"":6551,"Ġ[]),":6552,"docstring":6553,"phrase":6554,"collector":6555,"snip":6556,"streams":6557,"Card":6558,"Sen":6559,"jam":6560,"java":6561,"ily":6562,"primitive":6563,"ĠAuth":6564,"frozenset":6565,"thumbnail":6566,"udo":6567,"VP":6568,"restart":6569,"ĠHttpResponseRedirect":6570,"hd":6571,"Dock":6572,"OwnerId":6573,"hdf":6574,"Ġhandler":6575,"STOP":6576,"logfile":6577,"realpath":6578,"negative":6579,"Ġissub":6580,"LEVEL":6581,"Imp":6582,"Sli":6583,"Ġcolor":6584,"UTF":6585,"inject":6586,"readlines":6587,"COMMAND":6588,"ENGINE":6589,"FE":6590,"subs":6591,",:,:":6592,"atomic":6593,"Ucs":6594,"nid":6595,"couch":6596,"pools":6597,"ĠPY":6598,"datap":6599,"Ġcur":6600,"Init":6601,"rypt":6602,"Ġmulti":6603,"opacity":6604,"prof":6605,">':\"":6606,"annotate":6607,"]),<":6608,"Ġext":6609,"ĠSchema":6610,"Note":6611,"Selection":6612,"WSGI":6613,"wp":6614,"andbox":6615,"HttpResponse":6616,"''<":6617,"github":6618,"accounts":6619,"DeprecationWarning":6620,"42":6621,"WH":6622,"{:":6623,"Ġplatform":6624,"DEVICE":6625,"arity":6626,"expan":6627,"balancer":6628,",__":6629,"google":6630,"rp":6631,"setText":6632,"Chain":6633,"Interrupt":6634,"coverage":6635,"Mes":6636,"elf":6637,"fileobj":6638,"grant":6639,"POM":6640,"Part":6641,"cas":6642,"returncode":6643,"BUT":6644,"Cannot":6645,"resolution":6646,"metaclass":6647,"erce":6648,"',('":6649,"minor":6650,"identifi":6651,"Browser":6652,"sz":6653,"usted":6654,"dence":6655,"Ġ[:,]":6656,"Adapter":6657,"ADDR":6658,"ĠAssertionError":6659,"Ġissubclass":6660,"]*":6661,"cx":6662,"Ġselect":6663,"Ġbool":6664,"drive":6665,"Ġtornado":6666,"RU":6667,"Ġchar":6668,"interpol":6669,"MODU":6670,"expiration":6671,"ToManyField":6672,"Cal":6673,"Ker":6674,"cpp":6675,"difference":6676,"requested":6677,"segments":6678,"friend":6679,"=()<":6680,">],":6681,"Ġsum":6682,"diffs":6683,"Cleanup":6684,"Ġgrr":6685,"/<":6686,">},":6687,"rtol":6688,"independent":6689,"Ġfin":6690,"licies":6691,"Ġpython":6692,"Functions":6693,"gis":6694,"three":6695,"positions":6696,">\"%":6697,"heading":6698,"ggreg":6699,"EW":6700,"tax":6701,"==[":6702,"fb":6703,"pings":6704,"tre":6705,"Ġcase":6706,"Ġ[:]:<":6707,"),(,,),(,,":6708,"Library":6709,"TING":6710,"Ġconvert":6711,"',[]":6712,"kwarg":6713,"phase":6714,"posts":6715,"constructor":6716,"SYSTEM":6717,"tl":6718,"ua":6719,"Ġtitle":6720,"seudo":6721,"RGB":6722,"each":6723,"ken":6724,"sessions":6725,"=',":6726,"codename":6727,"syntax":6728,"datas":6729,"critical":6730,"pieces":6731,"MainWindow":6732,"Scope":6733,"Ġfoo":6734,"mes":6735,"Ġspace":6736,"ACTIVE":6737,"MODULE":6738,"cname":6739,"Ġstats":6740,"Prop":6741,"ĠSe":6742,"bindings":6743,"terminate":6744,"OAuth":6745,"catch":6746,"human":6747,"printer":6748,"ConfigParser":6749,"EXP":6750,"Ġskip":6751,"Fin":6752,"XY":6753,"completion":6754,"Changed":6755,"deriv":6756,"ĠModel":6757,"chat":6758,"Ġimp":6759,"sical":6760,"styles":6761,"vtType":6762,"OPTIONS":6763,"RESULT":6764,"jump":6765,"ycle":6766,"colour":6767,"then":6768,"samp":6769,"izard":6770,"fsm":6771,"analysis":6772,"AutoField":6773,"Publish":6774,"Ġhashlib":6775,"Hist":6776,"PID":6777,"Ġpickle":6778,"precision":6779,"subset":6780,"Chunk":6781,"modname":6782,"ather":6783,"BLED":6784,"overrides":6785,"Missing":6786,"pur":6787,"Ġ]=(":6788,"makeOne":6789,"Ġ[]):<":6790,"={},":6791,"SUC":6792,"assette":6793,"Renderer":6794,"arcpy":6795,"NER":6796,"csi":6797,"hot":6798,"logout":6799,"alization":6800,"Security":6801,"training":6802,"allel":6803,":\",":6804,"jit":6805,"margin":6806,"Ġprefix":6807,"=\"/":6808,"Scale":6809,"ĠJ":6810,">'),(":6811,"scroll":6812,"DIS":6813,"endpoints":6814,"NORMAL":6815,"tell":6816,"=''.":6817,"locked":6818,"itervalues":6819,"ogram":6820,"ĠĠĠĠ":6821,",{<":6822,"Diff":6823,"Ġconf":6824,"Consu":6825,"RANGE":6826,"modelXbrl":6827,">'].":6828,"Face":6829,"Ġ|=":6830,"paragraph":6831,"xl":6832,"Ġpkg":6833,"CMD":6834,"Limit":6835,"Shape":6836,"vpc":6837,"checkout":6838,"viewer":6839,"LIB":6840,"qt":6841,"hashes":6842,"distinct":6843,"NEW":6844,"nm":6845,"ffici":6846,">'_":6847,"rendered":6848,"rotation":6849,"servable":6850,"pq":6851,"Ġ\",":6852,"Ġchunk":6853,"':'','":6854,"Release":6855,"reports":6856,"SyntaxError":6857,")._":6858,",[]":6859,"CB":6860,"zmq":6861,"ĠResource":6862,"Err":6863,"bam":6864,"FLO":6865,"evt":6866,"ugettext":6867,"keypair":6868,"ĠSy":6869,"ird":6870,"Dele":6871,"SIT":6872,"qn":6873,"altern":6874,"STRE":6875,"imports":6876,"ALLOW":6877,"delegate":6878,"TestSuite":6879,"sug":6880,"executor":6881,"Virtual":6882,"Ġnames":6883,"remap":6884,"iterations":6885,"Eval":6886,"ear":6887,"mf":6888,"touch":6889,"portal":6890,"')=='":6891,"hashlib":6892,"FOUND":6893,"expanduser":6894,"(':":6895,"tup":6896,"STRU":6897,"erarch":6898,"challenge":6899,"sic":6900,"commits":6901,"'),(,'":6902,"broker":6903,"anti":6904,")/<":6905,"bias":6906,"Organization":6907,"smo":6908,"xmlns":6909,"CreateModel":6910,"((,))<":6911,"DL":6912,"SW":6913,"bel":6914,"ov":6915,"Ġvalid":6916,"offsets":6917,"Ġ))<":6918,"does":6919,"cach":6920,"Ġorder":6921,"GIN":6922,"Ġchange":6923,"into":6924,"__(<":6925,"tral":6926,"unce":6927,"sist":6928,"Contents":6929,"highlight":6930,"((,),":6931,"IES":6932,"cardinal":6933,"::":6934,"Router":6935,"UAGE":6936,"fold":6937,"vif":6938,"discount":6939,"(),\"":6940,"Dimension":6941,"numeric":6942,"Ġ/<":6943,"Active":6944,"('.')<":6945,"Analy":6946,"Iterator":6947,"criter":6948,"zoom":6949,"Ġ0":6950,"optimizer":6951,"palet":6952,"FAILED":6953,"ana":6954,"keyname":6955,"factors":6956,"Validate":6957,"INET":6958,")-<":6959,"Ap":6960,"Ġnodes":6961,"Moved":6962,"Ġfloat":6963,"Ġ\"\"<":6964,"Ġrv":6965,"macro":6966,"CLIENT":6967,"))==":6968,"_='":6969,"itation":6970,"Ġcap":6971,"Selector":6972,"artist":6973,"ilog":6974,"Ġarray":6975,"modify":6976,"partitions":6977,"Some":6978,"SCHE":6979,"ster":6980,"ceil":6981,"(),'<":6982,"compiled":6983,"initialized":6984,"capabilities":6985,"managed":6986,"Skip":6987,"undo":6988,"heart":6989,">_,":6990,"vistrails":6991,"ipy":6992,"oss":6993,"policies":6994,"blocking":6995,"Classifier":6996,"importer":6997,"dispatcher":6998,"reporter":6999,"=**":7000,"ateway":7001,"Ġcfg":7002,"Ġorig":7003,"rypto":7004,"cdf":7005,"prod":7006,"Program":7007,"iteral":7008,"OUTPUT":7009,"topology":7010,"imat":7011,"istic":7012,"interactive":7013,"Ġtmp":7014,"LANGUAGE":7015,"Pop":7016,"fter":7017,"xf":7018,"coin":7019,"Information":7020,"Hook":7021,"hp":7022,"tls":7023,"alter":7024,"preserve":7025,"')).":7026,"players":7027,"Objects":7028,"Middleware":7029,"500":7030,"Ġexists":7031,"INPUT":7032,"=(,,":7033,"authorization":7034,"DOM":7035,")'%(":7036,"BL":7037,"Split":7038,"closure":7039,"roots":7040,"memcache":7041,"products":7042,"IGN":7043,"USERNAME":7044,"PARAME":7045,"Place":7046,"dtemp":7047,"Ġfp":7048,"LEFT":7049,"disp":7050,"Setup":7051,"bgp":7052,"AWS":7053,"Da":7054,"ĠComp":7055,">'),)<":7056,"\",\".":7057,"eps":7058,"activation":7059,"BYTE":7060,"48":7061,"NV":7062,"Ġword":7063,"=[[":7064,"imate":7065,"ggle":7066,"STREAM":7067,"PARAMETER":7068,"Fetch":7069,"yte":7070,"Ġ},":7071,"='',<":7072,"boardInterrupt":7073,"middleware":7074,"gray":7075,"hw":7076,"Ġ+]":7077,"statuses":7078,"ĠMe":7079,"{}).":7080,"bridge":7081,"rotate":7082,"World":7083,"WARNING":7084,"Fn":7085,"Other":7086,"bat":7087,">'/":7088,"mpa":7089,"('#":7090,"LAB":7091,"\")==":7092,"[%":7093,"ou":7094,"Ġit":7095,"cend":7096,"ditions":7097,"centile":7098,"xlink":7099,"adow":7100,"Ġpop":7101,"guess":7102,"itions":7103,"linux":7104,"Typed":7105,"candidates":7106,"instrument":7107,"FRAME":7108,"PT":7109,"atable":7110,"pause":7111,"(\"<":7112,"transfor":7113,"[],<":7114,"mpp":7115,"Experiment":7116,"unix":7117,"Make":7118,"fficient":7119,"EVT":7120,"Pe":7121,"Repository":7122,"Ġpandas":7123,"letter":7124,"svn":7125,"assertNotIn":7126,"Scheduler":7127,"NR":7128,"ĠObject":7129,"semb":7130,"strp":7131,"ALI":7132,"Env":7133,"assertRaisesRegex":7134,"Sync":7135,"stock":7136,"Ġdecorator":7137,"Git":7138,"well":7139,"conti":7140,"Ġ-,":7141,"IGNO":7142,"venv":7143,"Ġcallback":7144,"stand":7145,"Conv":7146,"Proto":7147,"PEND":7148,"depends":7149,"ris":7150,"iscsi":7151,"\":[\"":7152,"Ġ:'<":7153,"Ġdiff":7154,"serialization":7155,"abstraction":7156,"53":7157,"silon":7158,"Console":7159,"newline":7160,"COOK":7161,"RESPON":7162,"BAC":7163,"dal":7164,"rsync":7165,"inet":7166,"('',":7167,"ORD":7168,"Partial":7169,"datatype":7170,"Quest":7171,"clusive":7172,"CannotContain":7173,"independentData":7174,"fgraph":7175,"gzip":7176,"zure":7177,"roid":7178,"returned":7179,"QuerySet":7180,"Pair":7181,"orientation":7182,"provides":7183,"Ġwait":7184,"lope":7185,"vertices":7186,"Ġ+[":7187,",'')<":7188,"Ġ[]*":7189,"ARCH":7190,"':[],<":7191,"snap":7192,"Pow":7193,"TOP":7194,"Ġpart":7195,"pkt":7196,"(-)<":7197,"Callbacks":7198,"degree":7199,"08":7200,"Ġgraph":7201,"resid":7202,"mappings":7203,"processors":7204,"IOError":7205,"(-,":7206,"StubOut":7207,"shortcuts":7208,"wrong":7209,"inverse":7210,"uris":7211,"heap":7212,"()['":7213,"contexts":7214,"character":7215,"planation":7216,"EP":7217,"PK":7218,"TON":7219,"Ġextra":7220,"Ġdf":7221,"behavi":7222,"transa":7223,"jamas":7224,"Lines":7225,"PH":7226,"scaling":7227,"WINDO":7228,"Ġstream":7229,"inds":7230,"IND":7231,"endog":7232,"icago":7233,"Ġrepr":7234,"Question":7235,"prepa":7236,"Ġbar":7237,"CTL":7238,"PROCESS":7239,"listeners":7240,"47":7241,"hard":7242,"ctr":7243,"Ġsrc":7244,"ignored":7245,"External":7246,"BLOCK":7247,"hit":7248,"san":7249,"Ġ3":7250,"ropy":7251,"Chicago":7252,"Ġapply":7253,"ticks":7254,"Done":7255,"Vo":7256,"DEN":7257,"ectors":7258,"shp":7259,"Dataset":7260,"HTTPError":7261,"Quo":7262,"Collector":7263,"ANT":7264,"cms":7265,"flip":7266,"vl":7267,"Ġcursor":7268,"Ġentity":7269,"testdir":7270,"Ġsm":7271,"titles":7272,"Interval":7273,"Identity":7274,")),(":7275,"pull":7276,"Ġmy":7277,"Ġexpr":7278,"utation":7279,"Tags":7280,"floor":7281,"CKET":7282,"ZZ":7283,"cassette":7284,"Ġtimeout":7285,"station":7286,"putln":7287,"WithMock":7288,"(,),(,),(,),(,),(,),(,),(,),(,),(,),(,),(,),(,),(,),(,),(,),(,),":7289,"XM":7290,"gres":7291,"ONLY":7292,"Left":7293,"shipping":7294,"Ġencode":7295,"party":7296,"both":7297,"('.')":7298,"anonymous":7299,"StubOutWithMock":7300,"/'<":7301,"Use":7302,"ĠNode":7303,"':},<":7304,"ploration":7305,"Segment":7306,"latitude":7307,"measurements":7308,"ATTRIBUTES":7309,">)<":7310,"rating":7311,"assets":7312,"goal":7313,"retrieve":7314,"attempt":7315,"cardinality":7316,"\"}<":7317,"Chart":7318,"':\"''\",'":7319,"WAIT":7320,"Signal":7321,"ManyToManyField":7322,"discard":7323,"tabs":7324,"war":7325,"addWidget":7326,"ORIZ":7327,"privilege":7328,"Mark":7329,"''":7330,"Free":7331,"hass":7332,"Ġfunction":7333,"skipIf":7334,"TASK":7335,"WBEM":7336,"SUCCESS":7337,"ban":7338,"mixin":7339,"fieldname":7340,"translated":7341,"SOCK":7342,"avatar":7343,"RAY":7344,"ravel":7345,"parentObj":7346,"Ġforwards":7347,"books":7348,"Signature":7349,"normpath":7350,"inel":7351,"deque":7352,"ussian":7353,"=\"\",":7354,"longitude":7355,"regexp":7356,"Assign":7357,"neighbor":7358,"Deploy":7359,"Ġbackwards":7360,"UcsFactory":7361,"vailable":7362,"QQ":7363,"SL":7364,"Save":7365,"vid":7366,"Ġinclude":7367,"otal":7368,"ventory":7369,"Ġbin":7370,"secondary":7371,"CONTRO":7372,"Machine":7373,"truncate":7374,"59":7375,"Ġjoin":7376,"Integr":7377,"INTE":7378,")/(":7379,"EnumValue":7380,"Archive":7381,"ail":7382,"Ġoperator":7383,"RETR":7384,"CORE":7385,"Ġ\"\"\"":7386,"popen":7387,"Ġworld":7388,"ctxt":7389,"formula":7390,"),('_":7391,"SOL":7392,"periods":7393,"Full":7394,"Mix":7395,"numer":7396,"mkdtemp":7397,"deprecated":7398,"Mask":7399,"ium":7400,"mpi":7401,"ROM":7402,"Logging":7403,">']:<":7404,"Allow":7405,"hara":7406,"Sizer":7407,"Ġat":7408,"anno":7409,"ationError":7410,"Register":7411,"Lazy":7412,"NU":7413,"rw":7414,"noop":7415,"rain":7416,"()/":7417,"Ġ[][]<":7418,"REGE":7419,"SETTING":7420,"preter":7421,"tokenize":7422,"Encode":7423,"latform":7424,"gtk":7425,"instru":7426,"BytesIO":7427,"canonical":7428,"DT":7429,"Ġen":7430,"Ġplugin":7431,"Ġconnect":7432,"ĠEvent":7433,"Progress":7434,"Ġtree":7435,"Ġ],[":7436,"expire":7437,"Workflow":7438,"whitespace":7439,"OwnerAccount":7440,"combine":7441,"weakref":7442,"Authentication":7443,"58":7444,"Django":7445,"ict":7446,"ĠList":7447,"Ġmeta":7448,"mmal":7449,">>":7450,"AG":7451,"ovr":7452,"tun":7453,"Ġ#":7454,"Ġthe":7455,"',{})<":7456,"ollow":7457,"shake":7458,"Groups":7459,"accum":7460,"Click":7461,"fds":7462,"contract":7463,"('\"":7464,"Ġ+=[":7465,"ĠSub":7466,"explicit":7467,"Flask":7468,"jinja":7469,"outine":7470,"Ġfull":7471,"Coord":7472,"infos":7473,"effs":7474,"Language":7475,".\")<":7476,"SV":7477,"percentile":7478,"ĠOper":7479,"namedtuple":7480,"producer":7481,"avi":7482,"unct":7483,"upstream":7484,"Ġ]]<":7485,"ffe":7486,"Ġfetch":7487,"NETWORK":7488,"DataCacheDictionary":7489,"Monitor":7490,"attempts":7491,"Bro":7492,"cons":7493,"silent":7494,"moved":7495,"NotSupported":7496,"recorder":7497,"Lin":7498,"Sp":7499,"cards":7500,"flavors":7501,"who":7502,"Ġ\")<":7503,"alarm":7504,"coerce":7505,"Ġinto":7506,"()[]":7507,"tency":7508,">[,],<":7509,"iotype":7510,"queues":7511,"toolbar":7512,"attachments":7513,"FIELDS":7514,",,,,,,,,,,,,,,,,,,,,,,,,,,,,,,,,,,,,,,,,,,,,,,,,,,,,,,,,,,,,,,,,,,,,,,,,,,,,,,,,,,,,,,,,,,,,,,,,,,,,,,,,,,,,,,,,,,,,,,,,,,,,,,,,,,,,,,,,,,,,,,,,,,,,,,,,,,,,,,,,,,,,,,,,,,,,,,,,,,,,,,,,,,,,,,,,,,,,,,,,,,,,,,,,,,,,,,,,,,,,,,,,,,,,,,,,,,,,,,,,,,,,,,,,,,,,,,,,":7515,"wheel":7516,"Ġnet":7517,"Ġlogin":7518,"sect":7519,"draft":7520,"written":7521,"CALL":7522,"OM":7523,"Push":7524,"elt":7525,"addCleanup":7526,"corpus":7527,"cvs":7528,"legacy":7529,"CV":7530,"Rep":7531,"infra":7532,"Bundle":7533,"ned":7534,"movi":7535,"==-:<":7536,"sentence":7537,"overlap":7538,"Price":7539,");<":7540,"SCons":7541,"WID":7542,"REEN":7543,"orders":7544,"rendering":7545,"strptime":7546,"Sc":7547,"Scan":7548,"Ġcommit":7549,"peek":7550,"lio":7551,"Common":7552,"sence":7553,"FromString":7554,"languages":7555,"Ġexport":7556,"Spa":7557,"Ġ\\":7558,"explanation":7559,"TestModel":7560,"REQ":7561,"ĠTh":7562,"notifications":7563,"WARE":7564,"errypy":7565,"Literal":7566,"Conver":7567,">[,,":7568,"=-,":7569,"Accept":7570,"REGEX":7571,"\"})<":7572,"HER":7573,"quality":7574,"()*":7575,"NotImplemented":7576,"decoded":7577,"periments":7578,"triple":7579,"Consumer":7580,"rsplit":7581,"='*":7582,"Decoder":7583,"ARG":7584,"finalize":7585,"nonzero":7586,"Short":7587,"RESPONSE":7588,"Ġattrs":7589,"arrow":7590,"look":7591,"ads":7592,",,,,,,,,,,,,":7593,"ACL":7594,"Bucket":7595,"analyzer":7596,")',":7597,"las":7598,"'):":7599,"Temporary":7600,"bidden":7601,"Ġcell":7602,"fasta":7603,"consts":7604,"'m":7605,"Area":7606,"seline":7607,"inDataCacheDictionary":7608,"Inf":7609,"modes":7610,"ObjectProperty":7611,"ParseError":7612,"SSES":7613,"[('":7614,"STOR":7615,"',_":7616,"Ġ][]<":7617,"nodeName":7618,"Standard":7619,"Ġ*)<":7620,")==)<":7621,"Seq":7622,"attribXml":7623,"transactions":7624,"Ġ''.":7625,"Coeffs":7626,"refle":7627,"Ġkind":7628,"EXIST":7629,"merged":7630,"gyp":7631,"heartbeat":7632,"Ġprop":7633,"ini":7634,"keeper":7635,"cheme":7636,"BUTTON":7637,"(('<":7638,"68":7639,">'+'<":7640,"consume":7641,"completions":7642,"bon":7643,"gau":7644,"lit":7645,"Ġstat":7646,"recipe":7647,",'-":7648,"configur":7649,"libs":7650,"radar":7651,"percentage":7652,"STORE":7653,"FLOAT":7654,"Dest":7655,"Ten":7656,"Ġfake":7657,"Ġchain":7658,"inCoeffs":7659,"ric":7660,"door":7661,"Ġ[][],":7662,"iteration":7663,"Unique":7664,"Neg":7665,"passed":7666,"maint":7667,"='{":7668,"plane":7669,"\"),\"":7670,"Blue":7671,"conflict":7672,"mediate":7673,"allocate":7674,"-,":7675,"cube":7676,"DEV":7677,"fork":7678,"classifier":7679,"Decl":7680,"UPDATE":7681,"OpenStack":7682,"DC":7683,"bn":7684,"dsa":7685,"half":7686,"kv":7687,"pandas":7688,"ĠY":7689,"Ġpro":7690,"moder":7691,"needed":7692,"Ġsplit":7693,"offer":7694,"(,,,)<":7695,"zones":7696,"PYTHON":7697,"freqs":7698,"Ġdefer":7699,"counters":7700,"Variables":7701,"Geo":7702,"STRUCT":7703,"Sim":7704,"Ġparsed":7705,"reco":7706,"onal":7707,"statistics":7708,"lik":7709,"normalized":7710,"affinity":7711,"mobile":7712,"caten":7713,"frappe":7714,"IDENT":7715,"Saml":7716,"pwd":7717,"stuff":7718,"geno":7719,"unquote":7720,"Ġ[],)<":7721,"macros":7722,"PARAMS":7723,"',)\",'":7724,"CAP":7725,"Rate":7726,"Ġinsert":7727,"REE":7728,"Ġcustom":7729,"647":7730,"Ġpyjamas":7731,"RAW":7732,"Dependency":7733,"SELECT":7734,"=/":7735,"XX":7736,"gw":7737,"rsp":7738,"ĠAdd":7739,"minder":7740,"(_('":7741,"Alter":7742,"(/":7743,":]":7744,"Aggreg":7745,"dll":7746,"xi":7747,"xaxis":7748,"xyz":7749,"tives":7750,"srid":7751,"07":7752,"So":7753,"Uri":7754,"eye":7755,"Ġauto":7756,"arest":7757,"Ġinitialize":7758,"INTEGER":7759,"trac":7760,"Ġ+):<":7761,"dfp":7762,"CLASSES":7763,"minions":7764,"palette":7765,")[":7766,"Band":7767,"CTED":7768,"RL":7769,"rsa":7770,"vate":7771,"Ġfid":7772,"ars":7773,"posal":7774,"floatX":7775,"svc":7776,",,<":7777,"Dynamic":7778,"Plot":7779,"fip":7780,"pem":7781,"pyplot":7782,"Assert":7783,"ABC":7784,"(\\":7785,"=(,":7786,">('<":7787,"vdi":7788,"Ġlevel":7789,"reserved":7790,"excluded":7791,"timing":7792,"failUnlessEqual":7793,"Future":7794,"GEO":7795,"dur":7796,"'],'<":7797,"Filename":7798,"COMPLE":7799,"LABEL":7800,"31":7801,"audit":7802,"fy":7803,"hat":7804,"tgt":7805,"Ġan":7806,"season":7807,"FOL":7808,"TESTFN":7809,"clusion":7810,"Ġkw":7811,"confi":7812,"doctype":7813,"Condition":7814,"alice":7815,"Ġ-]":7816,"iters":7817,"ADATA":7818,"sentinel":7819,"restri":7820,"frag":7821,"SD":7822,"equ":7823,"fab":7824,"oms":7825,"ĠConnection":7826,"rewrite":7827,"aspect":7828,"='-":7829,"cesses":7830,"transpose":7831,"errmsg":7832,"UTC":7833,"HTTPS":7834,"caption":7835,"Connect":7836,"MARK":7837,"((\"":7838,"DING":7839,"wf":7840,"Ġof":7841,"ongo":7842,"gap":7843,"Ġqueue":7844,"=[])<":7845,"Lost":7846,"SHO":7847,"solver":7848,"sdk":7849,"Kernel":7850,"ey":7851,"retch":7852,"extent":7853,"statements":7854,"ĠSystem":7855,"epsilon":7856,"FormSet":7857,"delitem":7858,"subscriber":7859,"DecodeError":7860,"ZER":7861,"cdata":7862,"()}<":7863,"Parti":7864,"MSA":7865,"cntl":7866,"ChoiceField":7867,"REQUIRED":7868,")),)<":7869,"Clear":7870,"GIT":7871,"IFI":7872,"Ġlimit":7873,"alk":7874,"subparsers":7875,"White":7876,"CONTROL":7877,"'[":7878,"Soft":7879,"large":7880,"wind":7881,"positive":7882,"reversed":7883,"AGENT":7884,"enchmark":7885,"piece":7886,"substit":7887,"Origin":7888,"\",,":7889,"tty":7890,"dedent":7891,"omial":7892,"BaseCommand":7893,"episode":7894,"ĠIs":7895,"Messages":7896,"Bound":7897,"polyData":7898,"Ptr":7899,"yp":7900,"lied":7901,"kes":7902,"=='':<":7903,"ĠMulti":7904,"VIEW":7905,"Ġoptparse":7906,")')<":7907,":\\":7908,"yy":7909,"Ġlookup":7910,"=\"\\":7911,"IPV":7912,"particip":7913,"memoized":7914,"invoice":7915,"Producer":7916,"239":7917,"nobs":7918,"FileName":7919,"NOTI":7920,"{}'.":7921,"Creature":7922,"LOBAL":7923,"Draw":7924,"GT":7925,"ifs":7926,"etc":7927,"(\"\")<":7928,"Stroke":7929,"Double":7930,"batches":7931,"twitter":7932,"Ġinstall":7933,"fq":7934,"tan":7935,"testcase":7936,"intersection":7937,"capacity":7938,",,,])<":7939,"Distribu":7940,"routers":7941,"SamlBase":7942,"aker":7943,"utit":7944,"rebuild":7945,"inser":7946,"arrays":7947,"',[])<":7948,"Ġ]-":7949,"accur":7950,"SETTINGS":7951,"catenate":7952,"pkey":7953,"ality":7954,"elm":7955,"erarchy":7956,"RIGHT":7957,"Shell":7958,"rac":7959,"'])":7960,"Ġfd":7961,"ncies":7962,"Ġ[],'":7963,"NAMES":7964,"LOGIN":7965,"Ġ+'_":7966,"translator":7967,"hydr":7968,"NotFoundError":7969,"firewall":7970,"gm":7971,"mapre":7972,"==)<":7973,"prefer":7974,"Ġreport":7975,"itertools":7976,"ObjectName":7977,"ĠCheck":7978,"asyn":7979,"CERT":7980,"mapreduce":7981,"Fill":7982,"Total":7983,"sequen":7984,"Ġ[_":7985,"heet":7986,"\"]))<":7987,"histogram":7988,"declare":7989,"CRY":7990,"accepted":7991,"GO":7992,"mute":7993,"MET":7994,"widths":7995,"omega":7996,"discoro":7997,"ĠCreate":7998,"__'):<":7999,"codecs":8000,"cam":8001,"([,]":8002,"EXTE":8003,"multipart":8004,"QUEUE":8005,"TabularMSA":8006,"ran":8007,"Ġmd":8008,"references":8009,"Primary":8010,"CLOSE":8011,"Long":8012,"PB":8013,"RESOURCE":8014,"Media":8015,"CreateMock":8016,"cinder":8017,"gun":8018,"kze":8019,"ython":8020,"Ġtotal":8021,"ancy":8022,"arglist":8023,"TERN":8024,"kzeug":8025,"xls":8026,"Ġsection":8027,"addEdge":8028,"Ġ[]]":8029,"Expi":8030,"=='-":8031,"emails":8032,"Ġ[-])<":8033,"celery":8034,"dk":8035,"parallel":8036,"bud":8037,"collap":8038,"()[":8039,"curve":8040,"StringProperty":8041,"itize":8042,",_,":8043,"ENV":8044,"Checker":8045,"'d":8046,"HAS":8047,"uit":8048,"vectors":8049,"Ġpassword":8050,"Ġwin":8051,"intro":8052,"(_(\"":8053,"OPT":8054,"controllers":8055,"fetchall":8056,"PUB":8057,"Side":8058,"cum":8059,"rnd":8060,"Ġhelp":8061,"stc":8062,"bly":8063,"jsondict":8064,"transforms":8065,"Events":8066,"TEXTURE":8067,"LONG":8068,"rpm":8069,")<=":8070,"trim":8071,",'%":8072,"membership":8073,"protocols":8074,"fetchone":8075,"COOKIE":8076,"jected":8077,"sandbox":8078,"Ġdecode":8079,"incr":8080,"nose":8081,"fromstring":8082,"=[],<":8083,"Ġ]),<":8084,"Mouse":8085,"([,,,,":8086,"')]":8087,"tuples":8088,"Algorithm":8089,"Ġflags":8090,"quotas":8091,"AA":8092,"cart":8093,"mand":8094,"reak":8095,"outs":8096,"maxsize":8097,"Ġ'*":8098,"Ġ--":8099,"replacement":8100,"webapp":8101,"PROPER":8102,"tornado":8103,"definitions":8104,"predictions":8105,"duplicate":8106,"Bal":8107,"PDF":8108,"ko":8109,"tweet":8110,"Ġplot":8111,"Vide":8112,"EXCEP":8113,")\"%(":8114,"DR":8115,"Ġdomain":8116,"Ġwrap":8117,"(\"_":8118,"cython":8119,"ATED":8120,"mpling":8121,"Sort":8122,"Ġtags":8123,"enqueue":8124,"dian":8125,"']\",'":8126,"paren":8127,"compression":8128,"matcher":8129,"ĠSCons":8130,"))):<":8131,")*(":8132,"sistency":8133,"optimize":8134,"tel":8135,"ssue":8136,"readable":8137,"Alias":8138,"DataCacheFunctions":8139,"Fixed":8140,"Sec":8141,"TAR":8142,"kb":8143,"tech":8144,"fieldsets":8145,"hood":8146,"subscriptions":8147,"markup":8148,"ValidationTestModelAdmin":8149,"ĠSchemaMigration":8150,"FIN":8151,"]])<":8152,"eu":8153,"rg":8154,"lies":8155,"Acceler":8156,")*<":8157,"Ġcontextlib":8158,"inlineCallbacks":8159,"Drop":8160,"mn":8161,"simil":8162,"('$":8163,"Reply":8164,"Ġ:[":8165,"(,,,":8166,"voice":8167,"delivery":8168,"Redirects":8169,"Public":8170,"suggest":8171,"=(,)<":8172,"=(,))<":8173,"Red":8174,"Tex":8175,"slt":8176,"Ġrole":8177,"ital":8178,"chmod":8179,"experiments":8180,"']).":8181,"Ġsample":8182,"Setting":8183,"Ġlibcloud":8184,"nomial":8185,"STORAGE":8186,">\\":8187,"Hidden":8188,"kControl":8189,"plots":8190,"varname":8191,"ĠDummy":8192,"History":8193,"Platform":8194,"UES":8195,"ĠUnicode":8196,"openid":8197,"Matches":8198,"SchemaMigration":8199,"Sys":8200,"flex":8201,"Ġhtml":8202,"Ġusers":8203,"reen":8204,"atter":8205,"ffect":8206,"mv":8207,"oned":8208,"parsing":8209,"signatures":8210,"chool":8211,"solve":8212,"credit":8213,"UcsFactoryMeta":8214,"ama":8215,"camera":8216,"xen":8217,"Ġcluster":8218,"exploration":8219,"profiles":8220,"ints":8221,"')[]<":8222,"Resolver":8223,"marsh":8224,"Ġ+\"\\":8225,"Modified":8226,"Traits":8227,"Numeric":8228,"REMOTE":8229,"plier":8230,"Blob":8231,"Gateway":8232,"GLOBAL":8233,"gation":8234,"ĠFake":8235,">'__":8236,"anted":8237,"),),<":8238,"REGI":8239,")+'<":8240,"markdown":8241,"ByName":8242,"Ġ**+":8243,"frica":8244,"DNS":8245,"Sheet":8246,"tur":8247,"Ġper":8248,"coef":8249,"pod":8250,"ACCEP":8251,"setuptools":8252,"werkzeug":8253,"Calc":8254,"Ass":8255,"hv":8256,"devel":8257,"pike":8258,"----":8259,"CONTEXT":8260,"invoke":8261,"Ġlength":8262,"REL":8263,"npt":8264,"SENT":8265,"Ġ/)<":8266,"IPv":8267,"':\"('":8268,"Methods":8269,"OSError":8270,"DLE":8271,"QApplication":8272,"hid":8273,"Ġ+*":8274,"pyc":8275,"news":8276,"sound":8277,"Ġpprint":8278,"Ġgit":8279,"Selected":8280,"MENTS":8281,"benchmark":8282,"Africa":8283,"BAR":8284,"ĠField":8285,"stroke":8286,"ence":8287,"),))<":8288,"keyfile":8289,"mocked":8290,"soup":8291,"milli":8292,"Weight":8293,"67":8294,"yaxis":8295,"Ġtemp":8296,"Ġabs":8297,"Ġbytes":8298,"ĠJSON":8299,"mpc":8300,"Ġ['__":8301,"estimat":8302,">[],<":8303,"freeze":8304,"Distance":8305,"Topic":8306,"production":8307,"WIDTH":8308,"BA":8309,"Fault":8310,"hub":8311,"olve":8312,"cords":8313,"'],['":8314,"relpath":8315,"translations":8316,"(',')<":8317,"Scalar":8318,"cgi":8319,"ĠQueue":8320,"incoming":8321,"coe":8322,"assertDict":8323,"vertex":8324,"classname":8325,"four":8326,"()),)<":8327,"subplot":8328,"managers":8329,"attribStroke":8330,"epochs":8331,"=[]):<":8332,"Shared":8333,"Ġextract":8334,"'][]<":8335,"illow":8336,"=[{'":8337,"\",(":8338,"Ġ]).":8339,"Ġsp":8340,"comps":8341,"indexed":8342,"Ġ[:]=":8343,"maintain":8344,"Video":8345,"bet":8346,"Ġstack":8347,"Ġparts":8348,"mach":8349,"Internal":8350,"Example":8351,"Ġreplace":8352,"filing":8353,"prim":8354,"grains":8355,"seqs":8356,"HELP":8357,"Ġprepare":8358,"']['<":8359,"SCRIPTION":8360,")=='":8361,"Ġans":8362,"__=[<":8363,"pygame":8364,"ObjectPropertyType":8365,"'/":8366,"((<":8367,",{},":8368,"WM":8369,"zzy":8370,"Ġverify":8371,"retcode":8372,"Reset":8373,"explo":8374,"assigned":8375,"Switch":8376,"RSA":8377,"TLS":8378,"Ġrows":8379,"getenv":8380,"'](":8381,"Ġ+]<":8382,"pread":8383,"cay":8384,"specific":8385,"socketId":8386,"adoop":8387,"\")]<":8388,"ajax":8389,"slope":8390,"ĠID":8391,"ĠText":8392,"gens":8393,"haz":8394,"':[{'":8395,"agents":8396,"frac":8397,"snapshots":8398,"questions":8399,"QL":8400,"ceeded":8401,"addTest":8402,"DISP":8403,"DOT":8404,"drag":8405,"measurement":8406,"writeFieldEnd":8407,"writeFieldBegin":8408,"basis":8409,"basket":8410,"vms":8411,"ym":8412,"='')<":8413,"voc":8414,"DIRS":8415,"Ġconfigure":8416,"strides":8417,"={}):<":8418,"WHITE":8419,"semble":8420,"lf":8421,"trv":8422,"that":8423,"Try":8424,"())))<":8425,"ALLOWED":8426,"mpaign":8427,"JOB":8428,"turn":8429,"za":8430,"Ġappend":8431,"encrypt":8432,"fileName":8433,"();<":8434,"Enable":8435,"plug":8436,"ĠDec":8437,"latin":8438,"ATIONS":8439,"Cfg":8440,"PM":8441,"Screen":8442,"Ġqueryset":8443,"atal":8444,"ellow":8445,"ween":8446,"functionList":8447,"finite":8448,"UNIT":8449,"ElementTree":8450,"Prefixed":8451,"buttons":8452,"INTERNET":8453,"MCI":8454,"Ġbo":8455,"ĠGroup":8456,"Ġctypes":8457,"leading":8458,"chro":8459,"setObjectName":8460,"pytz":8461,"building":8462,"ĠMessage":8463,"Append":8464,"Details":8465,"www":8466,"identifiers":8467,":/":8468,"Ġlogger":8469,"Ġoauth":8470,"mel":8471,"tilities":8472,"peed":8473,"appy":8474,"dbapi":8475,"intercept":8476,",-)<":8477,"Ġcodecs":8478,"inherit":8479,"Credentials":8480,"Glyph":8481,"hmac":8482,"Ġput":8483,"Ġaddr":8484,"ĠOpen":8485,"TestBase":8486,"Ġdraw":8487,",\"-":8488,"(,,),<":8489,"rfc":8490,"detect":8491,"METADATA":8492,"pip":8493,"Ġsite":8494,"eli":8495,"Ġ[])":8496,"Ġ*=":8497,"byref":8498,"ferent":8499,"Ġ\"\\":8500,"Factor":8501,"Negative":8502,"Bot":8503,"WITH":8504,"fm":8505,"pci":8506,"Ġyaml":8507,"conditions":8508,"('+":8509,"argspec":8510,"debugger":8511,"CENT":8512,")+'\\":8513,"IPPROTO":8514,"goto":8515,"cycles":8516,"Anything":8517,"HANDLE":8518,"FACE":8519,"NON":8520,"inventory":8521,"posed":8522,"Ġsn":8523,"reads":8524,"nums":8525,"popup":8526,"MASK":8527,"Pix":8528,">',{<":8529,"logic":8530,"csr":8531,"LAST":8532,"baseline":8533,"HOME":8534,",,,]<":8535,"whitelist":8536,"CASE":8537,"Rpc":8538,"ock":8539,"ĠSkip":8540,"athon":8541,"ocity":8542,"Marker":8543,"ĠPermission":8544,"Converter":8545,"Ang":8546,"Gpu":8547,"sal":8548,"==_":8549,"More":8550,"Pose":8551,"Ġrdf":8552,"wallet":8553,"Tracker":8554,"scape":8555,"expanded":8556,"JO":8557,"OGR":8558,"leader":8559,"company":8560,"tmpfile":8561,"datad":8562,"wire":8563,"snippet":8564,"\"*":8565,"POR":8566,"oth":8567,"ĠU":8568,"ert":8569,"rack":8570,"lack":8571,">@_":8572,"=\".":8573,"Ġremote":8574,"Elem":8575,",]])<":8576,"fpath":8577,"ike":8578,"mult":8579,"Ġconstants":8580,"isnan":8581,"scipy":8582,"deletion":8583,"avas":8584,"Summary":8585,"PACKAGE":8586,"ities":8587,"mdao":8588,"ĠDatabase":8589,"trial":8590,"libr":8591,"stopped":8592,"TemporaryFile":8593,"PrefixedString":8594,"364":8595,"Mac":8596,"Right":8597,"ĠModule":8598,"']}<":8599,">\"<":8600,"Ġdt":8601,"trail":8602,"quick":8603,"USH":8604,"ENABLED":8605,"Light":8606,"ism":8607,"()==\"":8608,">\"-":8609,"attribOn":8610,"Compiler":8611,"VED":8612,"redirects":8613,"Visitor":8614,"Term":8615,"square":8616,"MIDDLE":8617,"ox":8618,"Ġqs":8619,"','__":8620,"shutit":8621,"Ġstep":8622,"Export":8623,"tenants":8624,">':[":8625,"ĠCON":8626,"central":8627,"glance":8628,"pidfile":8629,"Branch":8630,"\"},<":8631,"pf":8632,"vin":8633,"zoo":8634,"another":8635,"Ġcan":8636,"archi":8637,"Ġtt":8638,"astic":8639,"Packet":8640,"PROTOCOL":8641,"CY":8642,"RST":8643,"Ġfastbinary":8644,"probs":8645,"prite":8646,"ductor":8647,"includes":8648,"something":8649,"coordinates":8650,"accuracy":8651,"Cla":8652,"Embed":8653,"_='<":8654,"incip":8655,"linked":8656,"runs":8657,"Commands":8658,"Complex":8659,"attname":8660,"TRANS":8661,"Cancel":8662,"amp":8663,"qa":8664,"Ġpi":8665,"least":8666,"tice":8667,"Ġ]),":8668,"listing":8669,"interpreter":8670,"CHAN":8671,"skipped":8672,"Plane":8673,"Distribution":8674,"EXCEPTION":8675,"FD":8676,"pure":8677,"uous":8678,"Ġpa":8679,"Ġdump":8680,"DEP":8681,"','\\":8682,"()[].":8683,"packed":8684,"DISK":8685,"xmlrpc":8686,"2014":8687,"Extended":8688,"CURRENT":8689,"ĠNameError":8690,"Greater":8691,"Rot":8692,"want":8693,"todo":8694,"linspace":8695,"Ġsq":8696,"Ġ[]==\"":8697,"dirpath":8698,"ARRAY":8699,"ICAL":8700,"ĠKeyboardInterrupt":8701,"ADDRESS":8702,"projection":8703,"recipients":8704,"[,,],":8705,"problems":8706,"(':')<":8707,"prepared":8708,"budget":8709,"(?":8710,"Dn":8711,"every":8712,"xrange":8713,"Ġaddress":8714,"erature":8715,"Ġ][\"":8716,"compressed":8717,"expiry":8718,"Play":8719,"Poll":8720,"TIT":8721,"lert":8722,"SEC":8723,"extractor":8724,"Subscription":8725,"afka":8726,"medium":8727,"\")))<":8728,"land":8729,"verilog":8730,"fac":8731,"Ġ[]),<":8732,"Ġvm":8733,"Paths":8734,"surface":8735,"FUNCTION":8736,"=(,),":8737,"cores":8738,"']})<":8739,"()!=":8740,"Ġ[]=<":8741,"minus":8742,"supports":8743,"bufsize":8744,"Ġdec":8745,"Wrap":8746,"SMTP":8747,"Ġsuccess":8748,"TARGET":8749,",)":8750,"third":8751,"addHandler":8752,"objectId":8753,"loading":8754,"Html":8755,"Ġ]+=<":8756,"DATABASES":8757,",=":8758,"512":8759,"()]":8760,"')==":8761,"rffi":8762,"bytearray":8763,"bdm":8764,"cifs":8765,"Ġca":8766,"choo":8767,"','%":8768,"apple":8769,"Convert":8770,"(,):":8771,">\"--":8772,"ĠAb":8773,")=='<":8774,"drus":8775,"TEXTNS":8776,"Relationship":8777,"jpg":8778,"zlib":8779,"Ġplt":8780,"idmap":8781,"('{":8782,"tostring":8783,"ToOne":8784,"cial":8785,"energy":8786,"alphaMaterials":8787,"Rows":8788,"aneti":8789,"Safe":8790,"sembly":8791,"}}":8792,"Ġme":8793,"peak":8794,"contour":8795,"propa":8796,"glfw":8797,"aux":8798,"Ġ{}'.":8799,"unctuation":8800,"Pen":8801,"fcntl":8802,"Ġ).":8803,"fora":8804,"ulated":8805,"('[":8806,"mapped":8807,"weep":8808,"Ġgo":8809,"mks":8810,"Polygon":8811,"Accelerated":8812,"-]<":8813,"CAL":8814,"Db":8815,"Ġro":8816,"Ġerrno":8817,"unded":8818,"moid":8819,"applied":8820,"delt":8821,"Real":8822,"contextmanager":8823,"php":8824,"\"]=\"":8825,"wintypes":8826,"AddField":8827,"implicit":8828,"Ġsuite":8829,"ĠService":8830,"posixpath":8831,"datasource":8832,"Watch":8833,"ake":8834,"nf":8835,"plist":8836,"uplicate":8837,"POSIT":8838,"Forbidden":8839,"isoformat":8840,"issues":8841,"MIME":8842,"TBinaryProtocolAccelerated":8843,"CreateMockAnything":8844,"Go":8845,"bw":8846,"apic":8847,"readField":8848,"))/":8849,"illar":8850,"Signed":8851,")'%":8852,"eg":8853,"DESCRIPTION":8854,"detach":8855,"Ġ[,]<":8856,"assertRedirects":8857,"':'/":8858,"Ġschema":8859,"readStruct":8860,"backref":8861,",\"%":8862,"Users":8863,"changeset":8864,"udp":8865,"polys":8866,"ĠDB":8867,"Ġcloud":8868,"Publisher":8869,"It":8870,"cg":8871,"Ġns":8872,"Ġproduct":8873,"lets":8874,"ann":8875,"moment":8876,"__(**":8877,"Repr":8878,"().__":8879,"irth":8880,"VALUES":8881,"TestsFrom":8882,"authentication":8883,"versal":8884,"craw":8885,"ople":8886,"observed":8887,"=[,]<":8888,"formatters":8889,"writeStruct":8890,"voke":8891,"Ġsublime":8892,"Intangible":8893,"stored":8894,"directive":8895,"PENDING":8896,"Der":8897,"tn":8898,"Ġ;<":8899,"ĠOrderedDict":8900,"pyeq":8901,"URN":8902,"Ġ/(":8903,"emitter":8904,"VARI":8905,"ctivity":8906,"issu":8907,"']),)<":8908,"LES":8909,"velope":8910,">[<":8911,"KEND":8912,"EXEC":8913,"DateField":8914,"Payload":8915,"BUILD":8916,"=[,,]<":8917,"below":8918,"=+":8919,"TIN":8920,"atives":8921,"addComponent":8922,"npc":8923,"sampling":8924,"':_('<":8925,"synchron":8926,"Ġsignal":8927,"Ġpatterns":8928,"unary":8929,"vided":8930,"[],[],":8931,"rend":8932,"SECUR":8933,"circ":8934,"website":8935,"Ġ[-],":8936,"proxies":8937,"RM":8938,"}\\":8939,"isol":8940,"mentation":8941,"nest":8942,"startup":8943,"lengths":8944,"Division":8945,"sensitive":8946,"THREAD":8947,"avascript":8948,"tached":8949,"compar":8950,"REDIRECT":8951,"tagged":8952,"doctest":8953,"':\"['":8954,"[:]<":8955,"markers":8956,"FROM":8957,"PN":8958,"SR":8959,"ios":8960,"utions":8961,"wizard":8962,"Ġthread":8963,"',,'":8964,"concatenate":8965,"simpl":8966,"density":8967,"CSV":8968,"Attach":8969,"SCADE":8970,"112":8971,"Master":8972,"Ġbackend":8973,"Ġ{\"":8974,"roves":8975,"('!":8976,"assoc":8977,"itecture":8978,"')),":8979,"={:":8980,"drivers":8981,"facebook":8982,"Elements":8983,"Compute":8984,"BLOB":8985,"ares":8986,"tpl":8987,"Ġpackage":8988,"repl":8989,"det":8990,"utors":8991,"\",[":8992,"'),**":8993,"Entries":8994,"skipUnless":8995,"Ġsimplejson":8996,"Actions":8997,"Cy":8998,"hic":8999,"morph":9000,"unwrap":9001,"()]=":9002,"[]])<":9003,"Ġ/=":9004,"waiting":9005,"visitor":9006,"Snapshot":9007,"BB":9008,"hue":9009,"Ġmetadata":9010,"Ġhttplib":9011,"depart":9012,"Ġidenti":9013,"unked":9014,"shadow":9015,"Ġ+))<":9016,"coroutine":9017,"postgres":9018,"attribX":9019,"ĠDate":9020,"Widgets":9021,"AUTO":9022,"Ġevalpy":9023,"wkt":9024,"Mul":9025,"gdal":9026,"sb":9027,"trust":9028,"scatter":9029,"ami":9030,"subdir":9031,"ĠAPI":9032,"Idx":9033,"iodic":9034,"ViewSet":9035,"1000":9036,"Predi":9037,"\":[<":9038,"alignment":9039,"ĠServer":9040,"TZ":9041,"dct":9042,"ky":9043,"desk":9044,"conversion":9045,"approx":9046,"tau":9047,"Std":9048,"childNode":9049,"queued":9050,"OPER":9051,"imported":9052,"contributor":9053,"TERM":9054,"CASCADE":9055,"directed":9056,"sampler":9057,"SCHEMA":9058,"IMP":9059,"]),('_":9060,"Ġsentry":9061,"(\":":9062,"minal":9063,"Ġcsv":9064,"BACKEND":9065,"recent":9066,"',''))<":9067,"raft":9068,"Ġ]!=":9069,"Ġ+':":9070,"worktree":9071,"(,),(,":9072,"PATTERN":9073,"toolbox":9074,"scanner":9075,"combined":9076,"FACT":9077,"ache":9078,"bf":9079,"ian":9080,"osite":9081,"sot":9082,"targ":9083,"stype":9084,"boards":9085,"Ġsort":9086,"ĠOn":9087,"variate":9088,"Ġpublic":9089,"transformer":9090,"AX":9091,"AST":9092,"ASS":9093,"Benchmark":9094,"rss":9095,"ĠLog":9096,"verified":9097,"tention":9098,"sqlalchemy":9099,"folders":9100,"SECURITY":9101,"Ġtransform":9102,"Ġ]=[":9103,"Ġopenmdao":9104,"MISSION":9105,"FAILURE":9106,"09":9107,"SRC":9108,"air":9109,"imap":9110,"pal":9111,"clau":9112,"univ":9113,"Ġtx":9114,"(,,'":9115,"Creation":9116,"Transfer":9117,"DSA":9118,"749":9119,"RUNNING":9120,"bid":9121,"fut":9122,"Ġresolve":9123,"Indent":9124,">',[],{})<":9125,"Ġ[]!=":9126,"ListView":9127,"Running":9128,"MOCK":9129,"Finder":9130,"zie":9131,"Ġpattern":9132,"':[]":9133,"shi":9134,"Ġreview":9135,"MENU":9136,"BaseTestCase":9137,"NSION":9138,"EDIT":9139,"subjects":9140,"discovery":9141,"DY":9142,"ei":9143,"pdb":9144,"Ġcomment":9145,"ORDER":9146,"ilestone":9147,"Manage":9148,"000000":9149,"frontend":9150,"encrypted":9151,"CLUSTER":9152,"hicle":9153,"YPE":9154,"amo":9155,"atory":9156,"',**":9157,"keh":9158,"Ġrelease":9159,"Star":9160,"footer":9161,"offi":9162,"handles":9163,"ENTRY":9164,"badge":9165,"INSTANCE":9166,"slash":9167,"UTE":9168,"ĠDe":9169,"Ġstyle":9170,"Ġchoice":9171,"pyfunc":9172,"pygments":9173,"Ġpush":9174,"accessor":9175,"]=<":9176,"ylim":9177,"}/":9178,"throw":9179,"toc":9180,"nearest":9181,"Ġbad":9182,"autoGenerate":9183,"wxID":9184,"States":9185,"Ġmatches":9186,"',,-),('":9187,"interpolation":9188,"Dig":9189,"FW":9190,"ĠZ":9191,"ĠProject":9192,"geos":9193,"resume":9194,"Proc":9195,"loyee":9196,"Ġregion":9197,"blah":9198,"compose":9199,"legal":9200,",).":9201,"800":9202,"MB":9203,"mx":9204,"mor":9205,"aps":9206,"entropy":9207,"Repo":9208,"Ġfname":9209,"operand":9210,"crash":9211,"ĠHTTPError":9212,"fv":9213,"jwt":9214,"vcs":9215,"arp":9216,"lain":9217,"BOOL":9218,"iterkeys":9219,"rounding":9220,"libraries":9221,",)=":9222,"ENO":9223,"amer":9224,"eng":9225,"pager":9226,"Ġdat":9227,"ĠMis":9228,"udent":9229,"201":9230,"ĠDis":9231,"quoted":9232,"pename":9233,"NUMER":9234,"scheduled":9235,"ĠCommandError":9236,"MIDDLEWARE":9237,"Big":9238,"Ġmanager":9239,"reboot":9240,"anim":9241,">',[":9242,"neo":9243,"Ġ:_":9244,"LookupTable":9245,"Na":9246,"namedtype":9247,"provision":9248,"userid":9249,",'/":9250,"ORS":9251,"prefixes":9252,"250":9253,"Comparison":9254,"seqid":9255,"expired":9256,"instructions":9257,"-,,":9258,"624":9259,"ELE":9260,"Scene":9261,"vor":9262,"Ġmessages":9263,"unregister":9264,"mods":9265,"assertContains":9266,"tolist":9267,"ramid":9268,"Repe":9269,"ronic":9270,"UserFactory":9271,"Vertices":9272,"Versions":9273,"crud":9274,"Backup":9275,"bian":9276,"clauses":9277,"Atom":9278,"Ġup":9279,"Ġvistrails":9280,"erase":9281,"',),":9282,"amb":9283,"elems":9284,"platforms":9285,"slices":9286,"Ġreversed":9287,"Des":9288,"KIND":9289,"RFC":9290,"SCO":9291,"Ġchannel":9292,"Ġ\\\\":9293,"Ġperm":9294,"redmine":9295,"uuids":9296,"grees":9297,"HAVE":9298,"885":9299,"II":9300,"NN":9301,"ylabel":9302,"Ġserialize":9303,"Ġwerkzeug":9304,"tivi":9305,"getAttribute":9306,"isys":9307,"REPL":9308,"boxes":9309,"fullpath":9310,"assertDictEqual":9311,"ĠSkipTest":9312,"PORTED":9313,"CLE":9314,"GD":9315,"fla":9316,"orten":9317,"',{}).":9318,">',{'":9319,"ALIGN":9320,"Created":9321,"Dispatcher":9322,"bitmap":9323,"Ġ:\"#":9324,"DAY":9325,"(',":9326,"Follow":9327,"Mapper":9328,"eth":9329,"Ġms":9330,"Ġprofile":9331,"']])<":9332,"appa":9333,"prime":9334,"=['-":9335,"Ops":9336,"101":9337,"DOUT":9338,"maintainer":9339,"issuer":9340,"dshape":9341,"mption":9342,"cherrypy":9343,"Ġinner":9344,"','',":9345,"Ġreduce":9346,"ĠcStringIO":9347,"Ġpd":9348,"Execute":9349,"totals":9350,"Ġnormalize":9351,">]":9352,"Cs":9353,"bib":9354,"fresh":9355,"uate":9356,"Ġcompile":9357,"__),":9358,"istent":9359,"Redis":9360,"preview":9361,"journ":9362,"loadTestsFrom":9363,"DICT":9364,"cir":9365,"psutil":9366,"bsl":9367,"spike":9368,"visited":9369,"ZERO":9370,")[].":9371,"52":9372,"Center":9373,"tlist":9374,"Ġal":9375,"Ġfix":9376,"Ġusername":9377,"Ġ[,:":9378,"consistency":9379,"sibl":9380,"marathon":9381,"ptg":9382,"Super":9383,"Allowed":9384,"After":9385,"qr":9386,"stick":9387,"lev":9388,"Ġ](":9389,"Forward":9390,"Ġjsonify":9391,"servations":9392,"basicConfig":9393,"directories":9394,")()<":9395,",),(":9396,",(,))<":9397,"Dump":9398,"Ġfab":9399,"Ġ[::-":9400,"closing":9401,"Ġempty":9402,"LAttribute":9403,"webob":9404,"Submit":9405,"caps":9406,"releases":9407,"protected":9408,"datapath":9409,"ALIAS":9410,"XMLAttribute":9411,"Ctr":9412,"Cli":9413,"rmed":9414,"sat":9415,"spatial":9416,"school":9417,"Ġfactory":9418,"Ġexclude":9419,"too":9420,"isdigit":9421,"preferences":9422,"Ġrepo":9423,"regular":9424,"Focus":9425,"WINDOW":9426,"FOLDER":9427,"<<":9428,"Ok":9429,"RDF":9430,"imag":9431,"uda":9432,"stm":9433,">',['":9434,",'.":9435,"gender":9436,"):]<":9437,"hierarchy":9438,"Private":9439,"stripe":9440,"succeed":9441,"RETRY":9442,"tivities":9443,"Issue":9444,"ync":9445,"tities":9446,"concat":9447,"),[":9448,"='#":9449,"','').":9450,"Ġ]=[]<":9451,"Retry":9452,"()[])<":9453,"ffset":9454,"traver":9455,"netmask":9456,"corr":9457,"Ġvolume":9458,"1111":9459,"Already":9460,"certfile":9461,"Regression":9462,"ITEM":9463,"Canvas":9464,"Angle":9465,"deltas":9466,"\"'%":9467,"Later":9468,"bq":9469,"pycurl":9470,"lengthString":9471,"Visible":9472,"CODES":9473,"completer":9474,"analyze":9475,"aterial":9476,"bracket":9477,"AGER":9478,"Cred":9479,"OG":9480,"SMS":9481,"Ġssl":9482,"Ġmerge":9483,"sioned":9484,"fromtimestamp":9485,"'},":9486,"temperature":9487,"CommandError":9488,"tracking":9489,"TagLookupTable":9490,"switches":9491,"atern":9492,"Matcher":9493,"BuildTagLookupTable":9494,"uralNode":9495,"representation":9496,":'<":9497,"Break":9498,"HORIZ":9499,"VID":9500,"ctime":9501,"Ġcontainer":9502,"andra":9503,"observable":9504,"Ġ[][":9505,"DIFF":9506,"median":9507,"grads":9508,"grammar":9509,"Ġdis":9510,"rem":9511,"reject":9512,"stretch":9513,"('*":9514,"Ġ+)*":9515,"minator":9516,"Ġbind":9517,"))),<":9518,"MOD":9519,"__=__":9520,"Ans":9521,"Pac":9522,"wers":9523,"Ġdownload":9524,"vey":9525,"hemer":9526,"conns":9527,"oozie":9528,"middle":9529,"AFX":9530,")\"%":9531,"319":9532,"El":9533,"mmap":9534,"pth":9535,"sink":9536,"ĠForm":9537,"Ġshould":9538,"Ġfr":9539,"nsmap":9540,"ofs":9541,"Forms":9542,"capit":9543,"Mail":9544,"Denied":9545,"Annotation":9546,"NUMERIC":9547,"IV":9548,"ices":9549,"pseudo":9550,"srs":9551,"Ġalias":9552,"Ġdispatch":9553,"gend":9554,"']=[":9555,"ilter":9556,"Ġ+:":9557,",'#":9558,"ROW":9559,"fails":9560,"ĠPage":9561,"exprs":9562,"PROG":9563,"buckets":9564,"FloatField":9565,"{%":9566,"Ġnumber":9567,"('\\\\":9568,"Trig":9569,"downloader":9570,"Boot":9571,",[\"":9572,"Closed":9573,"writable":9574,"approved":9575,"Translation":9576,"qos":9577,"Ġlock":9578,"ined":9579,"exclusive":9580,"stacklevel":9581,"Subject":9582,"ished":9583,">},)<":9584,"COMMENT":9585,"Hyper":9586,"monkeypatch":9587,")[])<":9588,"139":9589,"Sorted":9590,"}.":9591,"ĠTime":9592,"ĠOutput":9593,"leave":9594,"assandra":9595,"applic":9596,"))*":9597,"DISA":9598,"},{\"":9599,"Ġ]+=":9600,"circle":9601,"Pacific":9602,"-,-":9603,"</":9604,"FP":9605,"Ġ),<":9606,"Ġdisplay":9607,"__=('":9608,"Ġignore":9609,"handled":9610,"Too":9611,"htmlhelp":9612,"IGH":9613,"PERMISSION":9614,"316":9615,"cfunc":9616,"Ġ^":9617,"house":9618,"ATURE":9619,"StrOpt":9620,"ĠSite":9621,"csw":9622,"('/')":9623,"Ġ[:].":9624,"SIGNAL":9625,"scalars":9626,"mgmt":9627,"ciphertext":9628,"400":9629,"HI":9630,"Utf":9631,"equi":9632,"solution":9633,"tali":9634,"uf":9635,"Ġobjects":9636,"Ġencoding":9637,"Ġmay":9638,"Ġ[][\"":9639,"prefetch":9640,"SAMPLE":9641,"CONNECTION":9642,"bri":9643,"did":9644,"udio":9645,"Ġbuf":9646,"Ġcontents":9647,"eled":9648,"Decor":9649,"sequences":9650,"ndb":9651,"sweep":9652,"wanted":9653,"Ġok":9654,"ĠJson":9655,"ada":9656,"iptables":9657,"formfield":9658,">[,,,],<":9659,"ious":9660,"ĠTag":9661,"QUO":9662,"Vari":9663,"headline":9664,"CUSTO":9665,"physical":9666,"ĠAbstract":9667,",(,":9668,"=\",":9669,"Native":9670,"]]<":9671,"ral":9672,"udy":9673,"quad":9674,"urljoin":9675,"velocity":9676,"Ġbr":9677,"'),'<":9678,"CONST":9679,"months":9680,"mug":9681,"plaintext":9682,"eggs":9683,"':{},<":9684,"preferred":9685,"svm":9686,"ĠUpdate":9687,"Ġhome":9688,"><<":9689,"Revision":9690,"sizeof":9691,"Stmt":9692,"otherarray":9693,"spective":9694,"Second":9695,"SIX":9696,"feedback":9697,"Payment":9698,"encryption":9699,"bash":9700,"ĠView":9701,"TestRunner":9702,"REA":9703,"Ġ:{<":9704,"gines":9705,"ĠTask":9706,"QUAL":9707,"Syn":9708,"cmc":9709,"Prior":9710,"articles":9711,"vocab":9712,"(\",":9713,"/\"+":9714,"Bus":9715,"FULL":9716,"RB":9717,"nnet":9718,"ums":9719,"xlabel":9720,"Ġsig":9721,"rod":9722,"assertGreater":9723,"ancestor":9724,"manent":9725,"specified":9726,"Ġmime":9727,"Subscri":9728,"NumberFormat":9729,"\"],\"":9730,"notebook":9731,"Ġsafe":9732,"SUPPORTED":9733,"({}":9734,"Xs":9735,"jk":9736,"presence":9737,"REN":9738,"handshake":9739,"ityError":9740,"Ġiteritems":9741,"Mesh":9742,"simplify":9743,"Day":9744,"GMT":9745,"Ġwrapped":9746,"ĠWeb":9747,"aring":9748,"people":9749,"uto":9750,"apy":9751,"='?":9752,"probe":9753,"amt":9754,"acters":9755,"GENER":9756,"Delta":9757,"Schedule":9758,"Ctrl":9759,"nex":9760,"Ġ):<":9761,"Ġraises":9762,"anced":9763,"autom":9764,"tenance":9765,"Ġpretty":9766,"ARGS":9767,"population":9768,"Vertical":9769,"VERBO":9770,"timestamps":9771,"Ġdefaultdict":9772,"pagination":9773,"ItemsEqual":9774,">{'<":9775,"PositiveIntegerField":9776,"Care":9777,"Ġlocation":9778,"rers":9779,"decompress":9780,"assertTemplate":9781,"thick":9782,"dbname":9783,"ĠSession":9784,"))])<":9785,"monit":9786,"CTX":9787,">']='":9788,"covery":9789,"PolyData":9790,"Two":9791,"_):":9792,"hadoop":9793,"ORITY":9794,"opened":9795,"HTTPServer":9796,"=-)<":9797,"different":9798,"SystemExit":9799,"Country":9800,"weekday":9801,"embedded":9802,"Theme":9803,"AlterField":9804,"++":9805,"Ep":9806,"hg":9807,"ĠURL":9808,"Ġpaths":9809,"lose":9810,"=[,,,,":9811,"Ġ-(":9812,"syco":9813,"\"]+":9814,"playlist":9815,"voter":9816,"'+'\",'":9817,"TRA":9818,"BC":9819,"Beta":9820,"DAT":9821,"invi":9822,"anger":9823,"':{}":9824,"assertItemsEqual":9825,"opcode":9826,"Reactor":9827,"basedir":9828,"elev":9829,"FilePath":9830,"$',<":9831,"Cat":9832,"Zone":9833,"ĠPost":9834,"Ġgevent":9835,"STDOUT":9836,"unity":9837,"dices":9838,"Stage":9839,"Ġmigr":9840,"\")),<":9841,"Ġhorizon":9842,"AssertionError":9843,"BUILTIN":9844,"samba":9845,"participant":9846,"ĠDecimal":9847,",[],":9848,"DRA":9849,"Fit":9850,"pargs":9851,"Ġseq":9852,"unsigned":9853,"pref":9854,"Ġcmp":9855,"going":9856,"WAY":9857,"Radius":9858,"FTP":9859,"bor":9860,"rho":9861,"udf":9862,"readed":9863,"temporary":9864,"architecture":9865,"FORE":9866,"Datetime":9867,"mux":9868,"solr":9869,"criteria":9870,"Quota":9871,"elihood":9872,"MQ":9873,"PP":9874,"_,<":9875,"pillar":9876,"Ġcl":9877,"(';":9878,"untjac":9879,"Ġcm":9880,"'))":9881,"contenttypes":9882,"ferer":9883,"locate":9884,"senses":9885,"visual":9886,"availability":9887,"clicked":9888,"declared":9889,"Permissions":9890,"OBJECTS":9891,"Deployment":9892,"VIDEO":9893,">\",":9894,"DD":9895,"FY":9896,"Troves":9897,"VS":9898,"oct":9899,"rn":9900,"stan":9901,"typename":9902,"illed":9903,"vered":9904,"persistent":9905,"Ġ[]).":9906,"passphrase":9907,"\"][":9908,"Ġeq":9909,"skill":9910,"tracked":9911,"Grad":9912,"ivy":9913,"CUSTOM":9914,"FL":9915,"Patch":9916,"birth":9917,"fobj":9918,"yellow":9919,"Ġtokens":9920,"atan":9921,"TestLoader":9922,"(((":9923,"ĠAl":9924,"POSIX":9925,"Ġnamespace":9926,"Indexed":9927,"Constants":9928,"Registration":9929,"jack":9930,"ĠCo":9931,"Ġpack":9932,"than":9933,"maxlen":9934,"kws":9935,"Reserved":9936,"))[]<":9937,"afp":9938,")]]),('_":9939,"lbry":9940,"visibility":9941,"Alignment":9942,"traverser":9943,"asta":9944,"Ġdevice":9945,"Ġprev":9946,"inlines":9947,"pex":9948,"existent":9949,"),(,":9950,"Ġ+=(":9951,"pore":9952,"=\"\"):<":9953,"newaxis":9954,"taskqueue":9955,"ĠAn":9956,"HTTPRequest":9957,"secrets":9958,"gorithms":9959,"CRIT":9960,"Ġfeature":9961,"assertTemplateUsed":9962,"033":9963,"Freque":9964,"ovs":9965,"ytes":9966,"Ġmove":9967,"__',":9968,"BOR":9969,"comparison":9970,"substr":9971,"KeyValue":9972,"Encoding":9973,"HTTPBadRequest":9974,"attribFont":9975,"URLCONF":9976,"enums":9977,"ĠDist":9978,"hypervisor":9979,"Extractor":9980,"Peer":9981,"assertRaisesRegexp":9982,"ĠMissing":9983,"EK":9984,"MON":9985,"ymax":9986,"Ġpartial":9987,"teams":9988,"determin":9989,"STACK":9990,"unset":9991,"outline":9992,"Equals":9993,"regression":9994,"SECON":9995,",\"_":9996,"CONTAIN":9997,"ANGO":9998,")[:]<":9999,"MANAGER":10000,"NotImplementedError":10001,"OVER":10002,"iod":10003,"jun":10004,"rfind":10005,"{'<":10006,"ĠDEBUG":10007,"pep":10008,"rich":10009,"curses":10010,"FIRST":10011,")==\"":10012,"nspath":10013,"distutils":10014,",[,,":10015,"sockopt":10016,"divmod":10017,"XbrlConst":10018,"RECORD":10019,"'\"}),<":10020,"!')<":10021,")\\":10022,"High":10023,"PHA":10024,"gar":10025,"Ġad":10026,"Ġchildren":10027,"ĠDocument":10028,"selen":10029,"means":10030,"rier":10031,"']},<":10032,"']=_":10033,"=\"<":10034,"execs":10035,"ephemer":10036,"Ġmk":10037,"ResourceOwnerId":10038,"letters":10039,"USED":10040,"aemon":10041,"mixed":10042,"broadcastable":10043,"Team":10044,"Azure":10045,"stp":10046,"anda":10047,"filesystem":10048,"outcome":10049,"vehicle":10050,"()):":10051,"Loc":10052,"Username":10053,"POLL":10054,"decrypt":10055,"workflows":10056,"friends":10057,"remainder":10058,"DEFINE":10059,"masked":10060,"62":10061,"82":10062,"Emp":10063,"LF":10064,"ZONE":10065,"ose":10066,"ĠParse":10067,"(\"+":10068,"traverse":10069,"Ġcp":10070,"=(,,)<":10071,"darwin":10072,"Trait":10073,"selenium":10074,"310":10075,"nsa":10076,"ptool":10077,"Ġescape":10078,"keyid":10079,"never":10080,"([,])<":10081,"Adv":10082,"Ġmuntjac":10083,"flows":10084,"recording":10085,"symlink":10086,"Background":10087,"Power":10088,"BLU":10089,"Nested":10090,"mcmc":10091,"xmpp":10092,"ĠQuery":10093,"getpid":10094,"conductor":10095,"sio":10096,"(,(,":10097,"Ġ:('":10098,"actors":10099,"Demo":10100,"generation":10101,"operators":10102,"HTTPConnection":10103,"breaks":10104,"PROVI":10105,"integration":10106,"Whitespace":10107,"inserted":10108,"EXTENSION":10109,"milliseconds":10110,"SCOPE":10111,"hh":10112,"ire":10113,"ske":10114,"004":10115,",\"\")<":10116,"KEYS":10117,"Ġ[:]+":10118,"consumption":10119,"INTERNAL":10120,"Jobs":10121,"Building":10122,"Slider":10123,":'+":10124,"Impl":10125,"OTH":10126,"Sur":10127,"ldb":10128,"qp":10129,"Ġby":10130,"Ġshared":10131,"reminder":10132,"']]":10133,"heat":10134,"SHORT":10135,"ĠFoo":10136,"Ġsahara":10137,"Green":10138,"lifetime":10139,"struction":10140,"DivisionError":10141,"slow":10142,"Ġupload":10143,"chk":10144,"(\"{":10145,"BOX":10146,"starts":10147,"RESET":10148,"john":10149,"(),[":10150,"Character":10151,"VIRT":10152,"infer":10153,"HASH":10154,"Conflict":10155,"between":10156,"aternion":10157,")'<":10158,",/":10159,"Sta":10160,"aes":10161,"gof":10162,"ming":10163,"pn":10164,"wo":10165,"ĠType":10166,"Ġoffset":10167,"Ġleft":10168,"atty":10169,"Ġ]=_":10170,"changelist":10171,"distri":10172,"pubkey":10173,"Quan":10174,"mirror":10175,",:]<":10176,">}]<":10177,"Errback":10178,"hive":10179,"lint":10180,"Ġmissing":10181,"riend":10182,"dag":10183,"agtail":10184,"dfs":10185,")+\"\\":10186,"ĠCustom":10187,"EXA":10188,"zipfile":10189,"Leaf":10190,"2000":10191,"BSD":10192,"titude":10193,"billing":10194,"ĠSyntaxError":10195,"attribXlink":10196,"Clip":10197,"GA":10198,"HMAC":10199,"Rob":10200,"mbox":10201,"getstate":10202,"conan":10203,"proposal":10204,"Reverse":10205,"song":10206,"trade":10207,"\"]=<":10208,"Ġganeti":10209,"ioloop":10210,"{}\".":10211,"Legend":10212,"successful":10213,"NED":10214,"\":['<":10215,"simulation":10216,",),)<":10217,"Mongo":10218,"_,**":10219,"online":10220,"cedu":10221,"objective":10222,"msgid":10223,"CommCare":10224,"addrs":10225,"ĠToken":10226,"Queries":10227,"listed":10228,"dotted":10229,"bottle":10230,"pkgs":10231,"tftp":10232,"ZeroDivisionError":10233,"successes":10234,"reflect":10235,"VERBOSE":10236,"MR":10237,"ether":10238,"rid":10239,"ĠSt":10240,"relu":10241,"ceptor":10242,"respon":10243,"starting":10244,"backoff":10245,"Uniform":10246,"FILENAME":10247,"':[(":10248,"contributors":10249,"escaped":10250,"PRESS":10251,"paginate":10252,"ĠConfigParser":10253,"UNICODE":10254,"hdfs":10255,"EXPAND":10256,"movie":10257,"propagate":10258,"Effect":10259,"far":10260,"invalidate":10261,"Ġ[('":10262,"('='":10263,"],[":10264,"syslog":10265,"Ġ*,":10266,"ressor":10267,"LICE":10268,"':\"'+'\",'":10269,"Composite":10270,"branches":10271,"Readable":10272,"folds":10273,"''.":10274,"GC":10275,"GREEN":10276,"Slug":10277,"bz":10278,"due":10279,"Ġuri":10280,"ala":10281,"provided":10282,"Ġcategory":10283,"viewpoint":10284,"((,,,":10285,"Serial":10286,"KED":10287,"Callable":10288,"Links":10289,"ZipFile":10290,"\"),)<":10291,"ier":10292,"Ġattribute":10293,"__),'":10294,"('^":10295,"uploaded":10296,"Ġ]={}<":10297,"Require":10298,"Ġflat":10299,"tableWidget":10300,"weigh":10301,"agger":10302,">']['":10303,"1637":10304,"ILD":10305,"baas":10306,"Defaults":10307,"dark":10308,"repeated":10309,"Workbook":10310,"LDAP":10311,"LOCATION":10312,"coordinator":10313,"rgba":10314,"332":10315,"Fam":10316,"rh":10317,"ru":10318,"rink":10319,"ufact":10320,"Ġcom":10321,"Ġnow":10322,"toggle":10323,"verti":10324,"RET":10325,"MessageBox":10326,"Cached":10327,"activated":10328,"ExecutionError":10329,"front":10330,"64740":10331,"javascript":10332,"money":10333,"sfa":10334,"vbox":10335,"Ġfilters":10336,"Ġensure":10337,"princip":10338,"=\"+":10339,"ffff":10340,"utility":10341,"functional":10342,"ILL":10343,"rottle":10344,"Ġconary":10345,"screenshot":10346,"lons":10347,"sycopg":10348,"Available":10349,"TW":10350,"reopen":10351,"=['%":10352,"addAction":10353,"ipt":10354,"\",\"/":10355,"SEARCH":10356,"Ġsystem":10357,"excinfo":10358,"authority":10359,">:(,'<":10360,"Compare":10361,"NEL":10362,"Alph":10363,"Cert":10364,"Vote":10365,"EVP":10366,"nv":10367,"Ġcookie":10368,"sever":10369,"INF":10370,"leon":10371,"anc":10372,"urlconf":10373,"formatting":10374,"validated":10375,"Ġph":10376,"locs":10377,"Ġbatch":10378,"ĠApi":10379,">[('":10380,">[,,,,,,,,":10381,"CTRL":10382,"DOC":10383,"FIFFV":10384,"Ġwebob":10385,">[,,,,],<":10386,"Importer":10387,"office":10388,"##":10389,"({})<":10390,"Pin":10391,"_=[(\"":10392,"bdist":10393,"bare":10394,"sdb":10395,"information":10396,"__=[\"":10397,"cause":10398,"LABLE":10399,"ENCO":10400,"ĠGit":10401,"PAY":10402,"polynomial":10403,"effects":10404,"recurse":10405,"interpret":10406,"imshow":10407,"fqdn":10408,"\"):":10409,")^":10410,"AVA":10411,"gte":10412,"milestone":10413,"nfs":10414,"ya":10415,"LITY":10416,"Ġ[,,":10417,"acces":10418,"moduleId":10419,"Ġ[:,],":10420,"mailbox":10421,">[(":10422,"cident":10423,"ENCE":10424,"SUF":10425,"requirement":10426,"scratch":10427,"alternative":10428,"marshal":10429,"72":10430,"SN":10431,"_\"+":10432,"aussian":10433,"pname":10434,"Ġlin":10435,"Ġtransaction":10436,"STA":10437,"':},":10438,"Ġscript":10439,"Review":10440,"soap":10441,"IDS":10442,"PEM":10443,"playback":10444,"CHUNK":10445,"Ġnamed":10446,"TextInput":10447,"HTTPClient":10448,"Ġ[:-])<":10449,"MISS":10450,"andidate":10451,"descend":10452,"capitalize":10453,"EXAMPLE":10454,"Google":10455,"tors":10456,"Ġsha":10457,"clas":10458,"fromUtf":10459,"portSpec":10460,"Resources":10461,"nonymous":10462,"contacts":10463,"hints":10464,"Ġinitial":10465,"=(),":10466,"Bits":10467,"Self":10468,"\\.":10469,"ĠContext":10470,"Ġ<(,):<":10471,"','*.":10472,"=-):<":10473,"tracklist":10474,"Calendar":10475,"datal":10476,"LUGIN":10477,"placeholders":10478,"cascade":10479,"ailgun":10480,"Hi":10481,"RD":10482,"Tip":10483,"hold":10484,"vcpus":10485,"Ġmember":10486,"Ġfailed":10487,"ats":10488,"asdf":10489,"formed":10490,"outdir":10491,"REST":10492,"([]":10493,"rena":10494,"fee":10495,")+(":10496,"CHILD":10497,"environments":10498,"attribColor":10499,")),))<":10500,"assignments":10501,",],[,]":10502,"DecimalField":10503,"declaration":10504,"Answer":10505,"DJ":10506,"TT":10507,"]]":10508,"eof":10509,"gist":10510,"Ġwx":10511,"ĠOK":10512,"=\"{":10513,"Ġ:('<":10514,"Ġrequire":10515,"mapho":10516,"funcname":10517,"childNodes":10518,"ĠAction":10519,"Units":10520,"snmp":10521,"glVertex":10522,"monitoring":10523,"Ġfnmatch":10524,"NamedTemporaryFile":10525,"tap":10526,"vx":10527,"xmin":10528,"Ġsign":10529,"Ġextension":10530,"Ġaccount":10531,"Ġselected":10532,"replay":10533,"asn":10534,"__')<":10535,"conds":10536,"concrete":10537,"Ġscan":10538,"lux":10539,"initializer":10540,"InstanceId":10541,")//":10542,"LUME":10543,"ocial":10544,"Depth":10545,"frequencies":10546,")&(":10547,"Initialized":10548,"BINARY":10549,"ĠSystemExit":10550,"datadir":10551,"ToOneField":10552,"Punctuation":10553,"cmake":10554,"fts":10555,"Ġdescription":10556,"ina":10557,"argmax":10558,"abo":10559,"ipsec":10560,"Observer":10561,"empt":10562,"databaseinfra":10563,"Rules":10564,"INSTALL":10565,"caching":10566,"contig":10567,"collapse":10568,"Glob":10569,"OWN":10570,"dont":10571,"nice":10572,"Ġ','":10573,"ĠAdmin":10574,"loglevel":10575,"Ġreal":10576,"Ġfree":10577,"why":10578,"Ġdatastore":10579,"databases":10580,"tooltip":10581,"Changes":10582,"ENDPOINT":10583,"([,,])<":10584,"Assignment":10585,"Quantity":10586,"'-":10587,"BIG":10588,"ImportError":10589,"RATE":10590,"bond":10591,"danger":10592,"gdata":10593,"gain":10594,"happy":10595,"pane":10596,"Ġpool":10597,"Ġtraits":10598,"INFORM":10599,"olds":10600,"isect":10601,"Excel":10602,"ĠMan":10603,"ĠsetUpClass":10604,"RandomState":10605,"configurations":10606,"Ġdecimal":10607,"ufacture":10608,"81":10609,"even":10610,"ymin":10611,"Ġaxis":10612,"Ġexpand":10613,"apon":10614,"Ġscope":10615,"Ġbit":10616,">')),('":10617,"Manip":10618,"aaaa":10619,"VerifyAll":10620,"Install":10621,"RULE":10622,"MovedAttribute":10623,"ju":10624,"lash":10625,"vList":10626,"Ġtok":10627,"roi":10628,"('@":10629,">',),('<":10630,">_=":10631,"chosen":10632,"ĠTable":10633,"Period":10634,"mios":10635,"pickled":10636,"Arguments":10637,"longest":10638,"\":[(\"":10639,"CONNECT":10640,"machines":10641,"=,)<":10642,"TDS":10643,"UX":10644,"wild":10645,"xmax":10646,"Ġclone":10647,"getName":10648,"termios":10649,"isnull":10650,"']=[]<":10651,"backward":10652,"ibuild":10653,"=(-":10654,"descriptions":10655,"ĠPlugin":10656,"Ġkivy":10657,"ConnectionError":10658,"Thing":10659,"reporting":10660,"ICK":10661,"Month":10662,"CATE":10663,"ior":10664,"spo":10665,"sus":10666,"uc":10667,"Ġunit":10668,"decay":10669,"estimate":10670,"acle":10671,"Ġ'/":10672,"Ġcms":10673,"METR":10674,"itemgetter":10675,"Pointer":10676,"USAGE":10677,"APIResource":10678,"associate":10679,"SecurityGroup":10680,"Soup":10681,"INFORMATION":10682,"CN":10683,"Ġexit":10684,"ĠDEFAULT":10685,"Ġtables":10686,"Ġcached":10687,"Ġenable":10688,"inside":10689,"attached":10690,"texture":10691,"urlname":10692,"()>:<":10693,"Ġrec":10694,"rowse":10695,"reground":10696,"IDP":10697,"TEX":10698,"wav":10699,"modifiers":10700,"NamedType":10701,"ĠĠĠĠĠĠĠ":10702,"privileges":10703,"parentObjId":10704,"Broadcast":10705,"BI":10706,"EV":10707,"Ġstrip":10708,"intr":10709,"deserialized":10710,"illa":10711,"\",[\"":10712,"Ġscr":10713,"TestResult":10714,"tended":10715,"Ġclick":10716,"Ġ-]<":10717,"Services":10718,"ĠFe":10719,"usages":10720,"implements":10721,"READY":10722,",),),<":10723,"Refresh":10724,"dropout":10725,"MAPP":10726,"RS":10727,"Score":10728,"TMP":10729,"lbl":10730,"lbaas":10731,"ene":10732,"ellip":10733,"__','__":10734,"trusted":10735,"male":10736,"ntp":10737,"thro":10738,"classification":10739,"\",),":10740,"==):<":10741,"Ġcert":10742,"exponent":10743,"ToString":10744,"Head":10745,"',,),('":10746,"sanitize":10747,"banner":10748,"COMPLETE":10749,"+<":10750,"61":10751,"=','":10752,"Abs":10753,"DONE":10754,"Qname":10755,"boss":10756,"cue":10757,"sprite":10758,"vault":10759,"Ġone":10760,"Ġargv":10761,"Ġproxy":10762,"Ġthis":10763,"invert":10764,"asure":10765,"',*":10766,"Ġimg":10767,"undefined":10768,"rax":10769,"libvirt":10770,"localtime":10771,"Colors":10772,"graphy":10773,"Ġ/,":10774,"CONN":10775,"FOUR":10776,")]))<":10777,"Foot":10778,"years":10779,"Syntax":10780,"Ġjinja":10781,"delayed":10782,"Pagin":10783,"Ġ}))<":10784,"trees":10785,"gauge":10786,"substitute":10787,"\"))":10788,"ISO":10789,"ImproperlyConfigured":10790,"Old":10791,"ttype":10792,"DESCRIPT":10793,"']!=":10794,"()(":10795,"icmp":10796,"ĠcPickle":10797,"nowled":10798,"distro":10799,"ILLI":10800,"FormatError":10801,"OptionError":10802,"Plugins":10803,"447":10804,"Delay":10805,"genome":10806,"Pixel":10807,"Trigger":10808,"789":10809,"Dat":10810,"Dim":10811,"Duration":10812,"FH":10813,"LM":10814,"Photo":10815,"Si":10816,"spread":10817,"ĠProcess":10818,">'',<":10819,"Ġ'-":10820,"Ġcb":10821,"tokenizer":10822,"COPY":10823,"RequestError":10824,"relations":10825,"statsd":10826,"('/',":10827,"ĠByte":10828,"Mapped":10829,"rollup":10830,"ltk":10831,",),(,":10832,"returnedString":10833,"mkstemp":10834,"Family":10835,"98":10836,"lng":10837,"Ġwe":10838,"Ġenviron":10839,"ĠEnvironment":10840,"Ġ[]])<":10841,"numVertices":10842,"Ġrecei":10843,"filt":10844,"executed":10845,"ĠIP":10846,"generators":10847,"Ġast":10848,"devnull":10849,"Ġ**<":10850,"hyp":10851,"gpuarray":10852,"Ġfrappe":10853,"BLUE":10854,"EST":10855,"Equ":10856,"Escape":10857,"Warn":10858,"material":10859,"oh":10860,"wig":10861,"Ġwidth":10862,"urse":10863,"itution":10864,"concept":10865,"Ġsaml":10866,"configured":10867,"newlines":10868,"ALPHA":10869,"IDs":10870,"ibs":10871,"autif":10872,"Download":10873,"ĠEmpty":10874,"aneous":10875,"sliver":10876,"Ticket":10877,"allery":10878,"://%":10879,"DESCRIPTOR":10880,"autiful":10881,"(.*":10882,"GID":10883,"vfs":10884,"}:":10885,"Ġallow":10886,"Ġallowed":10887,"__)":10888,"trize":10889,"cha":10890,"pes":10891,"verifier":10892,"permit":10893,"Connected":10894,"works":10895,"Additional":10896,"others":10897,"makeSuite":10898,"Ġpygments":10899,"Labels":10900,"scaled":10901,"VOLUME":10902,"mutex":10903,"\")):<":10904,"Pol":10905,"Sent":10906,"water":10907,"Ġth":10908,"Ġevents":10909,"Ġperform":10910,"fish":10911,",,'":10912,"scm":10913,"Ġregistr":10914,"checkJoin":10915,"sule":10916,"binder":10917,"Ġ[:]))<":10918,"INTERVAL":10919,"prediction":10920,",],[,],[,],[,],[":10921,"PRIORITY":10922,"fuzzy":10923,"MEMBER":10924,"BYTES":10925,"likelihood":10926,",)+":10927,"/*":10928,"Called":10929,"dum":10930,"yr":10931,"zable":10932,"Ġwarn":10933,"Ġstorage":10934,"Ġdisk":10935,"Ġwsgi":10936,"student":10937,">')))<":10938,"lop":10939,"opcodes":10940,"ester":10941,"social":10942,"itemsize":10943,"valent":10944,"deployments":10945,"Ġunpack":10946,"COLUM":10947,"Iterable":10948,"takes":10949,"Numpy":10950,"tunnel":10951,"Scroll":10952,"IDENTIFI":10953,"Blog":10954,"Dot":10955,"Kind":10956,"WER":10957,"dj":10958,"hu":10959,"ool":10960,"Ġquote":10961,"revert":10962,"(''.":10963,"Ġ]])<":10964,"putPrefixedString":10965,"homo":10966,"grab":10967,"ALG":10968,"multiline":10969,"picker":10970,"172":10971,"CPP":10972,"directives":10973,"Dao":10974,"Ġsmart":10975,"Aggregate":10976,"Clock":10977,"Lst":10978,"ljust":10979,"yn":10980,"sts":10981,"typecode":10982,"logo":10983,"Based":10984,"Encryp":10985,"blocksize":10986,"ObjectType":10987,"Separ":10988,"cannot":10989,"360":10990,"momentum":10991,"220":10992,"FLOW":10993,"MATCH":10994,"mal":10995,"assist":10996,"maxt":10997,"typed":10998,"campaign":10999,"ATIVE":11000,"BaseTest":11001,"(,,),":11002,"secgroup":11003,"Ġ[-:]":11004,"401":11005,"FONT":11006,"bookmark":11007,"effective":11008,"'==":11009,"BATCH":11010,"EE":11011,"LC":11012,"LW":11013,"Ġterm":11014,"__):<":11015,"liant":11016,"combo":11017,"Ġfuture":11018,"ansui":11019,"varargs":11020,"soa":11021,"Unauthorized":11022,")+)<":11023,"Activ":11024,"convertTo":11025,"SOCKET":11026,"Expand":11027,"HOSTNAME":11028,"Ġeventlet":11029,"cutoff":11030,"COMMIT":11031,"John":11032,"RECASE":11033,"deadline":11034,"talib":11035,"${":11036,"300":11037,"Qual":11038,"mass":11039,"nrows":11040,"degrees":11041,"race":11042,"Ġdone":11043,"ROP":11044,"sockets":11045,"nonlinear":11046,"rslt":11047,"polygon":11048,"mesos":11049,"IGNORECASE":11050,"840":11051,"Ignore":11052,"RON":11053,"rat":11054,"uator":11055,"Ġactual":11056,"osted":11057,"delattr":11058,"=\"#":11059,"Expected":11060,"Ġdst":11061,"Proble":11062,"pio":11063,"licates":11064,"randrange":11065,"ĠAc":11066,"Requests":11067,"Charset":11068,"grams":11069,"capability":11070,"Ġdev":11071,"suffixes":11072,"mimetypes":11073,"WEB":11074,"(,),(,),(,),(,),(,),(,),(,),(,),(,),(,),(,),(,),(,),(,),(,),(,),(,),(,),(,),(,),(,),(,),(,),(,),(,),(,),(,),(,),(,),(,),(,),(,),":11075,"Scanner":11076,"journal":11077,"stmts":11078,"CRITICAL":11079,"xlim":11080,"ĠProtocol":11081,"ĠComment":11082,"Ġdirector":11083,"decision":11084,"orange":11085,"allocation":11086,"excel":11087,"magi":11088,"upy":11089,"prune":11090,"Ġflush":11091,"jsonutils":11092,"Ġcli":11093,"suppress":11094,"Digest":11095,"patched":11096,"makefile":11097,")==(":11098,"goti":11099,"INTERFACE":11100,"12345":11101,"prepend":11102,"bsdusr":11103,"469":11104,"IME":11105,"PF":11106,"UBLE":11107,"lte":11108,"zf":11109,"}}<":11110,"Ġactive":11111,"Ġcolumns":11112,"Ġabc":11113,"resample":11114,"('>":11115,",'\\":11116,"nodeset":11117,"preference":11118,"answers":11119,"patches":11120,"schemas":11121,">')=='":11122,"Ġ!='':<":11123,"bandwidth":11124,"hrn":11125,"Radio":11126,"()[:]<":11127,"declarative":11128,"CLUDE":11129,"ENCODING":11130,"MISSING":11131,"+)<":11132,"PLUGIN":11133,"Ġvariable":11134,"opa":11135,"\",))<":11136,"RESER":11137,">')]<":11138,"SPI":11139,"Ġ[:]=='":11140,"ĠArg":11141,"Small":11142,"FMT":11143,"PTR":11144,"sx":11145,"Ġdest":11146,"stim":11147,"algorithms":11148,"engines":11149,"abbre":11150,"comma":11151,"maintenance":11152,"Exceptions":11153,"'),(,,'":11154,"izations":11155,"voked":11156,"converted":11157,"Instances":11158,"particle":11159,"Tables":11160,"STATS":11161,"Curve":11162,"drain":11163,"submissions":11164,"Hydrus":11165,"PROPERTY":11166,"POSITION":11167,"DRI":11168,"Less":11169,"ki":11170,"Ġloop":11171,"lored":11172,"Ġii":11173,"','+":11174,"=[('<":11175,"addErrback":11176,"Ġcs":11177,"mitter":11178,"POLIC":11179,",_('<":11180,"bytecode":11181,"hysical":11182,"rouped":11183,"Ġfinalize":11184,"POLICY":11185,">\")<":11186,"May":11187,"]',":11188,"dit":11189,"lk":11190,"nbits":11191,"Ġ4":11192,"Ġ><":11193,"conne":11194,"ulong":11195,"romise":11196,"filer":11197,"activities":11198,"dyn":11199,"prefixlen":11200,"cpd":11201,"admins":11202,"overflow":11203,"included":11204,"ServerError":11205,"Disabled":11206,"Spike":11207,"Ġsi":11208,"Ġdesc":11209,"getattribute":11210,"ulse":11211,"textwrap":11212,"ecycle":11213,"'%(<":11214,"(,),'":11215,"IPAddress":11216,"UPLOAD":11217,"Operations":11218,"Locked":11219,"slider":11220,"Reporter":11221,"ĠCONF":11222,"cedure":11223,",{\"":11224,"EQUAL":11225,"NL":11226,"crc":11227,"smp":11228,"Ġge":11229,"Ġgroups":11230,"Ġhead":11231,"Ġmenu":11232,"ford":11233,"periodic":11234,"Include":11235,"untu":11236,"001":11237,"locks":11238,"offline":11239,"chedule":11240,"stale":11241,"Subnet":11242,"TAGS":11243,"ĠGe":11244,"fontsize":11245,"UDP":11246,"Sensor":11247,"SUFFIX":11248,"386":11249,"VL":11250,"vstack":11251,"Ġar":11252,"Ġtrain":11253,"insecure":11254,"meg":11255,"atex":11256,"nost":11257,"Ġindent":11258,"','#":11259,"shorten":11260,"linter":11261,"bounce":11262,"figsize":11263,"(,)":11264,"ValueFlag":11265,"Ġ[:,]<":11266,"Ġpid":11267,"\"]==\"":11268,"failing":11269,"ULONG":11270,"('/'):<":11271,"aggregates":11272,"blobs":11273,"criterion":11274,"DISPLAY":11275,"vorite":11276,"DLL":11277,"Pending":11278,"Padding":11279,"TTransport":11280,"Yes":11281,"_(<":11282,"edi":11283,"Ġstore":11284,"Ġstatic":11285,"NTIC":11286,"STRI":11287,"elcast":11288,"__,'":11289,"ErrorCode":11290,"addons":11291,"Ġsock":11292,"Ġdns":11293,"systems":11294,"myid":11295,"facet":11296,"Ġcreated":11297,"converters":11298,"PROFILE":11299,"multiprocessing":11300,"infinity":11301,"sistence":11302,"ĠReg":11303,"()+<":11304,"requester":11305,"watcher":11306,"Dependencies":11307,"behaviors":11308,"hydrate":11309,"Associ":11310,"YA":11311,"lun":11312,"lify":11313,"nav":11314,"ĠConfiguration":11315,"coup":11316,"truth":11317,"estim":11318,"Replace":11319,"Ġ[::":11320,"DataSource":11321,"((-":11322,"ANK":11323,"URATION":11324,"MetaData":11325,"Ġhy":11326,"guous":11327,"SPEC":11328,"Linux":11329,"METRIC":11330,"Cd":11331,"Customer":11332,"Home":11333,"PDU":11334,"SING":11335,"pend":11336,"wc":11337,"Ġra":11338,"Ġloc":11339,"Ġattributes":11340,"Ġseen":11341,"Ġatom":11342,"tics":11343,"trap":11344,"lenv":11345,"SED":11346,"DataType":11347,"POP":11348,"graphic":11349,"idxs":11350,"overlay":11351,"contribu":11352,"',[[('":11353,"Complete":11354,")>=:<":11355,"Ġ[,],,)<":11356,"flexmock":11357,"xenapi":11358,"weighted":11359,")\")<":11360,"ered":11361,"ocp":11362,"ponent":11363,"Ġtrans":11364,"ĠLocal":11365,">'==":11366,"expose":11367,"proba":11368,"()>":11369,"()],<":11370,"curdir":11371,"Colour":11372,"iterate":11373,"VERTI":11374,"THRE":11375,"DOUBLE":11376,"quotes":11377,"ĠBaseCommand":11378,"Annotator":11379,"Apply":11380,"mixins":11381,"ffered":11382,"FACTORY":11383,"ephemeral":11384,"Alpha":11385,"maphore":11386,"MAPPING":11387,"eved":11388,"passes":11389,"vic":11390,"sss":11391,"Ġ]=='":11392,"estCase":11393,"Ġ[]/":11394,"readme":11395,"Direction":11396,"ACH":11397,"PED":11398,"charge":11399,"HTTPretty":11400,"MessageType":11401,"ieve":11402,"suites":11403,"Ġexample":11404,"caches":11405,"ĠThread":11406,";\")<":11407,"AES":11408,"Drag":11409,"xor":11410,"ĠNetwork":11411,"DELAY":11412,"tect":11413,"Ġironic":11414,"nodeType":11415,"()),('":11416,"authn":11417,"Ġreactor":11418,"workdir":11419,"rels":11420,"FAST":11421,"MessageEnd":11422,",-,":11423,"ĠOAuth":11424,"Such":11425,"followers":11426,"136":11427,"Year":11428,"pillow":11429,"Ġstdout":11430,"Ġviews":11431,"Ġfit":11432,"rex":11433,"incre":11434,"timetuple":11435,"pyui":11436,"NameOr":11437,"shares":11438,"numa":11439,"characters":11440,"Buffered":11441,"capt":11442,"TaskQueue":11443,"BoxLayout":11444,"follower":11445,"claim":11446,"softmax":11447,"Credential":11448,"*','":11449,"97":11450,"rings":11451,"xsi":11452,"':(,'":11453,"idom":11454,"getopt":11455,"setstate":11456,"(<<":11457,"blas":11458,"')],":11459,"posure":11460,"ARM":11461,"BaseClass":11462,"localize":11463,"ResponseError":11464,"Board":11465,"Ġtool":11466,"MethodNotSupported":11467,"defines":11468,"PARENT":11469,"Ġ+='\\":11470,"alerts":11471,"paste":11472,"DebugFormat":11473,"advanced":11474,"ĠObjectDoesNotExist":11475,"recobj":11476,"REGISTER":11477,"hazelcast":11478,"Decorator":11479,"/$',":11480,"CAN":11481,"HS":11482,"Press":11483,"]}<":11484,"pic":11485,"Ġma":11486,"Ġec":11487,"trash":11488,"=\"\"\"":11489,"openssl":11490,"={},<":11491,"ACES":11492,"kern":11493,"colormap":11494,"Ġglobal":11495,"cpmeas":11496,"parametrize":11497,"forever":11498,"xxx":11499,"Placeholder":11500,"CRYPT":11501,"mandatory":11502,"ACCEPT":11503,"$','":11504,"Car":11505,"mname":11506,"nes":11507,"{}<":11508,"Ġedge":11509,"ĠColor":11510,"tele":11511,"lost":11512,"assertNo":11513,"clk":11514,"shop":11515,"(\"__":11516,"perf":11517,"Ġscheme":11518,"commen":11519,"Ġ-*":11520,"Dirs":11521,"Observable":11522,"ĠMark":11523,"Thresh":11524,"USERS":11525,"sheets":11526,"StreamHandler":11527,"Ġ+=\"\\":11528,"guide":11529,">[,,,,,],<":11530,"51":11531,"Ext":11532,"ILABLE":11533,"hstack":11534,"rum":11535,"raster":11536,"ually":11537,"Ġraise":11538,"Ġparameters":11539,"Ġexisting":11540,"reuse":11541,"Ġ[...":11542,"paint":11543,"requestor":11544,"plank":11545,"computer":11546,"Prompt":11547,"waiter":11548,"symp":11549,"\"]),<":11550,"ĠnodeName":11551,"ByTag":11552,"306":11553,"slide":11554,"Ġ{}\".":11555,"guard":11556,"microsecond":11557,"MULTIL":11558,"plankton":11559,"488":11560,"CG":11561,"TTL":11562,"_=\"\"<":11563,"dg":11564,"hb":11565,"Ġdirname":11566,"derers":11567,"assertList":11568,"ipher":11569,"based":11570,"jose":11571,"immutable":11572,"Ġpoly":11573,"2013":11574,"OPTS":11575,"TOO":11576,"ENTITY":11577,"Ġ[-]=='":11578,"grey":11579,"ABS":11580,"Director":11581,"Printer":11582,"coeffs":11583,"PRIV":11584,"coefficient":11585,"=()):<":11586,"CANCE":11587,"HV":11588,"Money":11589,"Oc":11590,"dv":11591,"Ġmodules":11592,"Ġoperation":11593,"Ġteardown":11594,"ĠWorld":11595,"inomial":11596,"orn":11597,"pars":11598,"dbg":11599,"\":}<":11600,"']={'":11601,"(*(":11602,"ayes":11603,"PROXY":11604,"DOCU":11605,"county":11606,"mistr":11607,"JSONEncoder":11608,"affine":11609,"Smart":11610,"confirmed":11611,"applications":11612,"ĠByteSize":11613,"150":11614,"OLE":11615,"Ġse":11616,"Ġroute":11617,"Ġhazelcast":11618,"ender":11619,"quaternion":11620,"(\"[":11621,"Ġ+:]<":11622,"())==":11623,"sax":11624,"mantic":11625,"Ġ%==:<":11626,"blocked":11627,"clustering":11628,"fnmatch":11629,"ĠFlask":11630,"RIB":11631,"ranks":11632,"severity":11633,"assistant":11634,"!\")<":11635,"+',":11636,"OO":11637,"Ste":11638,"Ġsecurity":11639,"denom":11640,"='_":11641,"dataReceived":11642,"attrname":11643,"Ġ*+":11644,"ACCOUNT":11645,"supervisor":11646,"HENTIC":11647,"Ġ***":11648,"MIX":11649,"Ġcleanup":11650,"announce":11651,"ufacturer":11652,"-,<":11653,"CSS":11654,"}{":11655,"Ġlong":11656,"Ġproc":11657,"Ġupgrade":11658,"alone":11659,"chunked":11660,"('..":11661,"ising":11662,"say":11663,"')],<":11664,"0001":11665,">[[":11666,"EXPI":11667,"General":11668,"159":11669,"Ġtopic":11670,"purge":11671,"parentObjType":11672,"Declar":11673,"Priority":11674,"NameOrValueFlag":11675,".'<":11676,"Ds":11677,"fout":11678,"REDIS":11679,"Optim":11680,"popleft":11681,">:('":11682,"SHED":11683,")-)<":11684,"radio":11685,"Explo":11686,"broken":11687,"Ġapiproxy":11688,"Ġviewfinder":11689,"inode":11690,"SPECI":11691,"Ġbokeh":11692,"stanza":11693,"MULTILINE":11694,"eError":11695,"Ġshape":11696,"keyspace":11697,"lam":11698,"Ġ[][])<":11699,"messaging":11700,"Ġeach":11701,"winreg":11702,"Ġrad":11703,"charsets":11704,"ashboard":11705,"namespacedef":11706,"NumberOf":11707,"verifylist":11708,"gorical":11709,"Blocks":11710,"strerror":11711,"quantities":11712,"SUPPORT":11713,"Ġnetworkx":11714,"DetailView":11715,"OWNER":11716,"Problem":11717,"RR":11718,"UAL":11719,"spl":11720,"ybot":11721,"Ġcomponent":11722,"',{<":11723,"die":11724,"agency":11725,"umask":11726,"calle":11727,"modal":11728,"errs":11729,"Ġpylearn":11730,"Ġpyramid":11731,")==[":11732,"owned":11733,"ReadOnly":11734,"Ġwebsite":11735,"Ġbefore":11736,"Pipe":11737,"Analysis":11738,"suggestion":11739,"italic":11740,"Legendre":11741,"datalist":11742,"Hex":11743,"hm":11744,"kafka":11745,"vmin":11746,"Ġmedia":11747,"ĠContentType":11748,"atoms":11749,"chant":11750,"unnamed":11751,"umbs":11752,"=[{<":11753,"\",{\"":11754,"poten":11755,"pycsw":11756,"dbs":11757,"Records":11758,"Ġ[][:":11759,"mlp":11760,"Low":11761,"syms":11762,"ListType":11763,"errback":11764,"POWER":11765,"Ġnailgun":11766,"optparse":11767,"loaders":11768,"DERS":11769,"txid":11770,"personality":11771,"conditional":11772,"distributed":11773,"PLAT":11774,"Ġrefresh":11775,"assertListEqual":11776,",%":11777,"?%":11778,"Opa":11779,"Ring":11780,"blip":11781,"lxml":11782,"xcode":11783,"Ġwords":11784,"Ġmapping":11785,"Ġdestroy":11786,"inactive":11787,"getpass":11788,"BOT":11789,"compliant":11790,">\",<":11791,"blab":11792,"agne":11793,"ANDS":11794,"lobj":11795,"ĠMem":11796,"ĠIPython":11797,"Addon":11798,"InvalidOperation":11799,"Ġ**-":11800,"geojson":11801,"Ġ+'.'+":11802,"ĠApplication":11803,"samdb":11804,"Ġpublish":11805,"contiguous":11806,"SHOW":11807,"similarity":11808,",('<":11809,"529":11810,"implemented":11811,"zaxis":11812,"Ġusage":11813,"Ġoverride":11814,"diction":11815,"via":11816,"puts":11817,"writerow":11818,"eventlet":11819,"Ġxs":11820,"ARB":11821,"paypal":11822,"504":11823,"StructuralNode":11824,"Ġretval":11825,"abcd":11826,"CPU":11827,"street":11828,"reduced":11829,"ualenv":11830,"ovf":11831,"aresansui":11832,"8859":11833,"Ġfabric":11834,"ByTagName":11835,"'',":11836,"'\\\\":11837,"==['":11838,"Cross":11839,"Mgr":11840,"gus":11841,"ima":11842,"Ġlayer":11843,"tet":11844,">'\\":11845,"asc":11846,"gered":11847,"enforce":11848,"pam":11849,"shader":11850,"within":11851,"IDDEN":11852,"ROLL":11853,"Ġgl":11854,"ĠBasic":11855,"ERRORS":11856,"centers":11857,"\")[]<":11858,"TESTS":11859,"aug":11860,"rmdir":11861,"Ġ'.'":11862,"AUTHENTIC":11863,"cipient":11864,"OFFSET":11865,"Ġmultiprocessing":11866,"Embedded":11867,"TITLE":11868,"ELEMENT":11869,"determine":11870,"ĠArgument":11871,"HC":11872,"Hub":11873,"PAN":11874,"Solver":11875,"pret":11876,"qibuild":11877,"Ġfo":11878,"reconnect":11879,"getVarInt":11880,"dataflow":11881,"pylab":11882,"Testing":11883,"Ġflow":11884,"'):-":11885,"Locator":11886,"uniq":11887,"Times":11888,"aystack":11889,"Ġklass":11890,"SHUT":11891,"Before":11892,"dlg":11893,"TimeoutError":11894,"Bitmap":11895,"INITIAL":11896,"choose":11897,"Frac":11898,"utilities":11899,"vmax":11900,"testfile":11901,"=<<<":11902,"[],'":11903,"Increment":11904,"hosting":11905,"bygroups":11906,"Design":11907,"SIMPLE":11908,"FromStr":11909,"SETUP":11910,"797":11911,"SUPPRESS":11912,">],)<":11913,"IGNORE":11914,"mugshot":11915,"!=\"":11916,"AE":11917,"Bra":11918,"TC":11919,"UNA":11920,"bright":11921,"easy":11922,"glet":11923,"kin":11924,"mro":11925,"ĠIndex":11926,"Ġwraps":11927,"uel":11928,"isatty":11929,"':'+":11930,"Ġsleep":11931,"miss":11932,"Ġemit":11933,"CTYPE":11934,"Ġ],'":11935,"Ġ],)<":11936,"VersionHandler":11937,"Ġ[:-]":11938,"presentation":11939,"Override":11940,"monitors":11941,"Fig":11942,"fx":11943,"icen":11944,"rally":11945,"DECI":11946,"Ġ['--":11947,"buy":11948,"(\"#":11949,"subcommand":11950,"SEPAR":11951,"))==<":11952,"Manifest":11953,"':[,,":11954,"\")])<":11955,"isodes":11956,"ucher":11957,"spection":11958,"Capture":11959,"natural":11960,"adapters":11961,"estimator":11962,"'):-,('":11963,"FUT":11964,"GUID":11965,"ICON":11966,"Sol":11967,"lut":11968,"usion":11969,"Ġsetting":11970,"Ġgeneric":11971,"terest":11972,"fic":11973,"toler":11974,"Ġsol":11975,"maxint":11976,"Ġ[]!='":11977,"subtitle":11978,"summar":11979,"partner":11980,"simplejson":11981,"datum":11982,"Executor":11983,"cusolver":11984,"COMMANDS":11985,"GPIO":11986,"compatibility":11987,"predicates":11988,"ValidationTestModel":11989,",[]).":11990,"tanh":11991,"Camera":11992,"Dif":11993,"Ġlocale":11994,"Ġworkflow":11995,"ĠGeneric":11996,"alker":11997,"lision":11998,"nth":11999,"assertNum":12000,"datafile":12001,"BOOT":12002,"filled":12003,"Strict":12004,"dense":12005,"sigmoid":12006,"DiGraph":12007,"Sets":12008,"ĠMO":12009,"wrt":12010,"hashed":12011,"POOL":12012,"Ġ[],'<":12013,"MPP":12014,"Ġnx":12015,"lowercase":12016,"convertFromStr":12017,"texinfo":12018,"submitted":12019,"GRAM":12020,"survey":12021,")**<":12022,"mongodb":12023,"relationships":12024,"nickname":12025,"REMOVE":12026,"Ġoriginal":12027,"ĠOperation":12028,"OTHER":12029,"connectivity":12030,"=\"\"\"\"\"\"<":12031,"iris":12032,"jection":12033,"mw":12034,"xid":12035,"Ġlang":12036,"__('":12037,"vidence":12038,"Ġ]='":12039,"pyfile":12040,"()],":12041,"aming":12042,"formance":12043,"Ġ'):<":12044,"Strategy":12045,"Diag":12046,"Ġdetail":12047,",]))<":12048,"Ġsym":12049,"Geom":12050,"ĠAuthor":12051,"desktop":12052,"maxtag":12053,"$')<":12054,"(,<":12055,"==[]<":12056,"Cod":12057,"City":12058,"Mutable":12059,"Now":12060,"PUSH":12061,"Sho":12062,"TTP":12063,"]')<":12064,"Ġwindow":12065,"story":12066,"idp":12067,"getlist":12068,"setsockopt":12069,"strong":12070,"near":12071,"==(":12072,"()==:<":12073,"Ġ[]==:<":12074,"BODY":12075,"Ġcat":12076,"ALT":12077,"Ġpip":12078,"cps":12079,"Fast":12080,"TIFF":12081,"ĠBe":12082,"composite":12083,"Ġissue":12084,"Ġblocks":12085,"Deleted":12086,",,,,,,,,,,,,,,,,,,,,,,,,,,,,,,,,,,,,,,,,,,,,,,,,,,,,,,,,,,,,,,,,,,,,,,,,,,,,,,,,,,,,,,,,,,,,,,,,,,,,,,,,,,,,,,,,,,,,,,,,,,,,,,,,,,,,,,,,,,,,,,,,,,,,,,,,,,,,,,,,,,,,,,,,,,,,,,,,,,,,,,,,,,,,,,,,,,,,,,,,,,,,,,,,,,,,,,,,,,,,,,,,,,,,,,,,,,,,,,,,,,,,,,,,,,,,,,,,,,,,,,,,,,,,,,,,,,,,,,,,,,,,,,,,,,,,,,,,,,,,,,,,,,,,,,,,,,,,,,,,,,,,,,,,,,,,,,,,,,,,,,,,,,,,,,,,,,,,,,,,,,,,,,,,,,,,,,,,,,,,,,,,,,,,,,,,,,,,,,,,,,,,,,,,,,,,,,,,,,,,,,,,,,,,,,,,,,,,,,,,,,,,,,,,,,,,,,,,,,,,,,,,,,,,,,,,,,,,,,,,,,,,,,,,,,,,,,,,,,,,,,,,,,,,,,,,":12087,"PrimaryKey":12088,"Advanced":12089,"YAML":12090,"{},<":12091,"Ġrc":12092,"Ġengine":12093,"Ġpayload":12094,"Ġdim":12095,"Ġresources":12096,"Ġsegment":12097,"deno":12098,"atleast":12099,"STC":12100,"Ġ[,],":12101,"unparse":12102,"('?":12103,"past":12104,"Ġ:])<":12105,"Ġ'_":12106,"unichr":12107,"Bounds":12108,"(-,)<":12109,"ĠFilter":12110,"Expan":12111,"chanism":12112,"sensors":12113,"integrate":12114,"*',":12115,"Fra":12116,"Tick":12117,"cand":12118,"cxx":12119,"eb":12120,"fatal":12121,"ode":12122,"vn":12123,"Ġll":12124,"Ġproperty":12125,"onenti":12126,"utt":12127,"('~":12128,"atis":12129,"procs":12130,"instanti":12131,"Indic":12132,">\"\\":12133,"\":'":12134,"solete":12135,"rective":12136,"(-,,":12137,"Ġdele":12138,"Images":12139,"greater":12140,"170":12141,"failureException":12142,"packets":12143,"clusions":12144,",{}":12145,"DUP":12146,"GING":12147,"dpid":12148,"fif":12149,"vy":12150,"Ġlabels":12151,"Ġactions":12152,"Ġurlencode":12153,"relay":12154,"deb":12155,"abe":12156,">',))<":12157,"ased":12158,"=\"\".":12159,"REPORT":12160,"LOT":12161,"failIf":12162,"Ġdatabase":12163,"),(('":12164,"THE":12165,"FOO":12166,"Codec":12167,"APIView":12168,"jsvars":12169,"mountpoint":12170,"meaning":12171,"Guide":12172,"speaker":12173,"callers":12174,"Infinity":12175,"autifulSoup":12176,":')<":12177,"Jar":12178,"SID":12179,"Spatial":12180,"VArray":12181,"_=[('":12182,"ddns":12183,"spr":12184,"Ġdelta":12185,"see":12186,"inch":12187,"onts":12188,"sth":12189,"__),<":12190,"extern":12191,"nother":12192,"']=''<":12193,"appname":12194,"Ġ+,<":12195,"Ġ+=['":12196,"Req":12197,"EOFError":12198,"Ġ:,<":12199,"nets":12200,"executions":12201,"networkx":12202,"'..":12203,"dists":12204,"Ġ[],\"":12205,"TRUE":12206,"Ġdeep":12207,"ĠNotFound":12208,"Modules":12209,"ProcessError":12210,"EnumMember":12211,"ElementsByTagName":12212,"morphic":12213,"Ġreviewboard":12214,"NaN":12215,"mistral":12216,"Echo":12217,"mnt":12218,"rq":12219,"ĠTr":12220,"',,)<":12221,"unread":12222,"('|":12223,"verts":12224,"installer":12225,"interact":12226,"Datastore":12227,"quires":12228,"singular":12229,"Chars":12230,"PROV":12231,"tifier":12232,"Submission":12233,"HEIGHT":12234,"Ġ|<":12235,"HiddenInput":12236,"trailing":12237,"dangerous":12238,"(\",\"":12239,"*')<":12240,",)))<":12241,":\"+":12242,"MAT":12243,"Margin":12244,"Slot":12245,"_=='":12246,"cdn":12247,"cPickle":12248,"don":12249,"ored":12250,"uals":12251,"wants":12252,"Ġ':'":12253,"Ġdown":12254,"Ġdocument":12255,"Ġrobot":12256,"ansi":12257,"course":12258,"___":12259,"Ġim":12260,"peg":12261,"),[])<":12262,"Ġdj":12263,"writeln":12264,"Ġrecv":12265,"SEND":12266,"elect":12267,"Vars":12268,"ForeignKeyConstraint":12269,"Membership":12270,"([,,],":12271,"GEOS":12272,"HTTPSConnection":12273,"MY":12274,"Mal":12275,"OAUTH":12276,"dce":12277,"dpi":12278,"dtypes":12279,"fan":12280,"hers":12281,"lvm":12282,"mstats":12283,"malloc":12284,"pids":12285,"ĠValidationTestModelAdmin":12286,"referer":12287,"atile":12288,"'}))<":12289,"Ġ_,":12290,"amqp":12291,"tences":12292,",\"__":12293,"usec":12294,"Ġtz":12295,"\"]==":12296,"Opener":12297,"ĠPre":12298,"controls":12299,"Percent":12300,"mited":12301,"loops":12302,"Contin":12303,"PhoneMetadata":12304,"streamer":12305,"derived":12306,"Employee":12307,"IENT":12308,"Live":12309,"][":12310,"Ġcollection":12311,"ĠDelete":12312,"cool":12313,"Ġ+['":12314,"Ġsc":12315,"ROLE":12316,"ĠPath":12317,"herit":12318,"349":12319,"toolkit":12320,"cbc":12321,"Multipart":12322,"Suc":12323,"ĠLib":12324,"keepdims":12325,"Ġtextwrap":12326,"distances":12327,"MenuItem":12328,"({'<":12329,"WARN":12330,"diagonal":12331,"PKG":12332,"\"/":12333,":\")<":12334,"ASC":12335,"Cast":12336,"MNE":12337,"Pkg":12338,"Tester":12339,"rspec":12340,"vmo":12341,"Ġcompare":12342,"ortran":12343,"getElementsByTagName":12344,"contra":12345,"concurrency":12346,"consistent":12347,"dataframe":12348,"Ġ])))<":12349,"Ġsphinx":12350,"Recipe":12351,"()})<":12352,"cacert":12353,">':(":12354,"([,],":12355,"callLater":12356,"Prote":12357,"ormbases":12358,"interaction":12359,"FileSystem":12360,"APIT":12361,"Ġ+=+":12362,"Ġrval":12363,"ĠClo":12364,">:{'":12365,"fully":12366,"Numbers":12367,"cellprofiler":12368,"cellaneous":12369,")]:<":12370,">':'',<":12371,"international":12372,"subscribed":12373,"arcrole":12374,"DATETIME":12375,"confirmation":12376,"canonic":12377,"Ġstatsmodels":12378,"telnet":12379,"43":12380,"edition":12381,"sdist":12382,"tlv":12383,"Ġedit":12384,"Ġanswer":12385,"iness":12386,"ara":12387,"__=['<":12388,"idref":12389,"exon":12390,"dient":12391,"rices":12392,"='[":12393,"verification":12394,"Ġ]}<":12395,"Inv":12396,"mins":12397,"mocks":12398,"universal":12399,"transit":12400,"329":12401,"speciali":12402,"ryu":12403,"sentences":12404,"autocommit":12405,"truediv":12406,"indicator":12407,"PAILLI":12408,")|(":12409,"moderator":12410,"Frequency":12411,"CONTAINER":12412,"IDENTIFIER":12413,"PAILLIER":12414,"GATE":12415,"Mu":12416,"Put":12417,"ij":12418,"rpython":12419,"stem":12420,"})":12421,"ĠDict":12422,"Ġwidget":12423,"Ġtrace":12424,"unc":12425,"abbit":12426,"osh":12427,"timed":12428,"matron":12429,"bolic":12430,"Station":12431,"renderers":12432,"descriptors":12433,"ĠPack":12434,"menter":12435,"BUCKET":12436,"Tagged":12437,"Allocation":12438,"ometries":12439,"hexlify":12440,"TreeNode":12441,"angles":12442,"failUnlessRaises":12443,"carrier":12444,"Analyzer":12445,"baton":12446,"behavior":12447,"CENTER":12448,"DJANGO":12449,"convertToStr":12450,"Scr":12451,"Tk":12452,"_{":12453,"east":12454,"kvm":12455,"pig":12456,"Ġpolicy":12457,"rive":12458,"setFormatter":12459,"duit":12460,"prefs":12461,"\",\"_":12462,"corner":12463,"Comments":12464,"EXIT":12465,"drv":12466,"222":12467,"svg":12468,"Ġ}}<":12469,"='.'.":12470,"HANDL":12471,"Crypto":12472,"RF":12473,"fget":12474,"jd":12475,"vatar":12476,"Ġap":12477,"Ġtrack":12478,"ĠVERSION":12479,"storm":12480,"verted":12481,"typeid":12482,"strand":12483,"\",)],<":12484,"pyobj":12485,"igible":12486,"blk":12487,"LOADER":12488,"envs":12489,"CEL":12490,"itives":12491,"ĠBytes":12492,"111":12493,"Codes":12494,"pkginfo":12495,"226":12496,"Ġswift":12497,"privatekey":12498,"referenced":12499,">}))<":12500,"Classes":12501,"HasTraits":12502,"buffers":12503,"PRINT":12504,"63":12505,"HIGH":12506,"Im":12507,"SUM":12508,"huffle":12509,"mangle":12510,"pformat":12511,"Ġlambda":12512,"Ġservices":12513,"reviews":12514,"cts":12515,"qualified":12516,"alling":12517,"libcrypto":12518,"125":12519,"cachedir":12520,"izip":12521,"optparser":12522,"Assembly":12523,"seeds":12524,"occurren":12525,"tiles":12526,"'*<":12527,"Ġxmlrpc":12528,"MEMORY":12529,"Ġhomeassistant":12530,"Friend":12531,"Hmd":12532,"Pretty":12533,"TD":12534,"]\\":12535,"kvp":12536,"ĠRun":12537,"Ġbucket":12538,"rections":12539,"inference":12540,"rounds":12541,"chi":12542,"Ġtesting":12543,"igi":12544,"dual":12545,"latency":12546,"Ġdtype":12547,"tagName":12548,"pks":12549,"USD":12550,"MASTER":12551,"Measure":12552,"poller":12553,"2015":12554,"ĠBlock":12555,"twisted":12556,"Ġswitch":12557,"OneToOneField":12558,"Made":12559,"virtualenv":12560,"Ġ+'/'+":12561,"TLV":12562,"RANGES":12563,"CRYP":12564,"Clause":12565,"DECIMAL":12566,"atisfi":12567,")><":12568,",(<":12569,"=(,),<":12570,"dut":12571,"epi":12572,"xdata":12573,"ĠNew":12574,"ĠDomain":12575,"debian":12576,"ervice":12577,"intf":12578,"timeit":12579,"())]<":12580,"Ġ[]==<":12581,"groupby":12582,"traces":12583,"signup":12584,"debugging":12585,"merchant":12586,"modifier":12587,"EXPE":12588,"TEMPLATES":12589,"ĠNull":12590,"labeled":12591,"Miscellaneous":12592,"Packages":12593,"ĠArti":12594,"association":12595,"Destroy":12596,"equation":12597,"Ġnamedtuple":12598,"fordance":12599,"atexit":12600,"-'+":12601,"HDF":12602,"Horizontal":12603,"jip":12604,"kargs":12605,"Ġbuffer":12606,"Ġprotocol":12607,"Ġloader":12608,"inmap":12609,"Ġimpl":12610,"Trip":12611,"strat":12612,"attrgetter":12613,"compact":12614,"calib":12615,"Ġpk":12616,"linker":12617,"phys":12618,"\"][]":12619,"Union":12620,"AMF":12621,"ĠRel":12622,"Ġprevious":12623,"Writ":12624,"costs":12625,"mmutable":12626,"microseconds":12627,"accumulator":12628,"primitives":12629,"Ġrobo":12630,"ComparisonTest":12631,"_(,":12632,"dvr":12633,"mate":12634,"pitch":12635,"uu":12636,"ĠString":12637,"Ġarguments":12638,"ĠStream":12639,"urwid":12640,"envelope":12641,"colon":12642,"preprocess":12643,"REAS":12644,"ATT":12645,"Ġds":12646,"Stre":12647,"Ġ-))<":12648,"correlation":12649,"imize":12650,"FileField":12651,"sympy":12652,"showIndent":12653,"selectors":12654,"contribute":12655,"Positioner":12656,"=*<":12657,"ĠUnknown":12658,"metering":12659,"Dense":12660,"',,-)]]),('_":12661,"interpolate":12662,"smooth":12663,"ovrHmd":12664,"Ġbranch":12665,"ervices":12666,"/.":12667,"WD":12668,"_()<":12669,"bm":12670,"icontains":12671,"mip":12672,"tier":12673,"ategories":12674,"pedia":12675,"('../":12676,"')[].":12677,"==\"\":<":12678,"ĠClass":12679,"MAG":12680,"continuous":12681,"webpage":12682,"multiplier":12683,"illing":12684,"PIX":12685,"Aspect":12686,"ĠRead":12687,"Sym":12688,"separators":12689,"Binding":12690,"MULTIP":12691,"ABCMeta":12692,"xlsx":12693,"assertNumQueries":12694,"vmops":12695,"HH":12696,"LAR":12697,"bul":12698,"hsm":12699,"ji":12700,"Ġnu":12701,"ĠVersion":12702,"alink":12703,"elts":12704,"nowait":12705,"setAttribute":12706,"eting":12707,"Ġ+])<":12708,"Ġfmt":12709,"Ġcor":12710,"Resolution":12711,"intersect":12712,"refcount":12713,"FIC":12714,"ĠItem":12715,"ClientError":12716,"NewId":12717,"Ġimages":12718,"lifecycle":12719,"Ġtrac":12720,"Scaling":12721,"PUBLIC":12722,"Threshold":12723,"({},":12724,"NEXT":12725,"acls":12726,"ncol":12727,"('&":12728,"']*":12729,"outgoing":12730,"(,).":12731,"LOOK":12732,"Ġrx":12733,"sphere":12734,"countries":12735,"Ġ**)<":12736,"ĠLa":12737,"Ship":12738,"Ġsymbol":12739,"subtypeSpec":12740,"Tensor":12741,"equivalent":12742,"??":12743,"Game":12744,"PING":12745,"Scheme":12746,"ufo":12747,"Ġdep":12748,"ori":12749,"eros":12750,"ely":12751,"__'":12752,"cker":12753,"datacenter":12754,"Ġslug":12755,"nodeIdentifier":12756,"Ġ[]]=":12757,"([]))<":12758,"reddit":12759,"DataList":12760,"ĠMerge":12761,"Factors":12762,"URLField":12763,"Asset":12764,"triggered":12765,"SIGN":12766,"Edges":12767,"abstractions":12768,"REFER":12769,"adapt":12770,"BLACK":12771,"Partition":12772,"CHANNEL":12773,"Deriv":12774,"Aff":12775,"Anonymous":12776,"Roll":12777,"Span":12778,"bisect":12779,"iser":12780,"rub":12781,"spar":12782,"Ġtensor":12783,"INV":12784,"oracle":12785,"attack":12786,"peers":12787,"rescue":12788,"='{}":12789,"']!='":12790,"viz":12791,"Expect":12792,"subsample":12793,"Ġreader":12794,"Ġfinal":12795,"Ġcc":12796,"SECTION":12797,"luigi":12798,"\":\"\",<":12799,"sky":12800,"Ġmask":12801,"Ġale":12802,"ResourceOwnerAccount":12803,"Ġlxml":12804,"SCREEN":12805,"implementation":12806,"NetworkX":12807,"brain":12808,"lvl":12809,"ĠPerson":12810,"ĠAuthenti":12811,".'+":12812,"Audit":12813,"DROP":12814,"Java":12815,"LB":12816,"gather":12817,"lg":12818,"vd":12819,"}))<":12820,"sens":12821,"vest":12822,"Ġslice":12823,"createElement":12824,"subplots":12825,"joins":12826,"Ġregex":12827,"ĠSQL":12828,"Combo":12829,"Ġavailable":12830,"Ġnon":12831,"804":12832,"aggregation":12833,"stores":12834,"evaluator":12835,"SCALE":12836,"EXISTS":12837,"ElemNumber":12838,"thickness":12839,"nonlinearity":12840,"DOCUMENT":12841,"SEPARATOR":12842,"/\")<":12843,"Rank":12844,"oS":12845,"oi":12846,"vul":12847,"ĠInstance":12848,"Ġtrait":12849,"intent":12850,"ona":12851,"laci":12852,"tape":12853,"writeString":12854,"mbic":12855,"Ġtar":12856,"PEG":12857,"Ġkeyword":12858,"psp":12859,"websocket":12860,"Ġwatch":12861,"__,',":12862,"svd":12863,"backups":12864,"gaussian":12865,"ĠPyQt":12866,"ĠPermissionDenied":12867,"Ġsqlite":12868,"PLATFORM":12869,"\"')<":12870,")\"<":12871,"dts":12872,"ku":12873,"ĠCh":12874,"ĠOptionParser":12875,"reach":12876,"altitude":12877,"notice":12878,"isco":12879,"shel":12880,"matrices":12881,"Ġscore":12882,",'',":12883,"maxDiff":12884,"())+":12885,"readString":12886,"mini":12887,"maining":12888,"Ġorg":12889,"streaming":12890,"Texture":12891,"TextTestRunner":12892,"thetype":12893,"Grant":12894,"Checked":12895,"feeds":12896,"(\"/\")<":12897,"floatingip":12898,"BITS":12899,"SCHEME":12900,"movies":12901,"Predictions":12902,"RETURN":12903,"\"),(":12904,"marg":12905,"smb":12906,"xr":12907,"asize":12908,"ceipt":12909,"'][:":12910,"Ġ+_":12911,"appendChild":12912,"autop":12913,"Ġdriver":12914,"checkbox":12915,"disposition":12916,"Strip":12917,"Ġps":12918,"extends":12919,"genes":12920,"chunksize":12921,"Filters":12922,"Ġconfiguration":12923,"fitted":12924,"freezer":12925,"revisions":12926,"9026":12927,"7069":12928,"tarball":12929,"clipboard":12930,"LICATION":12931,"Ġ+\"/\"+":12932,"Finished":12933,"eigen":12934,"PROGRESS":12935,"Gaussian":12936,"Nd":12937,"fred":12938,"ipe":12939,"ipython":12940,"ology":12941,"sas":12942,"tmin":12943,"Ġui":12944,"asser":12945,"ended":12946,"exempt":12947,"ligh":12948,"motor":12949,"),**":12950,"etcd":12951,"neur":12952,"())[]<":12953,"dupe":12954,"Ġdif":12955,"apikey":12956,"ĠSto":12957,"Eng":12958,"Ġvt":12959,"webapi":12960,"TAIL":12961,"planes":12962,"COLLE":12963,"Ġ&=":12964,"dimshuffle":12965,"inherited":12966,"Synchron":12967,"opaque":12968,"Cls":12969,"IFT":12970,"aware":12971,"xm":12972,"Ġetree":12973,"relev":12974,"amel":12975,"paused":12976,"pocket":12977,"()._":12978,"Fire":12979,"omit":12980,"servicechain":12981,"arness":12982,"ROUND":12983,"Ġbra":12984,"(,),)<":12985,"Configur":12986,"115":12987,"8080":12988,"SAVE":12989,"aaa":12990,"Completion":12991,"Ġsalttesting":12992,"truncated":12993,"VirtualMachine":12994,"similar":12995,"SECURE":12996,"ambda":12997,"loseConnection":12998,"BD":12999,"ODS":13000,"Qui":13001,"Raster":13002,"^\\":13003,"clic":13004,"hunk":13005,"pct":13006,"Ġdependency":13007,"Ġcalculate":13008,"aste":13009,"ameter":13010,"',{}":13011,"apse":13012,"busy":13013,"computed":13014,"curs":13015,"Ġfont":13016,"Ġasync":13017,"={})<":13018,"COORD":13019,"BaseHandler":13020,"Ġep":13021,"Enter":13022,"izable":13023,"Ġrpc":13024,"109":13025,"facets":13026,"':\"'[]":13027,"8601":13028,"()+'<":13029,"fraction":13030,"ObjId":13031,"dashboards":13032,"SHARED":13033,"Traceback":13034,"saltenv":13035,"SECONDS":13036,"classic":13037,"'')<":13038,"Img":13039,"Late":13040,"ctive":13041,"gif":13042,"hbase":13043,"lxc":13044,"nda":13045,"uname":13046,"xb":13047,"Ġlo":13048,"ĠStorage":13049,"Ġbuiltins":13050,"urs":13051,"',),)<":13052,"getDao":13053,"clt":13054,"fromlist":13055,"notation":13056,"==:":13057,"objectType":13058,"minidom":13059,"starttime":13060,"baseurl":13061,"Notify":13062,">[(,,":13063,"Ġgc":13064,"ootype":13065,"Ġafter":13066,"Ġnltk":13067,"Buf":13068,"itories":13069,"EXTRA":13070,"LOGGING":13071,"Structured":13072,"rvs":13073,"Behavi":13074,"ĠEmail":13075,"retrieved":13076,"Ġframework":13077,"azim":13078,"ADMINS":13079,"Share":13080,">',,-":13081,"Sender":13082,"confidence":13083,"NOTIFY":13084,"estimators":13085,"IMPORT":13086,"Another":13087,"Gyp":13088,"Pseudo":13089,"Tlv":13090,"dbo":13091,"juris":13092,"kappa":13093,"rint":13094,"Ġ;":13095,"Ġunique":13096,"Ġtimestamp":13097,"Ġprovider":13098,"ĠAddress":13099,"Ġtyp":13100,"onmouse":13101,">'(":13102,"cosh":13103,"rescale":13104,"nothing":13105,"foreground":13106,"permanent":13107,"care":13108,"luon":13109,"UserDict":13110,"sendall":13111,"simplefilter":13112,"SKIP":13113,"Modal":13114,"tiny":13115,"Ġinterface":13116,"ENABLE":13117,"Blueprint":13118,"SHOLD":13119,"DOTALL":13120,"archives":13121,"isolated":13122,"Attachment":13123,"Bootstrap":13124,"REASON":13125,")',<":13126,"-]":13127,"71":13128,"BG":13129,"Cr":13130,"DH":13131,"DLayer":13132,"Etc":13133,"Wizard":13134,"gpio":13135,"vrf":13136,"wel":13137,"Ġcollect":13138,"exposure":13139,"unbound":13140,"\",),<":13141,"prs":13142,"Experi":13143,"tilt":13144,">\"_":13145,"numFeatures":13146,"Ġ'',<":13147,"dispose":13148,"Locale":13149,"pider":13150,"(,,):<":13151,"FORMS":13152,"SERIAL":13153,"WORDS":13154,"consumers":13155,"bios":13156,"HEADERS":13157,"mobber":13158,"extendedVersionHandler":13159,"asyncore":13160,"Secret":13161,"zookeeper":13162,"DEPTH":13163,"wildcard":13164,"Absolute":13165,"Coding":13166,"Alert":13167,"bk":13168,"gmtime":13169,"sses":13170,"ĠMo":13171,"Ġfail":13172,"Ġproperties":13173,"Ġoprot":13174,"reraise":13175,"filePath":13176,"isy":13177,"strument":13178,"(\"\",":13179,"persist":13180,"persistence":13181,"TestMixin":13182,"subclasses":13183,"ATI":13184,"Ġ'')<":13185,"=='.":13186,"Ġfolder":13187,"LET":13188,"dav":13189,"Look":13190,"loggers":13191,"toplevel":13192,"rolled":13193,"Ġkaresansui":13194,"Ġexpect":13195,"bitdepth":13196,"Ġiterable":13197,"expressions":13198,"allocated":13199,"Attrs":13200,"underline":13201,">-:'<":13202,"wells":13203,"numerator":13204,"invite":13205,".',<":13206,"BRO":13207,"DST":13208,"Daemon":13209,"Eq":13210,"Plain":13211,"dap":13212,"eig":13213,"ham":13214,"lda":13215,"ĠCase":13216,"Ġiprot":13217,",,]<":13218,"objec":13219,"importlib":13220,"BOARD":13221,"reading":13222,"minimal":13223,"startTime":13224,"community":13225,"Ġrequired":13226,"Ġfs":13227,"daily":13228,"DataStore":13229,"childs":13230,"Lists":13231,"(,,_":13232,">']))<":13233,"Subtensor":13234,")]+":13235,"organ":13236,"Ġretry":13237,"MethodType":13238,"Ġzope":13239,"DASH":13240,"trunc":13241,"daoList":13242,"MIDI":13243,"MovedModule":13244,"WINDOWS":13245,"Balance":13246,"nowledge":13247,"RESERVED":13248,"270":13249,"Using":13250,"YE":13251,"Ġpoint":13252,"Ġmon":13253,"Ġprompt":13254,"geometries":13255,"thunk":13256,"opname":13257,"urlsplit":13258,"calar":13259,"')!=":13260,"Ġ-)*":13261,"httpd":13262,"Ġbest":13263,"ĠAuto":13264,"stacks":13265,"Words":13266,"mktemp":13267,"permalink":13268,"Updated":13269,"Weak":13270,"Floating":13271,"AUTHOR":13272,"ĠHy":13273,"FORMATS":13274,"Deli":13275,")&<":13276,"mixer":13277,"attribOnmouse":13278,"LICEN":13279,"Black":13280,"bvl":13281,"dz":13282,"dro":13283,"fonts":13284,"ĠTo":13285,"DES":13286,"ida":13287,"','..":13288,"pardir":13289,"plur":13290,"amma":13291,"')})<":13292,"ROUT":13293,"POS":13294,"Ġgcloud":13295,"ObjectId":13296,"graphics":13297,"vocation":13298,"Ġtimedelta":13299,"Shift":13300,"learner":13301,"predicted":13302,"Abort":13303,"Termin":13304,"friendly":13305,"Integration":13306,"THRESHOLD":13307,"pocketMaterials":13308,"CReadable":13309,"Epoch":13310,"FREE":13311,"GG":13312,"Mob":13313,"TMessageType":13314,"UST":13315,"Ġac":13316,"Ġax":13317,"ĠContent":13318,"Ġbuilder":13319,"Ġryu":13320,"oname":13321,"tide":13322,"adm":13323,"isabs":13324,"']={}<":13325,"']]=":13326,"ilation":13327,"quested":13328,"sharing":13329,"configfile":13330,"Ġcrypto":13331,"picture":13332,"LOY":13333,"ModelObject":13334,"itsune":13335,"1044":13336,"Ġkitsune":13337,"Columns":13338,"multiply":13339,"2048":13340,"swagger":13341,"grain":13342,"intervals":13343,"='/'<":13344,"Stock":13345,"Ġfilenames":13346,"Attrib":13347,"recursion":13348,"spectrum":13349,"COLORS":13350,"CREATED":13351,"DIRECTORY":13352,"Facebook":13353,"Ġcellprofiler":13354,"OpenStackCloud":13355,"STAMP":13356,"asizeof":13357,"CReadableTransport":13358,"289":13359,">('":13360,"Age":13361,"Cart":13362,"FAL":13363,"MIC":13364,"ZIP":13365,"[\\":13366,"pnt":13367,"ĠCode":13368,"Ġshort":13369,"Ġfactor":13370,"Ġworker":13371,"ĠNe":13372,"ĠProfile":13373,"reward":13374,"rejected":13375,"assis":13376,"pets":13377,",,'<":13378,"testapp":13379,"testutils":13380,"upd":13381,"','\\\\":13382,"versioned":13383,"Ġ][:":13384,"Reservation":13385,"facade":13386,"(,)])<":13387,"subparser":13388,"']==<":13389,"ĠSh":13390,"FIXT":13391,"(*[":13392,"\"%(<":13393,"modification":13394,"Uploaded":13395,"Ġgot":13396,"TRACK":13397,"403":13398,"1145":13399,"Ġhist":13400,"ASSET":13401,"BlockRange":13402,"Ġsync":13403,"Rename":13404,">'],)<":13405,"GROUND":13406,"writeFieldStop":13407,"Metrics":13408,"silently":13409,"readFieldEnd":13410,"readFieldBegin":13411,"readStructEnd":13412,"readStructBegin":13413,"writeStructEnd":13414,"writeStructBegin":13415,"DISABLED":13416,"FIXTURE":13417,"PLAY":13418,"Tx":13419,"kr":13420,"psi":13421,"uv":13422,"vhd":13423,"Ġ5":13424,"instring":13425,"STD":13426,"('',<":13427,"moving":13428,"fromkeys":13429,"Ġinvalid":13430,"agenda":13431,"formdata":13432,"Ġredis":13433,"Statistics":13434,"corder":13435,"Nova":13436,"ListField":13437,"Unsupported":13438,"MockHttp":13439,"Company":13440,"Creator":13441,"2016":13442,"TIES":13443,"replication":13444,"Ġ**,":13445,"APPLICATION":13446,"Axes":13447,"UNIX":13448,"Destination":13449,"VERTICAL":13450,"MIXER":13451,"ĠBytesIO":13452,"EXPECTED":13453,"466":13454,"Cuda":13455,"aas":13456,"bage":13457,"cz":13458,"lh":13459,"Ġ}),<":13460,"Ġthreads":13461,"Ġmpf":13462,"uess":13463,"elastic":13464,"conduit":13465,"']=\"":13466,"illi":13467,"cursive":13468,"\",\"%":13469,"beros":13470,"ĠSSL":13471,"COVER":13472,"Ġ%'":13473,"closest":13474,"Ġbla":13475,"Under":13476,"Docs":13477,"TextCommand":13478,"Ġdataset":13479,"decryp":13480,"Present":13481,"radi":13482,"ramdisk":13483,"745":13484,"ĠIntegr":13485,"mutation":13486,"Twitter":13487,"blacklist":13488,"feats":13489,"ĠSearch":13490,"ĠMedia":13491,"Coordin":13492,"Ġlino":13493,"above":13494,"Paginator":13495,"ONT":13496,"WF":13497,"ea":13498,"gv":13499,"gcc":13500,"qi":13501,"ĠPro":13502,"Ġright":13503,"ĠProxy":13504,"Ġcompat":13505,"lometer":13506,"ets":13507,"=[,,,]<":13508,"taken":13509,"pores":13510,"__():<":13511,"dust":13512,"prece":13513,"linesep":13514,"']=='<":13515,"splitter":13516,"StringType":13517,"121":13518,"serviceobj":13519,"Ġ>=<":13520,"mismatch":13521,"specification":13522,"market":13523,"Orth":13524,"ĠBar":13525,"ceilometer":13526,"Ġcondition":13527,"Ġpredi":13528,"Ġ}):<":13529,"Workspace":13530,"tkinter":13531,"adjusted":13532,"Producing":13533,"gauss":13534,"PROPERTIES":13535,"elevation":13536,"sympify":13537,"onential":13538,"-\"+":13539,"876":13540,"=,**":13541,"Bcfg":13542,"aur":13543,"cStringIO":13544,"iq":13545,"ico":13546,"oa":13547,"Ġposition":13548,"ĠInput":13549,"Ġchanged":13550,"ĠHTML":13551,"DEL":13552,"obsolete":13553,"lend":13554,"outbox":13555,"tender":13556,"([-":13557,"mocker":13558,"checkers":13559,"GetService":13560,"Ġ!=-:<":13561,"fragments":13562,"aggregated":13563,"dnstr":13564,",],[,,":13565,"LoadBal":13566,"CANT":13567,"transformed":13568,"NegativeFlag":13569,"Ġrdflib":13570,"sticky":13571,"RIBBO":13572,"Indicator":13573,"7100":13574,"FAT":13575,"Migr":13576,"aval":13577,"iven":13578,"rkey":13579,"trend":13580,"Ġfa":13581,"ĠParser":13582,"Ġpair":13583,"Ġproto":13584,"Ġmongo":13585,"lead":13586,"STAR":13587,"cobj":13588,"opponent":13589,"abbr":13590,"tos":13591,"classdef":13592,"']}":13593,"osort":13594,"outf":13595,"bogus":13596,"signing":13597,"ACTER":13598,"stripped":13599,"IOLoop":13600,"aves":13601,"ĠRemote":13602,"996":13603,"tarfile":13604,"Corr":13605,"FUNC":13606,"Ġmigrations":13607,"CommCareCase":13608,"ĠProtocolError":13609,"!'<":13610,";')<":13611,">}),<":13612,"hosted":13613,"nis":13614,"pvals":13615,"slic":13616,"wmsg":13617,"Ġfun":13618,"Ġstderr":13619,"ĠLine":13620,"ĠFunction":13621,"ĠJob":13622,"Ġenum":13623,"former":13624,"terse":13625,"uploader":13626,"(\"'":13627,"bots":13628,"Concept":13629,"Contour":13630,"newdata":13631,"angular":13632,"Ġ:{'":13633,"Ġflavor":13634,"(),[])<":13635,"Optimizer":13636,"GetValue":13637,"DIV":13638,"structures":13639,"ĠTi":13640,"rtd":13641,"TAB":13642,"navi":13643,"Registered":13644,"Ġzipfile":13645,"seasonal":13646,"PublicKey":13647,"principal":13648,"'\"%":13649,"PG":13650,"Speed":13651,"cance":13652,"cators":13653,"gies":13654,"king":13655,"Ġpar":13656,"Ġalign":13657,"sex":13658,"roc":13659,"sics":13660,"REPE":13661,"sums":13662,"SEP":13663,"Directive":13664,"Ġtab":13665,"coreapi":13666,">[-":13667,"savefig":13668,"Ġgluon":13669,"barDs":13670,"Ġaff":13671,"flowError":13672,"ĠFloat":13673,"mktime":13674,"acency":13675,"ĠHas":13676,"cripts":13677,"follows":13678,"Ġzlib":13679,"DELETED":13680,"METHODS":13681,"Ġfinish":13682,"([,]))<":13683,"mnist":13684,"futures":13685,"@%":13686,"Cycle":13687,"EVAL":13688,"gae":13689,"grouped":13690,"ntry":13691,"rfile":13692,"Ġhe":13693,"ĠChange":13694,"stable":13695,"asin":13696,"rogate":13697,"abgp":13698,"dbm":13699,"BOOLE":13700,"omorph":13701,"ONENT":13702,"denied":13703,"ALER":13704,"FileHandler":13705,"copyfile":13706,"ircle":13707,"Seconds":13708,"IPNetwork":13709,"ĠDX":13710,"':[('":13711,"Tasks":13712,"glue":13713,"bitrate":13714,"Ġstar":13715,"Ġ[:-],":13716,"847":13717,"Hosts":13718,"SYNC":13719,"Ġcouch":13720,"Ġshutdown":13721,"Ġfeed":13722,"mutate":13723,"accepts":13724,"Orient":13725,"Tenant":13726,"FINI":13727,"turtle":13728,"permitted":13729,"estimated":13730,"AU":13731,"BUS":13732,"DN":13733,"Large":13734,"Pl":13735,"TREE":13736,"Wave":13737,"bis":13738,"Ġarr":13739,"Ġentries":13740,"ĠLocation":13741,"inten":13742,"oring":13743,"ifile":13744,"diter":13745,"assertLess":13746,"timeseries":13747,"tailed":13748,"Retr":13749,"preds":13750,"cafe":13751,">':('":13752,"Resolve":13753,"SEQU":13754,"']=(":13755,"interrupt":13756,"ModelPredictions":13757,"Ġ>)<":13758,"UserProfile":13759,"SetValue":13760,"placement":13761,"continuation":13762,",_,_":13763,"Viewer":13764,"HTTPException":13765,"Ġaw":13766,"attribId":13767,"webhook":13768,"Descr":13769,"Ġ+\"_":13770,"ĠRest":13771,"TemplateSyntaxError":13772,"TIMESTAMP":13773,"[,,])<":13774,"CHARACTER":13775,"trials":13776,"NCY":13777,"smoke":13778,"Gradient":13779,"icense":13780,"FR":13781,"KIT":13782,"_'):<":13783,"fancy":13784,"gce":13785,"Ġtp":13786,"ĠProduct":13787,"redo":13788,">'),'":13789,"lem":13790,"limited":13791,"Refs":13792,"Ġ[]>=":13793,"(,)]<":13794,"Ġfh":13795,"ĠSocket":13796,"644":13797,"RequestFactory":13798,"Ġpytz":13799,"ĠCall":13800,"Ġretri":13801,">'),**":13802,"olymp":13803,"AUTHORIZ":13804,"simrun":13805,"Identical":13806,"SMB":13807,"Targets":13808,"Dependent":13809,"coordinate":13810,"injector":13811,"identification":13812,"REPLY":13813,"QUOTA":13814,"TIFFTAG":13815,"/(":13816,"QLabel":13817,"but":13818,"vbd":13819,"Ġnt":13820,"Ġauthor":13821,"ĠColumn":13822,"Ġjs":13823,"Ġapps":13824,"ĠDefault":13825,"Ġdisable":13826,"stg":13827,"TestScheduler":13828,"computation":13829,"basepath":13830,"\":_":13831,"loadbalancer":13832,"ORIG":13833,"signer":13834,"DataError":13835,"binascii":13836,"102":13837,"Sequen":13838,"vox":13839,"MOVE":13840,"KEYWORD":13841,"Perm":13842,"Translate":13843,"FORA":13844,"Checkbox":13845,"ELLOW":13846,"Existing":13847,"Ġ[:-]+":13848,"Ġdimagi":13849,"themes":13850,"XmlMapped":13851,"Ġcocos":13852,"rospy":13853,"ZeroFlag":13854,"PositiveFlag":13855,"Evaluator":13856,"CannotContainNegativeFlag":13857,"CannotContainZeroFlag":13858,"CannotContainPositiveFlag":13859,"heapq":13860,"UNITS":13861,"bslpdu":13862,"Poller":13863,"Separator":13864,"tolerance":13865,"FALSE":13866,"XmlMappedEnumMember":13867,"\"==":13868,"\")+":13869,"Bag":13870,"ials":13871,"pz":13872,"rdtype":13873,"sque":13874,"winfo":13875,"ĠOrder":13876,"INCLUDE":13877,"mpo":13878,"cow":13879,"getValue":13880,"nobody":13881,"divide":13882,"setopt":13883,"tarea":13884,"Ġsingle":13885,"submodule":13886,"Ġrep":13887,"StringObjectPropertyType":13888,"GEST":13889,"Cols":13890,"ToSt":13891,"employ":13892,"ĠPa":13893,"Forum":13894,"replaced":13895,">']='<":13896,"LIG":13897,"overall":13898,"skipif":13899,"This":13900,"3018":13901,"sockname":13902,")].":13903,"ciphers":13904,"singleton":13905,"COMPONENT":13906,"Ġdoctest":13907,"CFG":13908,"Denver":13909,"Restore":13910,"}/{":13911,"Activation":13912,"azimuth":13913,"456":13914,"IZE":13915,"Pie":13916,"hl":13917,"Ġcomplete":13918,"Ġhosts":13919,"Ġcommands":13920,"Ġhelpers":13921,"stors":13922,"arri":13923,"asp":13924,"asing":13925,"':'.":13926,"']:":13927,"Inverse":13928,"Ġ[][].":13929,"readcr":13930,"acted":13931,"Ġdrop":13932,"querystring":13933,"')}<":13934,"')[:":13935,"posable":13936,"epub":13937,"GetAdditional":13938,"Compiled":13939,"PathSpec":13940,"ĠDjango":13941,"ĠBack":13942,"Subst":13943,"Ġtimezone":13944,"TOM":13945,"Ġnotify":13946,"Dispatch":13947,"decorate":13948,"SYM":13949,"personal":13950,"Joint":13951,"ByteSize":13952,"((,,))<":13953,"PHONE":13954,"Markup":13955,"denominator":13956,"%%":13957,"+')<":13958,"/\"<":13959,"Btn":13960,"Prec":13961,"Rational":13962,"Sparse":13963,"YELLOW":13964,"afi":13965,"agroup":13966,"dset":13967,"dos":13968,"efficient":13969,"jt":13970,"jpeg":13971,"uck":13972,"vary":13973,"west":13974,"Ġjobs":13975,"Ġthrift":13976,"revoke":13977,"intron":13978,"ortion":13979,"allet":13980,"nop":13981,"throttle":13982,",,,)<":13983,"setEnabled":13984,"=[_":13985,"paging":13986,"shards":13987,"Ġ+(\"":13988,"collision":13989,"modelObject":13990,"saas":13991,"writes":13992,"dsk":13993,"mbid":13994,"Ġ\"*":13995,"lags":13996,"Unchecked":13997,"648":13998,"\":\"+":13999,"menus":14000,"LIBR":14001,"selectable":14002,"EXTER":14003,"URLS":14004,"nonexistent":14005,"QtWidgets":14006,"Ġlfs":14007,"variation":14008,"00000":14009,"jail":14010,"hdrs":14011,"firmware":14012,"Ġdocutils":14013,"memoize":14014,"Ġinputs":14015,"SCAPE":14016,"Variant":14017,"throat":14018,"olympia":14019,"EXTERNAL":14020,"234":14021,"224":14022,"Wire":14023,"browse":14024,"fwd":14025,"gad":14026,"km":14027,"mang":14028,"padded":14029,"sreg":14030,"utime":14031,"Ġcontrol":14032,"Ġaccept":14033,"Ġtranslate":14034,"Ġtake":14035,"study":14036,"sibility":14037,"macs":14038,"issubclass":14039,"appable":14040,"plates":14041,"Exchange":14042,"\":},<":14043,"([]),":14044,">_('":14045,"Ġcv":14046,"Ġcancel":14047,"handling":14048,"Ġbii":14049,"species":14050,"Ensure":14051,"Ġpyface":14052,"ĠClear":14053,"URLError":14054,"ServiceError":14055,"ĠFound":14056,"consumed":14057,"builders":14058,"Ġunify":14059,"following":14060,"pipes":14061,"Planner":14062,"IFY":14063,"=[]*":14064,"balanced":14065,"HelpFormatter":14066,"ĠTemplateSyntaxError":14067,"TabularInline":14068,"),(,,),(,,),(,,),(,,":14069,"WBEMSTATUS":14070,"IgnoreArg":14071,"+(":14072,"Hdr":14073,"KER":14074,"QWidget":14075,"QMessageBox":14076,"RATION":14077,"Sql":14078,"]'<":14079,"bag":14080,"cisco":14081,"dq":14082,"dfa":14083,"dps":14084,"eze":14085,"tage":14086,"Ġask":14087,"Ġdeploy":14088,"Ġshell":14089,"Ġgeo":14090,"tets":14091,"mend":14092,"ITER":14093,"gebra":14094,"five":14095,"('</":14096,"']],<":14097,"'][])<":14098,"shlex":14099,"'}},<":14100,"=\"\")<":14101,"(,+":14102,"subpath":14103,"jsonify":14104,"toposort":14105,"collected":14106,"arer":14107,"Ġ[-:":14108,"componentType":14109,"309":14110,"centro":14111,"individ":14112,"deliver":14113,"Regexp":14114,"Ġinstances":14115,"COMMON":14116,"triggers":14117,"Engineer":14118,"buffered":14119,"',,,'":14120,"Dimensions":14121,"ĠUnicodeDecodeError":14122,"REGISTR":14123,"siblings":14124,"Equation":14125,"BOOLEAN":14126,"Ġbiicode":14127,"Cri":14128,"SZ":14129,"TX":14130,"Vec":14131,"]).":14132,"bx":14133,"bcc":14134,"fre":14135,"fuse":14136,"iel":14137,"nbytes":14138,"yo":14139,"Ġdescribe":14140,"Ġolympia":14141,"ife":14142,"gets":14143,"exif":14144,"testvars":14145,"isson":14146,"outube":14147,"()[-]<":14148,"(,)]":14149,"Ġgetopt":14150,"parseString":14151,"Ġcy":14152,"Ġassign":14153,"posted":14154,"matchers":14155,"BaseModel":14156,"lua":14157,"ĠAsync":14158,"imen":14159,"findAll":14160,"cursors":14161,"254":14162,"PATCH":14163,"Preference":14164,")-:<":14165,"securitygroup":14166,"173":14167,"Ġ&<":14168,"Ġdirection":14169,"849":14170,"gbp":14171,"DUMP":14172,"StyleName":14173,"Minimum":14174,"emr":14175,"Ġmoz":14176,"Ġbinary":14177,"Ġbinascii":14178,"CATEG":14179,"contribution":14180,"/',<":14181,"Emitter":14182,"Hard":14183,"KVM":14184,"doll":14185,"lw":14186,"mne":14187,"vv":14188,"Ġround":14189,"Ġfacts":14190,"redu":14191,"injected":14192,"ora":14193,"anh":14194,"':(,),'":14195,"appers":14196,"cepts":14197,"ĠtestGet":14198,"folio":14199,"userinfo":14200,"Inbox":14201,"pretend":14202,"phl":14203,"Ġbits":14204,"ĠMin":14205,"ledger":14206,"Fora":14207,"Compile":14208,"transcript":14209,"Ġwt":14210,"augment":14211,"boost":14212,"WebSocket":14213,"passive":14214,"compound":14215,"','_')<":14216,"ACTIV":14217,"FEATURE":14218,"Popup":14219,"VARIABLE":14220,"Catalog":14221,"715":14222,"Avg":14223,"QP":14224,"XForm":14225,"]{":14226,"aces":14227,"fld":14228,"lgroup":14229,"south":14230,"}')<":14231,"Ġpo":14232,"ĠHost":14233,"reserve":14234,"cocos":14235,"exts":14236,"='__":14237,"',''),<":14238,"chef":14239,"Removed":14240,"REVER":14241,"Ġrecords":14242,"workbench":14243,"ginx":14244,"tagSet":14245,"populated":14246,"sorting":14247,"monthly":14248,"Ġdic":14249,"Neigh":14250,"SSLError":14251,"OBJ":14252,"SIGINT":14253,"=*(":14254,"Ġtasks":14255,"slivers":14256,"combinations":14257,"inotify":14258,"Messa":14259,"Ġsummary":14260,"derivative":14261,"restricted":14262,"GOOG":14263,"(\",\")<":14264,"ĠDistutils":14265,"SINGLE":14266,"potential":14267,"TaggedItem":14268,"+*":14269,"Audio":14270,"NG":14271,"Tor":14272,"YES":14273,"ah":14274,"agraph":14275,"hol":14276,"iam":14277,"nbr":14278,"vb":14279,"vable":14280,"Ġdef":14281,"ĠOptions":14282,"ĠTransaction":14283,"rebase":14284,"raid":14285,"yscale":14286,"damage":14287,"immediate":14288,"Dev":14289,"epg":14290,"ParserTestCase":14291,"ProtocolMessage":14292,"bitcoin":14293,"OpenID":14294,"decorated":14295,"Ġsyn":14296,"]+',":14297,"limiter":14298,"copied":14299,"Docker":14300,"archived":14301,"VARIANT":14302,"LARGE":14303,")(<":14304,"KB":14305,"Physical":14306,"bble":14307,"cw":14308,"wik":14309,"ĠEntity":14310,"renamed":14311,"urandom":14312,"ameleon":14313,"',),(":14314,">',(('":14315,",'--":14316,"())),":14317,"BOUND":14318,"Ġcard":14319,"')),(":14320,"dented":14321,"lockfile":14322,"ĠSign":14323,"superclass":14324,"Ġbundle":14325,"bars":14326,"ĠPub":14327,"downloaded":14328,"structor":14329,"Manual":14330,"EXPER":14331,"MODI":14332,"PRODU":14333,"Interceptor":14334,"forced":14335,"audi":14336,"1554":14337,"chains":14338,"ĠCommandExecutionError":14339,"VARCHAR":14340,"Artifact":14341,"chronos":14342,"atistic":14343,"wavelet":14344,"crawler":14345,"Ġidentifier":14346,"CANCEL":14347,"Quick":14348,"219":14349,"822":14350,"Ast":14351,"HIST":14352,"kWindow":14353,"rscript":14354,"sun":14355,"deactivate":14356,"alty":14357,"getsize":14358,"getmtime":14359,"oldest":14360,"'],\"":14361,"quals":14362,"Ġ+],":14363,"maxiter":14364,"nodename":14365,"odd":14366,"later":14367,"REPO":14368,"Ġ*(-":14369,"again":14370,"pkl":14371,"'],[":14372,"cyan":14373,"attribFill":14374,"grace":14375,"successors":14376,"(['--":14377,"VERSIONS":14378,"MIB":14379,"HostSystem":14380,"terminator":14381,"fastq":14382,"solid":14383,"repeater":14384,"XYZ":14385,"RESULTS":14386,"whole":14387,"homogene":14388,"ALGOR":14389,"AUTHORIZATION":14390,"EXPERI":14391,"Lambda":14392,"QIcon":14393,"UINT":14394,"ktop":14395,"Ġids":14396,"Ġrouter":14397,"Ġlinks":14398,"Ġperson":14399,"Ġcomplex":14400,"DESC":14401,"covered":14402,"excl":14403,"Ġscale":14404,"linewidth":14405,"mplementation":14406,"Ġcd":14407,"ows":14408,"Ġ\"\".":14409,"129":14410,"Ġbasic":14411,"OpCode":14412,"timeouts":14413,"searcher":14414,"LAl":14415,"spell":14416,"160":14417,"repodir":14418,")*)<":14419,"Ġsubject":14420,"FORCE":14421,"centroid":14422,"Week":14423,"Ġpredict":14424,"repeti":14425,"invitation":14426,"ArgsCommand":14427,"performance":14428,"drill":14429,"orphan":14430,"IntegrityError":14431,"equip":14432,"Ġcloudcafe":14433,"Surface":14434,"victim":14435,"epilog":14436,">><":14437,"CMS":14438,"Duplicate":14439,"WI":14440,"bur":14441,"bmp":14442,"pression":14443,"rlib":14444,"sar":14445,"spark":14446,"vot":14447,"yc":14448,"Ġmp":14449,"Ġextend":14450,"Ġrules":14451,"Ġurlopen":14452,"Ġweakref":14453,"STAND":14454,"negate":14455,"texts":14456,"Reactive":14457,"Exc":14458,"indx":14459,"checkpoint":14460,"Ġcoro":14461,"')(":14462,"')),)<":14463,"ALY":14464,"ĠAzure":14465,"ConfigError":14466,"graphs":14467,"EXPORT":14468,"recsys":14469,"webdav":14470,"Connections":14471,"Health":14472,"picks":14473,"Processing":14474,"drafts":14475,"LookupError":14476,"Launch":14477,"ALGORITH":14478,"!\"<":14479,")}":14480,"232":14481,"FK":14482,"OID":14483,"TN":14484,"Ġhave":14485,"Ġwhich":14486,"Ġauthenticate":14487,"reat":14488,"lement":14489,"arms":14490,"getr":14491,"elist":14492,"unlock":14493,"testuser":14494,"Ġ'<%":14495,"observations":14496,"olation":14497,"keyboard":14498,"'}]<":14499,"()!='":14500,"sales":14501,"anging":14502,"DataSet":14503,"Ġtf":14504,"Ġgzip":14505,"ĠCal":14506,"ClientFactory":14507,"excludes":14508,"Closure":14509,"ĠHAS":14510,"segmentation":14511,"RECIP":14512,"12345678":14513,"reenas":14514,"sibling":14515,"DRAFT":14516,"pexpect":14517,"AUTHENTICATION":14518,"230":14519,"Amount":14520,"Freq":14521,"Flat":14522,"Har":14523,"IA":14524,"Io":14525,"Led":14526,"RPL":14527,"Salt":14528,"away":14529,"bdb":14530,"ections":14531,"know":14532,"nans":14533,"qisys":14534,"|'.":14535,"Ġtry":14536,"Ġts":14537,"Ġdirectory":14538,"Ġcontains":14539,"uninstall":14540,"lize":14541,"motion":14542,"outside":14543,"ippet":14544,"fieldnames":14545,"dulo":14546,"weapon":14547,"Ġord":14548,"rootDir":14549,"ListModel":14550,"sendData":14551,"pubdate":14552,"tifications":14553,"ENUM":14554,",:]=":14555,"ICMP":14556,"torrent":14557,"WindowCommand":14558,"Ġ>=(,):<":14559,"ĠOver":14560,"rpcapi":14561,"music":14562,"()+\"":14563,"ationalError":14564,"\"\"\"":14565,"neutronclient":14566,">'),),<":14567,"[-]":14568,"MESSAGES":14569,"Ġglobals":14570,"approval":14571,"(':',)<":14572,"Rotation":14573,"Ġscrapy":14574,"instantiate":14575,"sthrough":14576,"ASCII":14577,"LICENSE":14578,")','":14579,"Src":14580,"npy":14581,"snp":14582,"Ġta":14583,"Ġdepth":14584,"Ġsess":14585,"renew":14586,"chase":14587,"chown":14588,"Ġimportlib":14589,"android":14590,"isomorph":14591,"msvc":14592,"pypi":14593,"(,)))<":14594,"npb":14595,"Ġda":14596,"006":14597,"ĠSpec":14598,"Ġtb":14599,"Comb":14600,"Combin":14601,"finalized":14602,"administr":14603,"ConfigFile":14604,"Ġrs":14605,"ĠCategory":14606,">')})<":14607,")>)<":14608,"OrMore":14609,"FromFile":14610,"indentation":14611,"readers":14612,"'^[":14613,"greenlet":14614,"Ġ:\"\",<":14615,"REGION":14616,"When":14617,"Ġsnapshot":14618,"Subscriber":14619,"AVAILABLE":14620,"Ġdeleted":14621,"ĠAuthentication":14622,"squeeze":14623,");":14624,".\",<":14625,"880":14626,"Est":14627,"IX":14628,"Lab":14629,"Loss":14630,"Pan":14631,"gml":14632,"tTag":14633,"Ġmetric":14634,"Ġlazy":14635,"Ġpartition":14636,"Ġvim":14637,"recover":14638,"incorrect":14639,"erm":14640,"assertion":14641,"tids":14642,"ename":14643,"elrod":14644,"apt":14645,"filelist":14646,"etter":14647,"ancestors":14648,"ised":14649,"(),,":14650,"ours":14651,"Ġ'{":14652,"dispy":14653,"prices":14654,"ĠSoft":14655,"Ġpending":14656,"FileObject":14657,"GEN":14658,"numberOf":14659,">')):<":14660,"MOUSE":14661,"(['-":14662,"cats":14663,"Paged":14664,"externalbytes":14665,"\"],)<":14666,"Ġnovaclient":14667,"neighbo":14668,"CLOUD":14669,"LANGUAGES":14670,"wireLog":14671,"crawl":14672,"LIGHT":14673,"ReactiveTest":14674,"'_":14675,"Same":14676,"fps":14677,"ogr":14678,"Ġdefaults":14679,"ĠBuild":14680,"Ġlistener":14681,"DETAIL":14682,"attended":14683,"around":14684,"trc":14685,"']=['":14686,"Ġ+),":14687,"\",\"__":14688,"\",\"\",":14689,"backing":14690,"Ġday":14691,"Ġcgi":14692,"Div":14693,"KeyboardInterrupt":14694,"packaging":14695,"ModelSerializer":14696,"UserName":14697,"ĠCrypto":14698,"spd":14699,"Ġhex":14700,"Alloc":14701,"imgs":14702,"anything":14703,"qsl":14704,"ChangeSet":14705,"Ġreadline":14706,"Primitive":14707,"909":14708,"timings":14709,"dlr":14710,"LINES":14711,"CHARS":14712,"EmailField":14713,"ONGO":14714,"photos":14715,"=),[]])<":14716,"conflicts":14717,"Expired":14718,"HORIZONT":14719,"canonicalize":14720,"Delivery":14721,"284":14722,"Grow":14723,"KW":14724,"ahead":14725,"gal":14726,"pval":14727,"tte":14728,"ĠIN":14729,"ĠVer":14730,"Ġcontroller":14731,"Ġalpha":14732,"Ġcounter":14733,"Ġcalc":14734,"Ġextensions":14735,"infiles":14736,"dequeue":14737,"staging":14738,">'{":14739,"mpeg":14740,"ced":14741,"lore":14742,"returning":14743,"apache":14744,"Ġindices":14745,">',('":14746,"racle":14747,"']-":14748,"paid":14749,"matvec":14750,"Reason":14751,">\".":14752,"RELE":14753,"pecan":14754,">':['":14755,"libname":14756,"syspath":14757,"')'<":14758,
[...]
