#version: 0.2 - Trained by `huggingface/tokenizers`
E O
EO L
D E
s e
N T
DE NT
> <
) <
r e
se l
sel f
i n
o n
t e
d e
I N
: <
IN DENT
DE DENT
o r
s t
> '
Ġ <
m e
a t
l e
a l
S T
I T
ST R
L IT
e r
a r
) :<
' <
, <
a s
t i
a n
g e
r o
u r
de f
u e
m p
c e
i f
a me
Ġ :<
e n
se r
c o
>' <
f i
Ġ [
n ame
e l
' :
c t
or t
l o
re t
a te
' ,
_ _
i t
i d
ur n
ret urn
t r
c h
Ġ i
ge t
p e
c on
u t
e x
u n
mp ort
l i
( )<
ti on
a d
re s
f or
c k
n o
s i
on e
m a
in g
u l
( '<
te r
( '
ser t
d i
n t
m o
as sert
c l
N one
) )<
ro m
as s
a p
v al
f rom
. _
t h
T r
] <
t y
, ,
ar g
te st
o p
Ġ in
r i
se t
k e
u p
Ġ '<
Tr ue
at a
p at
q u
) ,
= '
Ġi mport
an d
a b
', '
t o
ul t
v er
o b
Ġ self
e ct
) ,<
>' ,
r or
at i
fi le
i s
': '
p ro
r a
arg s
pat h
e s
e t
cl ass
d ata
o l
' ]
de r
p ar
i l
ty pe
ke y
in t
val ue
q ue
ati on
no t
ob j
m s
a ge
c tion
v i
st r
le n
Ġ[ '
l a
{ '
o s
] ,
ap p
u m
' )<
= [
s s
a se
en t
de l
x t
si on
e d
" ,
d o
el d
ti me
qu al
i mport
( <
r ror
p a
E rror
Ġ not
al se
ce p
me nt
en d
s h
n e
b u
F alse
te xt
' ,<
= <
ad d
>' )<
el se
al l
o ut
l in
t a
que st
Ġi s
( "
Ġ test
) .
ab le
m at
v e
Ġ ]
E qual
Ġ +
u b
lo g
f o
= '<
u ser
an ce
res ult
p er
ur l
p o
= =
d ate
assert Equal
p r
b o
u s
i se
li st
obj ect
re quest
co de
in st
te d
ch e
>' ,<
Ġ __
co l
' }
Ġ s
mo del
fi g
p y
, '
[ ],
p ut
tr y
__ (
at tr
w or
a ult
i g
c re
d b
,, ,,
e st
ex cep
z e
I n
>', [],
a ck
res p
ma x
ra ise
def ault
>',[], {'
h e
Ġ None
Ġ _
> @
k w
no de
on se
co m
inst ance
i p
R e
f a
y s
( )
it h
s c
o ur
Ġ[ ]
o t
fi eld
p l
i te
d u
E R
B O
ar t
F i
* *
T est
h t
': ('<
C on
} <
con fig
in it
pr int
li ent
our ce
di r
= "
p re
g er
( ,
EO F
o d
i c
di ct
BO F
( ):<
u re
kw args
cre ate
re ad
an ge
resp onse
w ith
. __
app end
a der
p ort
de x
un t
" )<
excep t
st at
y pe
E x
co mp
g th
lin e
for mat
a ut
c a
h o
'} ),<
le r
o m
m in
p ass
ro up
er ror
ti l
ri p
l ate
a m
>' %
st art
c ur
{ <
c lient
b ase
len gth
re nt
ne w
s ub
a c
> "
R E
in fo
f f
i st
tion s
", "
f un
e w
il d
com m
pe c
" :
n p
O N
s a
an g
th od
A T
u til
te n
ce ss
t s
j ect
con text
j o
or y
te mp
h as
Ġ ]<
Ġ :
for m
w ri
co unt
Ġ get
me ss
s on
in dex
mess age
M o
b ack
te nt
ma in
ver sion
g roup
si ze
n um
jo in
] )<
lo ad
T ype
me thod
Ġ d
>' :
ing s
ul l
er y
, **
( [
tr a
vi ce
el if
( ))<
Ġ '
ex t
c al
re d
as k
V al
wri te
model s
ma ge
c all
b l
o k
v ent
aut h
Ġ re
wor k
> _
ar y
d s
at or
fi l
stat us
': '<
up date
he ader
ma p
P ro
e c
lo w
al i
st ate
p la
r un
b er
O R
li b
a ms
Fi eld
u te
S t
str ing
mo ck
n er
= ='
s ys
Ġ f
ms g
du le
se s
in d
t able
par se
L E
an s
val id
j son
mp le
che ck
qu ery
" <
g in
Ġ c
an k
' )
=[ ]<
out put
m l
N ame
ta g
par ams
g r
Ġ *
ho st
cl s
' ]<
to k
ab el
b y
d a
t p
con tent
di s
vi ew
M E
re n
sc rip
S tr
f e
,,,, ,,,,
n et
C o
ro w
re g
op en
h el
tok en
fil ter
[ '
L o
p i
" ,<
do c
r ange
Ġ and
de n
mo dule
Val ue
op tions
li c
' :<
bl ank
util s
n d
, )<
set t
h and
it y
Ġ -
te m
um n
v ar
Ġ as
file name
ap i
0 0
ang o
a ction
si g
sh a
i mage
o w
j ango
un i
temp late
or m
lo ck
p ri
Ġis instance
u ment
ar get
i le
= {
le te
m d
} ,<
l abel
= _
s pa
fi x
A L
e vent
s u
c or
wor d
( ),
R es
S E
ser ver
s o
ra y
n ull
Ġ[ :
i m
res s
sett ings
ce s
m b
i bu
s up
c lo
object s
Ex cep
pro per
ne ction
( ).
par ser
Excep tion
d y
t arget
ibu te
s ource
'] =
un d
, '<
in ter
e le
comm and
ite m
fun c
p os
m an
Ġd jango
Ġ os
, "
do w
pl it
field s
= (
} )<
C h
ck et
= ,
mat ch
D ata
Ġ x
I D
in put
] ,<
a ct
re f
i es
con n
con t
un it
K e
et a
pa rent
value s
> }<
w id
D e
Ġ S
v el
C O
s plit
Ġ "
N o
th er
w e
pro cess
bu g
ite ms
C ase
i b
i ter
sig n
D i
qu i
re e
a g
Ġ p
A R
Ġ[ "
tr ans
), ('
bo dy
z er
Ġ len
ar ray
spa ce
re ct
Fi le
Ke y
>', '
hel p
ch ild
A d
header s
( (
de lete
a x
'] )<
pec ted
t le
cur rent
n u
Str ing
ter n
' %
pa ck
L O
Ġ or
1 2
Ġ] =
c le
ex pected
lo c
Ġ set
T E
ar ch
ser vice
pro ject
F I
u se
3 2
ar n
col umn
lo at
u le
o ther
de bug
ses sion
o re
= )<
G E
Ġ t
g ing
ro ot
r on
date time
me r
Ġ %
l l
s or
ca che
de scrip
N ot
w h
ar d
A C
clo se
P E
Test Case
res ource
de p
proper ty
B ase
ex ec
ma il
lin k
ti tle
I ON
w a
or der
Ġ] )<
r ame
Mo del
p h
re mo
sup er
l y
A N
' ):<
s y
n el
in e
Ġ >
co re
P ar
ht tp
co py
l u
= {<
con nection
c md
u id
a ger
L ist
ol d
pat ch
! =
m is
ation s
log ger
r and
t ask
- -
lo b
log ging
key s
ma ke
fo o
m ary
R O
name s
={ }<
Ġ[ ]<
S er
po int
U ser
S et
( *
po st
n ext
" ]
Ġ b
>'% (
la st
C om
en v
lo cal
C ol
N A
m it
ex p
sha pe
bu ild
" %
P o
Value Error
=[ '
assert True
S S
te s
re q
' ))<
descrip tion
) ==
s pec
type s
O b
fun ction
Ġ A
an t
r st
Ġ M
( _
no w
' ),
al s
u ct
f loat
Ġ e
j ob
mo d
I d
la g
> },<
den ti
ti ve
, *
> [
num ber
do main
mo de
u de
i me
hand ler
re am
pla ce
E n
r c
pre fix
fa ct
k er
col or
) )
ra w
ig ht
p age
di rect
er r
ex ten
e p
le vel
o ff
O p
m y
c ate
ch ange
ment s
lin es
t op
U R
U p
pass word
w in
la y
ab s
file s
pla y
ter s
c s
Ġ for
de st
w r
ro l
me ta
n c
A P
f in
G et
re qui
at ch
unit test
= {'
p k
H T
con f
e qual
a k
net work
ap h
b e
>' .
i ali
la mb
T o
i on
' ),<
lamb da
op tion
ad ata
st ore
R a
ta in
U T
m ar
attr ibute
U n
time out
[ ]
C E
d f
Ġ I
f ind
ol s
D I
en ti
le d
ge ner
m on
r ule
er s
ex tra
Ġ[] .
de d
has h
,,,,,,,, ,,,,,,,,
sa ve
u st
(, ),
c i
6 4
me m
result s
me t
' .
P O
) ))<
vi ron
No de
mp y
e mp
': {'
Re quest
user name
w arn
n s
pri mary
add ress
cl ude
Ġ[ '<
di st
pat tern
Ġs ys
Ġ g
wid th
V i
c p
y i
uni code
) +
o f
ul ti
A r
', '<
i ze
i z
Ġ True
arg ument
ad min
e mail
rand om
x ml
b ar
b lock
Ġ+ =
is ter
yi eld
Ġ[ ],
A D
ht ml
p op
r y
es s
ex ist
se nd
met adata
> ]<
ex c
Ra ise
se arch
it s
> __
o o
s q
p ub
Ġ range
f rame
Ob ject
Con fig
T P
fa il
st ream
up le
b in
l ass
mis sion
== "
ol u
C H
pack age
Ġ py
fi rst
op ts
t tr
si te
Ġ ValueError
error s
Ġ r
Ġ False
u uid
ti es
Ġ C
to col
N O
con st
H and
man ager
Raise s
U S
cor d
'] ,
at h
Ad d
i r
": "
Com m
i x
s che
en viron
Lo g
call back
Ġ !=
C T
Ġ result
Ġ P
T ime
i o
U L
M A
ch ar
f t
D o
if y
c er
ch o
ver se
un k
( ,,
K E
M eta
assert Raises
cont in
fa ke
auth or
pl u
ch ed
i ti
IN G
bo se
nu mpy
. .
Ġ name
que ue
T Y
gr aph
excep tion
dow n
v ed
T ext
f lag
me n
NA ME
u i
ver bose
at ure
st rip
Ġ key
wh ile
remo ve
), )<
bo x
th read
us ter
'] ,<
M P
do ut
Ġ v
off set
Comm and
" :<
Ġ has
ig n
Mo ck
ser iali
c y
s um
1 0
st op
F orm
hand le
an nel
str uct
v a
ri ver
contin ue
plu gin
s with
ati c
{ }
re l
a y
Res p
ig r
b le
b re
ct x
si tion
I O
Ġ k
x y
g ht
reg ister
st a
ut ure
F or
u res
conn ect
op er
st dout
col le
, _
de nt
se n
t al
g lob
Resp onse
c ase
Vi ew
sh ow
re place
>' ]
M e
ff er
HT TP
>' )
s k
st ack
th on
if i
on g
th e
> :
id x
par ame
con tain
d type
AT E
id s
lo t
Ġ /
aut o
>': ('<
ur i
uni que
add r
( ),<
re pr
L I
Ġ m
[ ]<
) ):<
Ġ a
F A
C ON
V er
par am
Ġ Exception
cont rol
'} )<
ttr ibute
>' ),<
p s
V ER
t mp
get attr
u d
=[ <
bre ak
Ġ ],
s ing
m t
sel ect
u al
Ġ n
c cess
olu me
en try
>', '<
== :<
ate d
Ch ar
S e
Ġ* <
i able
st ance
Hand ler
or s
U N
exec ute
late d
TY PE
f uture
c f
en code
node s
I P
b r
attr s
or age
t uple
loc ation
B u
ction s
ol der
li ce
de vice
'} ,<
comm on
) ]<
Di ct
so cket
M an
as h
p p
L A
ge n
pe ct
a in
Ġ[] )<
cl uster
or ig
I s
op t
exist s
) :
ch annel
ro le
). __
low er
Ġ Test
ess age
S I
f ull
'] .
v o
attr ib
to tal
se c
h a
': "
s p
du mp
it or
Ġ value
A ut
': {<
stat s
ac tive
C lient
f s
valid ate
' ).
li mit
tr ic
} ),<
d river
lic y
f low
Ġ T
tag s
s rc
fa ce
E X
re c
Ġ data
r t
pro file
G roup
te ger
re lated
fe ren
st ra
set up
Ġ create
z ip
) =
M essage
wr ap
we b
N um
st atic
F a
Ġ )<
cho i
), (
st y
wid get
n orm
C lass
B o
F act
to ols
ele ment
1 6
d ing
l ang
cur sor
UR L
re cord
t on
pa y
E le
ER R
by tes
ur ation
LO G
Ġ] .
Ġ+ =<
ax is
s te
assertEqual s
comp ile
c ation
p c
der r
for ms
Q u
Ġhas attr
exten sion
", '
ex it
se d
on ent
Col umn
2 5
UL T
= -
c an
po ol
d if
st derr
' +
) >
requi red
en co
R un
sty le
Co mp
In dex
Res ource
v olume
group s
ta il
Ġ open
sche ma
>' +
sa mple
mar k
i denti
fact ory
gin e
tr ue
M O
comm it
, (
B U
se con
ex pr
in iti
O r
o ver
de sc
I NT
o g
f n
sta mp
s co
p ol
P ath
test s
a st
T R
tra in
a re
enti ty
start swith
'% (
= ,<
GE T
V E
me tric
(' /
, [
i e
Type Error
si x
'] ['
en u
c li
C re
le ft
de code
arg v
le an
able d
re verse
cle an
l ong
con ver
Ġ if
>' }),<
log in
Ġ[ -
T H
E vent
back end
i al
bu ffer
sk ip
P RO
bu il
ati ve
pe d
child ren
win dow
per mission
ti fi
m ulti
g o
', )<
2 0
Ġ line
T I
al low
ri ght
Ġ D
name space
St at
Fact ory
Ġ else
lic ation
l at
v m
s ort
t ree
H t
com ment
tra ce
bu f
In stance
men ted
class method
e q
O P
du ct
mem ber
Ġ B
wa it
( -
Q U
I L
u ter
lu g
p u
flag s
( __
Ele ment
vi der
" .
ti v
), ("
ERR OR
Ġ request
del ta
a le
sq l
(,), (,),
S ub
el l
po sition
sys tem
g i
cf g
b ind
le ase
W id
ac cess
>' ))<
Char Field
E N
create d
Ġ }<
ch unk
Val id
cal led
ut ton
z one
p lot
n on
message s
py thon
D O
feren ce
vi sion
st orage
ge x
parame ters
ro t
ok up
co un
Q t
a mple
I tem
: '
po licy
Aut h
s w
Con nection
par ti
V ar
w x
12 0
dir name
a f
doc ument
Ġ url
he ight
Ht tp
M L
contain er
ce n
'] :<
T A
al t
"% (
dis k
g ra
pro xy
Num ber
FI LE
h er
Ġ node
Ġ+ '
dis play
or ted
4 0
': [
s n
column s
ren der
in clude
par t
, -
F O
Ġ Ġ
Par ser
Con tent
S H
St ate
excep tions
ut f
mple mented
ow ner
ro ute
et ch
g ory
,,,,,,,,,,,,,,,, ,,,,,,,,,,,,,,,,
in sert
tr ack
Pro per
enco ding
" )
{ "
( **
se ction
In fo
1 1
en gine
v is
scrip t
on t
pro tocol
F un
c ap
an ts
res h
ust om
Ġ h
wor ds
time stamp
FA ULT
T able
Ser ver
KE Y
R o
" ]<
L e
filter s
5 0
Ġ l
en o
', :'
row s
D ate
ed ge
Ġ de
per i
p ing
C all
orig in
su ccess
DE FAULT
da y
Ġ Not
ac count
U P
= ):<
glob al
F F
ri x
m igr
as ter
pay load
lo y
ali ze
se q
dep en
tr an
Ġ type
' ",'
var iable
inst all
sco pe
_ (
D B
all y
s lug
ker nel
>': {<
A c
le x
gener ate
B y
user s
O ut
bo ok
qu o
" ))<
f d
w s
en er
T h
attribute s
ig h
l d
In teger
F rom
re po
S P
le t
mo ve
Ar g
Ġset Up
I mplemented
A ction
) *
Ġ time
ix in
T ag
no re
an ch
P er
se nt
e val
il l
at ures
exten d
N E
Ad min
V I
Ver sion
app er
u age
> {'
de tail
1 00
PO ST
or d
__ )<
N S
m i
var s
Qu ery
comp ute
lin eno
A ttribute
A SE
=' '<
" ):<
if t
, ]
", '<
res ol
Ġ add
ste p
ce i
co ok
la v
emp ty
ifi ed
es c
S C
b a
H E
A l
an not
A pp
Ġ })<
pl at
T O
ol ute
ct ype
d t
Ġ json
Ser vice
w er
data set
H e
im g
G r
si ble
m ask
im al
p t
mport Error
[ "
':" '
I mage
li sh
module s
, :
ro und
cer t
pa ir
label s
g it
res sion
pub lic
Ġ[: ]
proper ties
we ight
A GE
content s
C a
que n
) /
W in
n g
w d
as ic
re port
Man ager
di tion
dif f
Proper ty
Ġ F
Tr ans
par ts
on ly
remo te
Ġ run
u int
G L
b atch
st d
di m
abs olute
fo re
ce ll
Pro tocol
Res ult
), ('<
conver t
con tr
Ġs ub
al ph
de v
" ),<
([ '
A nd
( {'
Co de
Wid get
he ad
lo op
': ,<
ĠNot Implemented
De f
= =<
Ġ datetime
reg ion
assert False
S O
comp onent
DI R
s m
ĠI mportError
s lice
in k
sy nc
P AT
3 4
assert Is
ex clude
ator s
y e
AP I
D esc
Ġ np
bo ol
M ixin
Ġ response
O K
an el
lo okup
AT A
3 0
he ck
load s
s ched
lo ader
as ses
age nt
sh ot
For mat
Con text
fi xt
In ter
f p
so ck
path s
) ]
re al
lang uage
G ener
token s
pro vider
d r
pi ck
Ġi tem
ver ify
cle ar
Ġ args
event s
I nt
D S
ro p
ca le
Ġ no
initi al
con su
raise s
control ler
L ay
Str uct
F o
I C
Log ger
i mp
re st
direct ory
E D
t or
me di
re lease
b s
T ask
for ce
cur ity
pro duct
li s
f older
an y
Ġ Key
sa fe
f etch
o us
end point
do t
ig nore
le ep
input s
String IO
choi ces
um my
iz ation
gr id
S ize
as on
T emp
) ),('
in s
de c
\ \
in dent
dump s
= ('
o me
al og
ct or
)== :<
sign al
A M
si mple
depen den
Po int
bu cket
enu mer
F OR
d at
F il
TE ST
g l
sh ort
i ent
, ))<
L ine
ed it
Ġ to
plat form
>' ]<
> })<
Ġ |
top ic
Cre ate
= (<
1 4
==' __
sec ret
h ist
p id
': ,'
g ate
hel per
sc ale
now n
am l
ge st
alph a
tern al
ri de
D is
act or
lav or
DE R
g ment
ss l
e k
ow n
P re
, ],
[ :
Win dow
r ate
ĠNotImplemented Error
__ ':<
fi er
F rame
a va
enumer ate
dep loy
in f
data base
en abled
(' -
Ġ list
quen ce
z y
contr ib
M M
B LE
query set
sub process
f name
Ġ w
(, )<
r v
c ted
Ġ config
IN E
a u
e ff
view s
Con t
sha red
Ġ unittest
cate gory
ali as
V AL
Ġ> =
Ġ O
Ġ numpy
C heck
T ER
Ġ path
sor ted
Ġ+ "
pro to
fi t
sh e
AT ION
S ION
li ter
ile d
sh ip
Do c
Stat us
SE T
W or
default s
sa ction
ca st
1 5
" ])<
Ġ settings
l s
Ġset up
Ġ db
seriali ze
dir s
de le
j s
__ =='__
ST AT
s leep
ma c
colle ction
F ore
z ed
' ),('
1 8
C K
W ith
parse d
__ ,
m aster
S ER
) -
I G
Ġ enumerate
or g
me nu
app s
mo unt
Ġ logging
1 9
c r
US ER
ro uter
q s
a v
W OR
t w
su ite
PAT H
ac tiv
bo ard
cl asses
E NT
2 4
Ġ check
fin ally
me an
re direct
Fil ter
sy m
lay er
ch ain
mat rix
action s
Mo dule
act ual
in valid
ce nt
ect or
bo t
In valid
pro p
bin ary
B ASE
to ol
Add ress
pri v
D ATA
Ġ new
ten ant
() ))<
Ġ G
U M
port s
ta ch
=- <
VER SION
E nd
g or
Valid ation
Op tion
fo und
P I
us age
Ġ[: ]<
Cont rol
q l
she et
i mple
g g
In put
Ġ TypeError
[ ])<
package s
re gex
cep t
i str
F e
de red
E d
warn ings
it ch
i ve
Co unt
i ck
(' .
d st
seriali zer
tr ies
Ġ] ,<
pro g
resource s
pk g
=[ ('
OR T
Q ue
pl y
5 6
warn ing
Ġ u
Ġ !
Ġ ex
Z E
ip el
MA X
m k
P y
ho ok
an o
t z
Ca che
M ap
trans form
table s
c c
b ad
ti f
zer os
ok en
) ),<
} ,
A n
Ġ {
test ing
__ =
static method
r m
t x
ye ar
Ġ+ '<
re set
Fore ign
S ele
pro t
const ants
Ġ obj
map ping
si s
A s
se curity
2 2
app lication
=[ "
host name
sub ject
url s
Ġ Re
point s
secon d
ele m
c ustom
pub lish
8 0
>': '
Col or
)> :<
M S
c at
Ġs w
Test s
Ġx range
ipel ine
" +
Fun ction
Ġ' .
fe atures
lis ten
T ION
lu gin
) ])<
ag g
f fix
dis patch
Foreign Key
c b
h ex
(' \
r pc
stra ct
l an
v t
Ġ str
op rot
re p
Ġ ret
image s
M ulti
in di
H O
) ),
O n
is h
he re
r s
Me thod
inter val
Ġ **
rule s
S y
n ing
E S
g f
Pro cess
request s
Ġ j
clo ud
Ġ R
ex pect
ar ti
es ca
re pos
b it
pl an
f ont
cre denti
p en
Ġre n
cook ie
Ġ< =
co der
ter m
Ġ field
" ),
buil der
o auth
br anch
Ġ app
A S
E L
read y
ĠKey Error
ut able
Con st
Ġ user
BU G
ex pi
G ui
,, ,
Fo und
set s
def in
AL L
reg istr
r l
mon th
lu sh
use d
per m
3 7
H o
v es
sen der
pl t
order ing
ex ample
gr ad
P AR
D own
Up date
8 6
re ason
DE BUG
iter items
Ġi ter
mb ol
l ask
Ġ file
set attr
ec ted
pre v
pattern s
und le
A ll
ap shot
dep th
secon ds
t xt
consu mer
re cei
H el
ctype s
c ry
i prot
sub net
s core
fil l
SI ZE
X ML
Ġren der
o cket
ret ty
CO NT
the ano
R et
J S
ys tem
n a
Call back
si de
Ġ do
Re g
Ġ on
p tr
mer ge
link s
Ġ[- ]
wr apper
igr ation
quo te
> (
(, ))<
Ġ parse
"] =
argument s
' \
g re
_ =
url lib
P age
vi de
AN D
oper ator
S u
fe ature
mat h
Op en
as y
s ure
Ġ options
trace back
al y
a ve
h s
lay out
priv ate
N et
u ler
se ed
su ffix
change d
if ic
_ ,
b its
i ce
migr ations
T oken
get Logger
bo ot
te ar
S U
Ġ arg
up per
Out put
trans l
bo und
sh ell
it ory
P A
on ce
ar r
wa y
pro c
b utton
c v
coun ter
Ch ild
Ġ L
ar ds
ĠA ttribute
Ġ> :<
m u
up load
ta ct
r f
AC K
tr on
u tion
3 9
m il
Ġ cls
update d
B e
esca pe
R A
co ver
ab c
() +
down load
O per
mo st
man age
CO DE
1 7
Que ue
> ],<
iz ed
Qt Gui
oo g
ser v
so le
b asic
Ġ" +
t t
": '<
inter face
wa re
choi ce
tran saction
assert In
is instance
C lo
k ind
) ).
/ %
Temp late
Ex ist
th ing
A UT
comp le
Par ame
che ma
Con tain
comp lete
>' ):<
fe ed
Var iable
Ġ E
call s
fact or
f ree
r ad
Ġ res
ro ll
ss h
end ing
liter als
2 00
Ret urn
mod ified
ĠAttribute Error
col s
def er
INT ER
Le vel
arn ing
0 1
buil t
Ch ange
identi fier
3 6
Ġ base
={ "
ava il
L abel
http lib
) []<
abs path
L en
se p
>' },<
IT E
mis sing
CON F
P lugin
{ })<
Ġ+ <
=" "<
sign ature
), '
colle ctions
id den
Run time
oper ation
le ss
work er
c m
oog le
output s
Bo x
': ['
Ġs up
W e
ul d
af ter
g ame
ti tem
f lavor
Ġ read
ic al
method s
Ġ update
g py
sh o
Ġ un
wri ter
origin al
W S
f Name
de li
Ġ st
AC E
thread ing
s g
RE AD
di v
s in
ul ate
cal c
He ader
'} <
Ġ con
extension s
O f
(' %
P RE
is o
is s
Ex p
Th read
run ner
y aml
te x
FOR M
S ource
ele ments
by te
l t
>'] =
Ġ context
w ard
Ġsw gpy
',' --
f mt
requi res
tif y
host s
( {<
pri or
gra m
h y
St ream
command s
O T
u tron
(' --
CO L
p le
st fName
trans port
Ġ] :<
L ink
>', )<
task s
requi re
sche me
me ri
cre en
Ar ray
te ms
n one
f lush
m id
c ip
f ra
Ġ] [
__ .__
P ORT
Ġ mock
val s
c ard
Ġ Http
h i
s alt
g t
hist ory
at tach
)= =<
Me m
p b
En try
base name
Arg ument
instance s
S pec
>') (
Ġ pre
identi ty
no tifi
service s
IN FO
detail s
ch ine
ul ar
QU E
ation al
> %
>' ])<
mem ory
Def ault
es sion
Di r
B lock
local s
t ab
indi ces
p orted
Ġ match
R I
la zy
Ġ] +
Doc ument
=_ ('<
c ies
over ride
) !=
B ack
handler s
AP P
O ne
=' %
" "
Gr aph
Ġ make
C P
de lay
Ġ unicode
( ,'
parame ter
Ġ &
sing le
Ġ[: -
plugin s
W ri
lo cale
ten sor
iss ue
d uration
Re ad
il ity
sho uld
P a
f ol
T ree
F lag
Ġ six
fix ed
,,,,,,,,,,,,,,,,,,,,,,,,,,,,,,,, ,,,,,,,,,,,,,,,,,,,,,,,,,,,,,,,,
mo x
Pro ject
extra ct
Ġ' +
de cor
=[ '<
(,),(,), (,),(,),
f lat
mar ker
fixt ure
ti ty
Ġ Base
sn apshot
r ary
Ġ models
M IN
p anel
i tion
re ader
Ex ten
end swith
a ded
M I
Ġ o
pick le
s v
get her
Ob j
work flow
inter n
p d
sc al
g y
as sign
ME NT
_ .
() ]<
state s
peri od
S ystem
sc ri
agg reg
e mit
G S
>', "
cli ck
U til
ne utron
u g
X T
medi a
S h
ex ternal
get text
norm al
Ser iali
J ob
R el
th is
sel ected
B utton
Runtime Error
um b
r b
set default
Ġ start
pol y
Ex ec
temp file
Ġ }
cs v
p ipeline
CON FI
NO T
c wd
re cor
" ],
du ce
re vision
ke d
N ew
ho me
F loat
Ġ log
Ġ di
, ),
__ .
8 4
d one
'] ='
ke ep
op s
Not Found
st ar
_ )<
ret ry
Ġ[] =
oo lean
const ra
Re f
Ġ> >
(" %
=" %
ca ched
P ort
gener ator
is ted
version s
in ation
out file
sett ing
ed itor
Ġt w
/ /
C ur
S A
auth enti
Ġ absolute
or ter
var i
P ri
25 5
re que
pu sh
b undle
to gether
ha pe
Un i
exp and
Ho st
o c
te red
be fore
fail ure
sw itch
registr y
allow ed
STAT US
ut c
S Q
a ce
Net work
d n
Validation Error
Ġ< :<
P Y
E CT
P ER
d jango
rel ation
9 0
ter min
li ght
>' ),
time s
Po st
dele ted
Date Time
re r
L U
ge d
re ference
S Y
server s
(), )<
> ])<
v en
ser ies
B oolean
fa st
'] [
app ly
se quence
da ys
] =
ON E
permission s
F LA
row ser
sample s
u ch
sum mary
Ġ error
Col le
8 5
b i
i ler
k lass
': ('
ti m
ate s
credenti als
b lob
vis it
quest ion
Bu ffer
P h
Op tions
en able
time delta
MO DE
Desc rip
cate d
v s
g pu
I ter
J ECT
cp u
,], [
di gest
ad ded
po wer
Fa ke
di g
= ('<
co s
St art
> {<
() ):<
ex port
zer o
W N
Co re
Ġ row
ate r
JS ON
W r
h igh
Ġin dex
d ns
d rop
7 0
count s
ti le
Lay out
S ession
" ).
Ġ main
ĠM eta
L ATE
f er
per son
dependen cies
C RE
a mount
f alse
M a
Set t
Ġ op
ol y
en ch
WOR D
TE MP
Const ant
CONFI G
ali zed
STR ING
d ar
=' /
e ction
th resh
err no
sq rt
D ec
constra int
M atch
Ġ print
Bu il
t f
tear Down
i k
st ub
no te
S imple
Par se
Ġ] ))<
4 4
n an
co st
ver s
St op
so me
re ction
target s
AUT H
sh util
mp t
Ġ zip
N UM
com ments
job s
std in
ifi er
prog ress
Ġget attr
resol ve
prior ity
Ġ User
to m
fin al
mon itor
li p
pro ces
St orage
>: ,<
R ange
s ol
AT TR
fin ish
con dition
sup port
un pack
d c
',' -
vi ous
state ment
ta ck
environ ment
avail able
repos itory
t b
si ve
', ),<
m ime
bl ue
Ġ H
de cl
; <
b al
CE SS
ri bu
Fa il
Ġ kwargs
HO ST
v p
Ġsup er
ag ic
O F
,, )<
parti al
ti cal
R ule
ws gi
dec imal
N e
Ġ y
an aly
play er
Ġ text
py test
vi rt
TE XT
() ==
re pe
C S
con sole
in teger
comp lex
Ġc lo
pa re
U SE
'] ,'
( ('
tw o
unit s
s creen
en tries
==" __
N D
Len gth
Ġ] ['
9 9
run ning
match es
__ ":<
G ER
Seriali zer
config uration
Ġ write
ance l
3 3
n am
p ending
u ff
f req
sched ule
co ord
ure d
B in
E M
d raw
>': '<
pre sent
sym metric
g b
RO OT
> }
Ġ delete
'] ))<
f g
P UT
ra m
pair s
7 6
lo aded
ub le
Ġ! ='
U RE
TE D
M y
AD D
PI PE
: %
Ġ form
an ization
k nown
ma g
__ =="__
Bu ild
l on
intern al
ic s
nc y
clean ed
Ġ all
ma chine
ase s
i con
": [
ib le
Ġ child
>' ],<
p retty
li me
b eta
40 4
mp l
Ġs y
', [
Ġ event
B ar
variable s
C l
Wor k
__ ()<
Ġ default
con tact
fa iled
Ġ model
ip s
Pro xy
dest ination
se ss
template s
wh en
le ar
si m
gor ith
role s
5 5
C I
W A
ci i
peri ment
nt ax
and id
" ],<
M agic
valid ation
.. .
se en
me as
edge s
d l
the me
h our
ang le
pre di
ne g
Ġ load
Ġ handle
cl one
Ġtw isted
call able
null able
w here
cen ter
process or
TI ME
( %
ap ter
cry p
i zer
set Up
sched uler
ver b
Parame ter
= ='<
Ġ build
p ad
qui re
se g
Lo ck
De lete
m m
c ut
as cii
>'% (<
c ss
v ector
pri ce
I denti
base string
c rip
ab stract
' ^
Auth or
ur al
tr ig
transl ation
G e
time zone
glob als
b ro
at om
pol l
E num
p g
se gment
S ign
ce ne
Integer Field
SS L
() -
exist ing
> ['
S K
W arning
en sure
ac cept
ref resh
vi sible
wor ld
Ġ format
hel lo
st mt
Ph one
en um
=[ (
ro y
tifi cate
color s
metric s
name d
Data base
U E
re view
h ref
dependen cy
D F
re v
Com ment
s d
S M
Ġ RuntimeError
h older
component s
ro ve
response s
Lay er
fol low
Ġin t
Ġ exc
un ds
8 9
ge o
sy mbol
P ass
change s
Po sition
Ġ val
men sion
O B
ĠHttp Response
": {<
pro mpt
P ack
Do es
LE D
c u
f fi
dig its
n n
Ġ+ )<
Magic Mock
ome try
M igration
v as
Re direct
Ġurl lib
Not Exist
key words
Ġ dict
in v
Ġs k
page s
asy nc
T arget
as set
QUE ST
si tive
ne cted
pos sible
c d
c id
close d
exp ression
A B
O S
Ġ core
3 5
w al
Exten sion
assert Not
al ign
Ġ output
lo ts
th umb
map per
source s
[] .
dist ance
SQ L
ad o
ip v
eff ect
re actor
im um
scrip tion
00 00
Ġ copy
olu tion
>' ).
, ]<
Pro file
mp ty
ty le
M AP
>' :<
Ġ+ ='<
a ff
b est
TEMP LATE
recor ds
comp at
Ġpy test
member s
in line
d le
pre c
Ġ msg
network s
pre vious
] +
D U
R en
- %
work sheet
n b
con d
es ted
listen er
", ),("
base s
e e
Ġ },<
S to
symmetric al
Man y
a ch
Lo ader
Does NotExist
Ġ filename
j a
de s
VAL ID
12 34
pa ce
SI G
Or dered
ust o
LI ST
c us
wh ite
al most
__( *
fixt ures
D ummy
Ġ exception
2 9
be gin
x x
al g
parti tion
, ],<
= __
config ure
min ute
G I
FI FF
vide o
mil y
te am
(" /
Ġ+ ='
trans late
c nt
te gr
function s
wrap ped
Or der
R ow
T Type
bo o
at ing
che my
annot ation
gate way
,, ],<
back up
contain s
Lo cation
Ro le
M at
exec utable
sup ported
C R
fa mily
time r
Ġ utils
unk nown
= *
r ng
, {'
n x
th r
VI CE
scal ar
M enu
Ġ out
if f
l ap
s pe
RE QUEST
7 4
re ply
lice n
Se arch
Sett ings
[ -
d ummy
v ol
pro ps
CO MP
Ġ In
one s
ction ary
Ġ func
me d
ge titem
L D
App lication
Ġ N
S chema
f l
Control ler
Comp onent
if est
usto mer
T ab
Ġno va
, ])<
} '.
add ing
descrip tor
A pi
I f
Un less
Gener ic
ret ri
f h
Po licy
HT ML
A b
cl a
Re gex
gener ic
all close
Po ol
Lo ad
crip t
Ġin stance
per cent
UL L
sub scri
p du
S tyle
Ġ attr
Ġt ask
A DER
w n
(" \
ser ve
de ep
arch ive
Ġ Get
ver t
rec v
7 5
>' })<
C A
g round
Ac count
C LA
L S
s r
deploy ment
c ri
i i
j ust
Ġv is
ge nt
ch art
doc s
Sele ct
ne ed
U ID
thresh old
w atch
Ġ code
Ġ method
meta var
Ġg oogle
r ank
() []<
Ġ' %
w ner
spa ces
'), (
channel s
gorith m
h dr
Ġ process
Ġ tearDown
IT Y
mo te
([ "
L INE
Ġs ql
3 8
Index Error
d p
Ġ token
And Return
Ġre g
st ri
al loc
FI X
Ġ z
] ))<
b g
l n
Ġ err
le arn
manage ment
( {
sc an
i us
Ġ random
A ttr
] .
b order
a a
DE LE
m gr
pla ces
FI EL
pro j
po ch
ba z
Do main
C M
il s
arti cle
sh ift
out h
c ing
Re cord
Ġ" %
a e
pi x
pa gin
Ġ validate
Ġ[] +
w ards
pi pe
M GL
=' ',
, ),<
B ad
CO MM
Ġ tag
IN ST
Ġ[: ])<
De vice
ific ation
P anel
in al
an e
Ġf ind
7 9
X ml
__ ='
Bin ary
Ġs ocket
or iz
is ten
oper ations
Stat s
pla in
Aut o
d ra
h idden
lib rary
ho w
L L
po se
weight s
fi rm
gi str
Ġs orted
Ġ q
S tack
re cur
Per mission
) (
f r
A F
(" -
Inter face
FORM AT
We b
st o
res ses
S up
Ġ action
sub mit
et ree
gre en
ar ange
c mp
and ard
J o
Ġ id
char s
man y
ang ible
li te
tmp dir
O wner
Ġ W
Ġ client
ti ck
pre d
Ġf lask
25 6
CH E
ne igh
En coder
Config uration
H ash
exec ution
C ho
file path
NE T
Ġ assert
> **
l b
s li
Be gin
in ner
ma y
format ter
ro ss
connection s
dest roy
z en
Ġ- <
Arg s
Ġ message
un ch
Ġ string
LE N
F oo
ate gory
Ġ' '<
Uni code
LO W
dist ribu
p m
comp are
ly ph
thr ift
= %
Ġ[] ['
(' _
licen se
code s
Key word
Colle ction
di ms
coun try
end s
Lo cal
nam ic
SER VER
"," --
o ols
Ġ resp
ĠI O
f ri
fi d
mb ed
lay ers
d ash
n ational
res hape
() ),<
6 9
Ġ ch
dir ty
li ke
), '<
Fail ure
P L
u mp
Ġ collections
>' --
c andid
Co un
Ġ[] ,<
to l
pa cket
comp ress
ut h
ax es
>: '
AN GE
ar c
key word
Phone Number
li ties
':' #
AR T
s l
M od
get value
no tify
aggreg ate
q name
Ġ from
Ġ api
2 1
A t
le ge
LO C
CT ION
Re ference
I S
i a
st re
Type s
a ler
di rection
al chemy
cre d
built in
Ġ 1
assertIs Instance
z ation
i de
helper s
Se quence
b t
Ġ current
G R
AN G
F T
ali ases
=_ ("
ut or
activ ity
s ur
te p
ST ATE
g ot
en ter
v r
= ))<
Ġ[ (
is file
sub lime
SC R
se par
fa ces
b ench
Sto re
'), '
h q
Ġ co
Descrip tion
t ar
Ġ opt
con nected
fake s
Ġ status
Ġ doc
in str
D ATE
s pi
meas ure
L isten
bo to
se ek
Time out
Di rect
oriz on
Ġ: '
cy cle
b rowser
g ue
s pect
fun ct
Ġre move
trig ger
UN D
m ul
me mo
Model Admin
Pro vider
al led
Su ite
A ccess
. %
RE D
pi e
Value s
ve c
Ġ group
Ġ Command
pre pare
is dir
O ff
b ig
st one
2 6
ser ved
Ġre verse
ate ri
'] +
By tes
ing le
comp iler
J son
qu an
EX T
de rer
widget s
i v
Ġ post
To ol
rec ip
vi stra
Ordered Dict
b d
__ ='<
_ ):<
Wr apper
cre ment
ĠĠ Ġ
(, ):<
read line
clean up
l ab
thread s
', ,
M ar
b b
) **
f tp
do uble
([ <
di c
E T
ho to
or ds
(_ ('<
data store
() ])<
ac c
, ['
_ ('
Ġ patch
", )<
Ġ V
run time
M ax
ug h
Pass word
: //
Ġ Invalid
Dec imal
norm alize
Ġ errors
ser tion
block s
12 8
Ġ!= :<
eval u
ty p
Format ter
funct ools
set ter
c ancel
Ġ[] ==
ifi ers
s cene
'] =='
f time
>' ],
di o
Oper ation
1 3
os ity
EN D
g id
M in
_ %
TA G
__ ,<
bind ing
PhoneNumber Desc
v struct
), (,,
valid ators
12 3
place holder
=' .
ati o
TYPE S
O UT
li m
it ude
Ġ" .
proces sed
Ġ state
str ings
u x
Ġvis it
number s
recip ient
str ap
re main
(" .
it le
man ifest
) ],<
sel ection
i dent
ast ype
multi ple
A li
cook ies
0 2
P C
UN K
P open
ĠIO Error
u sh
ut down
Ex it
LO CK
org anization
o ci
tr ip
et adata
ste ps
T S
ar m
vo id
defin ition
D ist
s id
ab ility
Ġs ave
PAR AM
Ch annel
A meri
add Callback
SP ACE
Buil der
U rl
Ġ dist
SCR IP
Ġ HTTP
Ġ+ ,
": ,<
we ek
pro b
lo ss
Ġ other
Ameri ca
app ing
p df
Ġ No
in vo
V AR
url parse
Ġ[] ))<
table name
[ '<
Ġ lib
w b
pix el
M IT
str ftime
Trans port
Mat rix
Ġc lean
cor rect
Ġ+ ="
pro te
sign ed
P oly
') ),('
len dar
boo lean
Mem ber
c ustomer
in x
add resses
() ),
L ib
no va
>: "
list s
x path
repe at
g ui
wa ys
er o
ph one
e m
ge om
deep copy
d h
Mo de
' s
ver y
cur r
Pro duct
Contain er
g n
ro zen
H A
W R
ser ial
S ite
>' ),('
do ck
AN Y
Ġs u
spec s
n ess
Wri te
ti al
DELE TE
G RO
i ch
v lan
mo re
ans wer
valid ator
P ub
b la
Ro ot
Ġ command
Ġ hash
File s
Fa iled
CONT ENT
[ ,,
th eta
br l
ti d
rel ative
annot ations
MA GE
Ġsub process
F ont
P r
un ic
d up
neigh b
Ġ send
bo unds
Ġ version
in es
') ]<
CE S
Ed it
chunk s
Ġi mage
con v
and om
can vas
Qt Core
HE ADER
] :<
di sc
Ġs outh
us ing
En viron
verb osity
dle ware
' *
Ġs ource
MA IL
SU B
t ure
late st
U NT
Ġ {'
re duce
ch r
6 0
Ġ view
Ġ[: ,:
struct ure
Ġ TestCase
St atic
MM AL
Ġ opts
',' .
ref s
fail Unless
Ġ query
Lo okup
Ser ies
cur ren
In line
ch an
ul k
Hand le
F older
g s
cen ar
Cl uster
Ġ web
Ġ StringIO
n ested
equal s
ac y
Name s
UR I
colle ct
deli m
e poch
p as
pe er
Tr an
Data Cache
En tity
CH AR
con struct
(,, )<
ro s
De fin
Par ams
Gener ator
Ġ: "
update s
P lan
f w
x s
sign als
"] ["
Ġ results
,' _
project s
d d
gr p
dep s
V T
Re ader
b p
Di alog
imp l
Ġ{ }<
I E
feren ces
fact s
B asic
p adding
SS ION
([ ,,
dis able
char set
M ain
(), '
const ant
t ing
gra de
serv ation
ta ke
Ġ[] []
Cho ice
M etadata
Re port
Var Int
{} ),<
8 8
M T
r up
Ġ params
co v
St ub
>'% <
ac ity
FLA GS
V ector
C C
if orm
), "
DateTime Field
g a
M is
V M
'] []
Wid th
Fe ature
en c
>% (
A gent
S ocket
Ġin fo
scrip ts
fi re
backend s
m q
spec ial
case s
po inter
', ),('
AC HE
ex tr
Co mple
mon go
qui red
Bo ok
,[ ])<
Ed ge
Ġ old
select or
tiv ity
50 9
form set
recei ved
sub mission
Ġ X
ro ugh
index es
cat alog
'] ='<
float ing
" \
Ġ[] :<
D eta
Run ner
serializer s
B R
get ter
'] ==
bot tom
E mail
O D
m c
m time
TI M
U I
"] :<
Pack age
7 7
Ġ next
g c
Exp ression
notifi cation
b ed
p in
ad apter
ins pect
M on
e v
work space
dition al
ph inx
are a
Ġ target
co ords
ing er
ad cast
Con stra
document s
Ġ Un
up s
b and
Tr a
NO DE
Boolean Field
Ġ- =<
sp an
r hs
2 3
k a
- :<
r ing
pl us
* .
Ġ sh
pro gram
local host
OP TION
n args
ex periment
di mension
sen try
=' \
config s
N orm
Ġ count
') ))<
C LI
Ġ show
re dis
D river
12 7
>'+ <
Environ ment
C UR
lic it
app engine
s la
rad ius
uff le
n ado
ad v
ac quire
tes ter
ld ap
PO INTER
Ġclo se
mp u
(" --
Ġc md
PE N
Text Field
k ill
ME TH
Ġ generate
Ġf n
Ġ/ /
star ted
D el
ex act
sub scription
iter able
MA IN
)+ <
sig ma
Ġ exceptions
ol l
) [:
> =
as array
Ġ[] =='
route s
Listen er
N ULL
an on
ĠO S
', ['
Ġ {<
ter ms
parent s
Co ok
PA SS
comple ted
OF P
Ġcore hq
al gorithm
er ies
migr ation
si z
>: '<
c ar
p w
>' ),('<
',' ')<
T angible
__ ))<
OR Y
b ra
ATTR I
cl u
T op
li ve
Re gistr
(, '<
option al
Hel per
,,,,,,,,,,,,,,,,,,,,,,,,,,,,,,,,,,,,,,,,,,,,,,,,,,,,,,,,,,,,,,,, ,,,,,,,,,,,,,,,,,,,,,,,,,,,,,,,,,,,,,,,,,,,,,,,,,,,,,,,,,,,,,,,,
(,),(,),(,),(,), (,),(,),(,),(,),
wal k
init y
>[ '<
PRE FIX
meri c
Wri ter
and as
I F
mo use
po w
Data Frame
co pi
arg parse
Ġ+ '.
Clo ud
n dim
boot strap
B ER
V Struct
Ġ col
Back end
ub e
COL OR
Ġ filter
Ġ theano
>',[], {}),<
er red
KE N
>', ),<
Ar ti
sec ure
C ACHE
s ame
WOR K
e gg
pro x
Per son
SO UR
6 6
r atio
pro ble
fig ure
I MAGE
w t
rand int
W AR
ti c
ch dir
Re cei
mp ro
res ize
l st
mb ols
pe t
pro du
pre dict
cenar io
e ded
Ġ job
dis cover
relation ship
AN CE
gor ies
l if
top o
C F
G P
Pa rent
T itle
>') %
in c
for ward
tra ct
" "<
C er
comp ati
"] .
M sg
tra it
Fun c
at temp
ON G
Ġ[- ]<
': _
Ġ] *
Ġ* (
ale ct
cid r
Constra int
s parse
', )
di ag
De p
to day
client s
l write
if ace
H as
Attribute s
Trans form
Ġin it
in der
on s
di rec
',' /
Ġ num
parser s
lob al
ct rl
format s
return s
obj s
2 7
EO UT
enco der
quo ta
ver age
activ ate
RE S
M AL
Ġ template
kw ds
Ġs a
ER Y
Name d
,_ =
Util s
D A
f ul
split lines
stri ct
r r
vis or
k s
m g
do m
SH A
cor o
cy box
cry pt
g am
sha re
ĠM igration
ab i
ti cket
Ġ date
Ġ {}
expi res
f rozen
lo pen
ate gy
no tes
list dir
Ġin put
() )
E mpty
Ġc lear
de ri
al th
ul ation
PRO TO
Ġs alt
CH O
C ustom
Ġ IndexError
>': {'
ST O
process ing
Ġ>= :<
Py thon
Ġ 2
ex e
,],[ ,],[
Ġ[' _
per form
TA BLE
C or
ro om
go od
wh at
Con s
limit s
B E
k ip
Tr ack
write Field
mo ves
h int
t cp
ĠS er
FIEL D
work book
Ġ Ex
Ġ ValidationError
>' -
ik i
( ','
( {"
N ING
P ick
T CP
in ja
Ġx ml
sa ved
Ġ mode
Ġsql alchemy
ĠOS Error
CO M
encode d
C lean
r df
ST ART
flat ten
Ġ module
si a
spa wn
T i
ro ke
Ra w
Ġ max
E C
di a
aut os
Protocol Buffer
y es
Ġ Con
Gr id
De bug
iter ator
': (
L Y
'] ,)<
al ready
vi m
ME DI
PRO JECT
Z ero
Ġ port
hook s
8 7
GRO UP
cal ler
Node s
Content Type
c url
IN VALID
CO UNT
TIM EOUT
tr un
me sh
av g
CLA SS
Off set
C ategory
Ġ call
Ġ server
comp o
http s
cip her
l r
back ground
inter p
M apping
} ".
Ġ gen
=[ ]
>[ ,,],<
I tems
find all
Config ured
cl f
ol ver
log s
siz es
mp f
rst rip
Is A
On ly
finish ed
with out
') ),<
A x
l v
c ross
Cook ie
k it
ur lopen
it ter
Ġsetup tools
X brl
j id
s lots
Ġre cord
Ab stract
co ding
a cl
li ck
4 9
S um
s ted
,' __
dis abled
Direct ory
r gb
F low
ce ler
loc ations
seriali zed
C ap
S ig
op y
BU TE
desc r
Ġ ')<
T uple
Ġ content
', ))<
log y
make dirs
L a
S ingle
Ġi tems
cli p
F S
',' _
Result s
: -
Ġiter tools
E MAIL
SER VICE
ATTRI BUTE
t c
er ge
ci sion
Iter ation
Ġ end
Coun ter
5 4
() =='
co pe
{} ,
tifi cation
Ġ mod
se ctions
mk dir
= ),<
u ses
Ġ session
Ġ root
bal ance
f reque
RE C
ME SS
enti ties
Ġ values
assertIs Not
DATA BASE
ab ort
wr it
la unch
sy n
p ng
Ġ parent
form ation
Ġtest s
dis connect
VE NT
z z
') ])<
Def erred
c lock
k g
Ġ dir
MESS AGE
d ri
p x
dh cp
l hs
ch ron
check s
FI L
virt ual
assertNot Equal
Ġ stop
un der
le g
ele ction
LO AD
distribu tion
B Y
e f
Ġ http
co eff
A sia
S UP
t k
le s
full name
d x
j or
p ress
volume s
cre ator
real m
Reg ion
Ġ host
cer tificate
ms a
. *
_ =<
i rc
t in
tx n
0 6
w all
':' ',<
Ġi ss
'] =<
ha ve
resol ver
vt k
calc ulate
U UID
Ġ warnings
) &
se titem
Ġ (
Ġ param
sub class
IG HT
wh ich
ateri als
SOUR CE
( ,,,,
o id
de mo
([ (
work ers
! ='
l p
m ix
Ġ lines
si an
G B
r x
Ġp age
Ġ+' /
( [],
h ar
re a
de g
Ke ys
Ġu gettext
min ion
Ġf rame
ati st
() ).
tt l
B AD
i lo
Ġ entry
Ġin iti
is tered
'), )<
En gine
sertion Error
I VE
g ments
separ ator
p v
defin ed
Argument Parser
predi cate
remain ing
b as
re load
Struct ure
mpro per
ST ER
par a
Ġb lock
sm art
C D
F lavor
sy mbols
f lo
class ifiers
fail ures
Hel p
Ġ option
Ġno se
Fe ed
b ulk
m ic
Ġ idx
len code
fo cus
Par am
level s
aler t
filename s
En abled
ur lencode
ex og
all back
Clo se
Ġ gr
tr i
frame s
B S
st ride
sh utdown
Mem ory
V olume
in crement
su c
fra gment
Ġ env
Ġ Config
ly Configured
ĠT emp
orizon tal
mproper lyConfigured
op tim
frame work
An y
)!= :<
e cho
ti ces
di vision
do g
line ar
METH OD
ce l
sh ard
comm unic
NO WN
Wor ker
rup t
G TH
g uid
or ient
al go
com b
P os
Ġ size
credenti al
C ell
track s
6 5
Ġ connection
De pen
MP LE
decor ator
Ġ File
con firm
of proto
depen dent
O L
w w
name spaces
ul a
AC TION
)) ))<
window s
decor ators
utc now
Ġ mo
Ġ[: ],
Sy mbol
da e
n or
or ary
st andard
pre p
AT OR
sco res
CHO I
Ġ util
temp dir
CE P
Child ren
V is
a z
we ak
LO B
g lyph
s rv
ac ter
sq lite
ĠP er
lic ate
Ġt uple
Cur rent
DE X
direct or
ad ing
tra its
LEN GTH
Ġ min
sc r
ca lendar
re name
inter net
)) +
R andom
Ġ Name
Ġin st
file no
fil tered
- )<
b box
f type
spe ed
Ġreg ister
Ġ last
al ler
ti p
di alog
mt ree
attach ment
S ched
s cenario
me ter
can on
Exec ution
callback s
QU ERY
ntax Error
ke t
defer red
Ġ el
in p
un til
ĠS et
P ay
lo ur
si tions
fore ign
L P
us ters
Bo ol
Defin ition
Ġ object
DE F
>[ ,,,,
ĠP y
bound ary
al le
get cwd
T er
Ġ[: ,
L im
P RI
R C
c n
AR Y
hy per
P at
ro ut
'] ),<
subscri be
n ative
t m
IN DEX
di alect
(, ),<
BU IL
non ce
grad ient
on d
plot lib
thumb na
at t
un link
ul ator
Ġin ter
inter faces
C md
Ġ ctx
pl ural
>': ,<
candid ate
> {
p hoto
coord in
fl ash
t rove
al ways
arg in
O ver
c ity
li ct
DO MAIN
ge ometry
abi lities
device s
inger print
L IN
a ws
c rop
', {'
=' '):<
') ):<
Oper ator
liter al
tz info
b um
LI C
> {"
t d
Ġ tempfile
mat plotlib
AC CESS
cate gories
e mbed
sen sor
Ġ execute
def ine
Ġf e
region s
assertIs None
I Z
R T
ap pe
E VENT
P ACK
Ġ fields
ob ar
': })<
ĠA s
)] =
> +
OB JECT
) }<
N AL
':[ <
ct l
ri be
dae mon
Ġ table
RE CT
/ ')<
Ġ use
remo ved
= ("
com bin
ten ce
super user
Http Request
Fe atures
RE G
= ),
Ġ local
an cer
': }
Lo gin
=[' _
TO KEN
Or g
initi alize
m as
cre ation
uni on
extr as
5 7
W IN
Ġ any
Ġ return
Ġ Error
ma jor
la ce
Ġ: ]<
minute s
UNK NOWN
Ġ K
Ġ Data
or dered
ar ge
(' ')<
um an
qui et
au dio
c ations
r mtree
or ph
00 0
authenti cated
I ST
U D
Di ctionary
Un it
Stop Iteration
al len
": {"
Ġ- =
LA Y
recei ve
Tran saction
ex change
,,, ],<
g on
read only
19 2
msg s
R UN
w i
Ġre direct
o uter
} ',
ge vent
late x
Ġf lag
Auth enti
delim iter
S end
ys ql
wrap s
He ight
publish ed
sin ce
compati ble
hour s
: ]<
U sed
S ITE
Ġ cache
po six
copi a
FA IL
Ver ify
Identi fier
s ms
g u
re present
([ [
Multi ple
W h
y mo
Op t
Ġfor ms
Ġ[:- ]<
Binary Protocol
( +
B ind
Hel lo
h n
ort h
Ġ[] -
Cur sor
evalu ate
D en
he alth
lex er
) %
G re
u ation
Fi xt
N u
([ ])<
Ġb e
p us
Ġ threading
cl usters
S pace
u ro
Ġ Request
ar is
=[ ,,
cre ds
conver ter
Ġ files
re store
ti t
date s
resol vers
need s
n r
curren cy
Ġ conn
si zer
vp n
bu ff
Contain s
Ġ "<
in ct
me th
': }<
arg types
In sert
so ft
Ġrequest s
hi de
in file
Re quired
Ed itor
AR D
ĠI mage
gam ma
Ġ- )<
d ry
fin der
I mport
mo b
to t
to ur
VAL UE
Ġe val
APP S
Flag s
quan tity
f k
Lo op
Ġpy py
Parame ters
Rel ated
cryp to
ĠA pp
, ('
m ut
Ġ keys
') +
da o
mi tive
edit able
ymo us
un iform
spa m
Ar ch
AD MIN
": ,"
blue print
2 8
M aterials
le nt
Ġin spect
ry p
Ex pr
AT CH
mime type
CHE CK
MEDI A
_ '+
un e
cmd line
N ull
R est
Ġ] =<
dy namic
Ge ometry
) ],
N on
P S
dash board
Ġdist utils
h op
l m
ten v
Key Error
Ġurl parse
SY S
Ġsy mpy
a i
ap sed
url patterns
ith ub
r ation
Ġi o
) ['
w ise
work ing
Ġde cor
Recei ved
Ġ expected
fo obar
MS G
P AGE
ac cep
Point s
Ġ column
>' ),("
SE CRE
anch or
log ical
authenti cate
fast binary
0 3
th rough
=[ ],
node list
su do
SCRIP T
st or
O PEN
author ized
" }
'), ('<
sm tp
roll back
bt n
M AN
T BinaryProtocol
le af
bro adcast
0 4
id ge
Ġ] []
In iti
State ment
CRE ATE
B ACK
Validation Test
v c
one y
od y
Ġre f
Ġ parser
put VarInt
h r
end or
loc ator
ci py
Norm al
B IN
Con n
man ual
disk s
$ ',
R ect
S cript
Ġ[ <
ali ve
check sum
Up load
z k
Ġ< <
ER S
Con f
trans fer
vo te
LOG GER
Ro ute
F C
ch rom
(' __
ec tive
FIL TER
SECRE T
n ick
AC TI
PASS WORD
U s
b old
inst alled
cu da
L ex
Ġ found
S a
[ <
={ '<
Attribute Error
factor ies
ti mi
qu it
dict s
' "
C opy
Arti cle
s phinx
Ġs pec
ten d
('/ ')<
SC A
W E
Re play
ron g
vistra il
timi zer
( (,
Ġ headers
co me
PO INT
e ve
un used
up grade
Ġg lob
)+ "
MP TY
o om
tra j
check ed
( ':'
f ron
ra se
RE QU
over write
- <
Ġ functools
no m
pos itory
, ):<
I AL
NAME SPACE
) []
for um
ĠA r
F N
T e
RE SS
open er
ĠTemp late
b ility
x c
Ġ uuid
in tegr
ci pe
CHOI CES
at ar
ro u
In st
LOC AL
* <
> -
N ONE
b ill
ret val
__ ==
>_ ('<
ĠM y
By te
Query set
B IT
W a
() ==<
Dis k
pagin ator
l ing
Ġ network
C an
si red
Ġ" ""<
Ġ mark
e ol
s am
Ġ Element
De pre
Dis play
n l
>' }<
', ,,
bu s
ha vi
/ ',
m ysql
map s
cm ds
Ġs cipy
ag o
String Field
Ġ+" /
4 5
v ing
STAT IC
B it
D NA
se m
at ype
Ren der
in place
j ar
x p
M erge
str ategy
position al
Ġ! ="
MODE L
Re mote
Header s
autos pec
qu eries
Pat tern
N OR
t v
ab stra
Process or
built ins
Registr y
S lice
Ġ math
li text
Ax is
Ġ Q
Ġ back
or o
no ise
g h
el apsed
eta g
sw ap
abstract method
S ha
Ġ auth
default dict
Ġre q
va il
tran sition
Al most
rest ype
Line ar
Ġsk learn
=_ ('
pay ment
7 8
> *
Error s
RE MO
ud it
An not
S w
c ator
g p
p an
allen ge
Replay All
l c
Ġ verbose
atist ics
col l
Proper ties
) |
c map
f lask
al bum
S how
f u
RE F
AC T
16 8
recur sive
M AC
Ġ compute
ver tical
Pre fix
lege nd
r d
lin alg
f ingerprint
Ġi p
def s
Fi x
Almost Equal
Ġt op
CH ANGE
NUM BER
RE NT
spa cing
CON NE
Gener ate
Tab ular
D WORD
R ad
sc a
ff t
jo int
range s
TR AN
dataset s
Ġ comp
Ġ common
sta ff
G lobal
To Many
Un known
ad j
Ġos lo
req s
rout ing
ge ne
ob s
vi p
of t
vari ant
n w
Ġ with
Ġ shutil
"," ")<
cell s
Depen den
A IN
e per
h its
s lot
func s
>[ "
FLA G
m r
([ ('
constraint s
u ted
de ad
check er
Ġfor ce
DO WN
1234 56
retri es
patch er
track er
a w
': {
LE VE
Name space
DI RECT
t bl
Ġdi vision
Author ization
assertIsNot None
B ody
r val
ame ra
__ =['
() [:
provider s
topic s
prote ction
ar k
To ols
B r
M id
Ġ types
Ġ StopIteration
has attr
ME M
AL LED
)> =
Window s
H AND
P R
s qu
Ġre st
Model Form
Po sitive
Ver tex
registr ation
mic ro
C U
domain s
A ctor
Ġ debug
Ġ[ ,]
open stack
Ġ<= :<
) ),('<
de sign
le arning
fo ot
net loc
copy right
sp litext
Queryset Equal
A BLE
Ġ exp
ro bot
ob server
=( (
profile r
hex digest
i ed
de te
Field s
INST ALLED
format ted
Ġ: (
WR ITE
Ġ wrapper
', ,-
ap pro
pop ulate
bin s
C LO
', (
Pro du
ME TA
IT H
pro vide
mis c
recei ver
L ANG
Ġ first
de coder
>' ,,
sub st
ll type
exten ded
End point
in her
=( ('
Jo in
Fixt ure
Ġ raw
di ctionary
assert QuerysetEqual
Re move
ali zer
ph i
)) ]<
cer ts
tear down
I M
g z
n at
Ġ simple
>') ),<
FA KE
publish er
(, "
short cut
Lex er
b j
p ts
Ġ tr
Ġarg parse
U B
o und
us r
Trans l
mag ic
aris on
f allback
w iki
Ġ admin
Ġ neutron
vi si
connect or
READ ME
N C
O ri
S tep
o pe
Ġ header
Ġ elem
de pre
Ġp ub
KE T
neighb ors
dimension s
f c
n ic
re servation
'] ),
Ġ] )
uro pe
L ast
Fi rst
(( ,,
FILE S
n i
add on
sis tent
([ '<
) ,,
0 5
Ġ class
Ġ body
pass wd
T he
sh uffle
Vi rt
author s
M ID
M ULT
Ġ ne
A sync
Ġ map
pat ial
able s
"," -
hel l
ĠB ad
w k
Ġ element
in o
sub type
Add r
.. /
Su ccess
REQU I
9 6
g nore
d m
v g
lif e
" ),("
M AR
S ample
Ġ search
=' +
join ed
gi ven
"" "<
Ġ Response
st age
err y
vo tes
,- ,-
x form
ap er
',' ','
>', (
log ged
Us age
url resolvers
may be
Sub Element
Valid ator
en cryp
set Level
key stone
Ġ struct
proble m
V A
i ted
ST Y
UN I
FF ER
migr ate
Ġ boto
we et
dock er
T w
', "
Se ction
proces ses
decl ar
' t
= )),('
Ġ% (
bla ck
__ ="
cre te
iso de
Cer tificate
B atch
F ind
V O
u me
Ġ pos
qu ot
RE SP
Ġt or
Me tric
, {})<
py copia
Ġ callable
Ġ+ (
per ms
require ments
F RA
se cs
ass oci
'] ]<
Request Handler
cp us
Ġ+' \
C L
b all
Ġ resource
min e
gener al
cap ture
'][] ['
freque ncy
: ',
] ),
s ity
Ġ ',
I p
de serialize
no red
Ġ+ ".
De code
spi der
* (
_ ))<
g ress
Ġ project
de sired
W B
d w
ma ker
Time stamp
cla use
'] ):<
com ing
fe at
lav ors
notifi er
Pick le
p li
si tes
vi lege
Ġ' \
SE S
ĠS imple
wa ve
shape s
communic ate
E urope
M D
T L
m ust
n y
ren derer
Request Context
sw ift
scope s
P i
Option Parser
Descrip tor
c ron
Ex tra
ag ing
C LU
at ol
Com mit
LI MIT
desc ribe
) })<
Ġ matplotlib
ĠC re
author ize
assign ment
Ġ var
Ġ label
Mo ve
Function Table
F UN
I R
l ue
v endor
ad ditional
rand n
S cal
Ġ rule
te e
di git
Ġre set
':[ '<
Ti mer
H y
ar ies
() :
(, -
TH ON
subnet s
LIN K
C ER
ad ap
res sed
max imum
reg istered
No tification
(,, ))<
Rel ation
P ipeline
S PE
={ }
ĠM GL
ĠMGL FunctionTable
>' }
ĠC lient
bs d
A ME
S m
re il
ab out
mark s
sm all
Bad Request
tmp l
EN G
j ac
ct ure
cs rf
mon key
14 2
Option al
4 6
N ext
m utable
Ġ service
DE D
Ġe mail
permission Group
protection Level
Ġ link
SE LE
b log
)+ '
Cre denti
O FF
s f
ce ed
code c
gener ated
= ).
par k
Ġ] ):<
p print
=' \\
Ġre l
Ġopen stack
arti fact
Deta il
)< :<
id le
10 24
Ac tivity
vari ance
R Y
b ob
j ax
IN IT
al f
scrip tions
termin al
/ '+
> :<
I con
S n
W ord
Ġ Mock
BU FFER
Sup ported
i ms
ra g
str u
[- ]<
Depre cation
b io
w as
as m
nd array
Ġn orm
Buil tin
gue st
adv ance
E NA
P layer
assert AlmostEqual
Ġf type
match ed
be at
example s
Pr int
Z ip
a red
or ation
match ing
ĠI mproperlyConfigured
_ ('<
he el
ph y
SS H
Exist s
l strip
Ġ traceback
SE SSION
Ġ[-] .
Ali gn
pixel s
Tr ace
SY ST
I LED
Tr ain
ra ys
path name
Ġ] ==
min imum
Wa it
a verage
h orizontal
ad just
resol ved
HE AD
E MPTY
G en
I ds
str s
po t
Ġ[] ]<
ca de
L ang
T rove
y namic
Con tact
sla ve
STY LE
b c
contain ers
stub s
. ')<
9 5
R PC
f ault
mp ath
', _('
=[ ("
Ġ[] ),
doc string
ph rase
colle ctor
sn ip
stre ams
C ard
S en
j am
j ava
il y
pri mitive
ĠA uth
frozen set
thumbna il
u do
V P
re start
ĠHttpResponse Redirect
h d
Do ck
Owner Id
h df
Ġ handler
ST OP
log file
real path
neg ative
Ġiss ub
LEVE L
I mp
S li
Ġ color
UT F
in ject
read lines
COMM AND
ENG INE
F E
sub s
,: ,:
atom ic
U cs
n id
co uch
po ols
ĠP Y
dat ap
Ġ cur
In it
ry pt
Ġm ulti
op acity
pro f
>': "
annot ate
] ),<
Ġ ext
ĠS chema
No te
Sele ction
WS GI
w p
and box
Http Response
' '<
g ithub
account s
Deprecation Warning
4 2
W H
{ :
Ġ platform
DE VICE
ar ity
exp an
bal ancer
, __
g oogle
r p
set Text
Ch ain
Inter rupt
cover age
M es
el f
file obj
gr ant
PO M
P art
c as
return code
B UT
C annot
res olution
meta class
er ce
', ('
min or
identi fi
B rowser
s z
us ted
den ce
Ġ[: ,]
Ad apter
ADD R
ĠAs sertionError
Ġissub class
] *
c x
Ġ select
Ġ bool
dri ve
Ġtor nado
R U
Ġ char
inter pol
MO DU
expi ration
ToMany Field
C al
K er
cp p
dif ference
reque sted
seg ments
fri end
= ()<
> ],
Ġs um
dif fs
Clean up
Ġgr r
/ <
> },
r tol
in dependent
Ġf in
lic ies
Ġpy thon
Fun ctions
g is
th ree
po sitions
>" %
head ing
gg reg
E W
ta x
= =[
f b
p ings
t re
Ġc ase
Ġ[:] :<
),(,, ),(,,
Lib rary
T ING
Ġ convert
', []
kw arg
ph ase
post s
construct or
SYST EM
t l
u a
Ġ title
se udo
R GB
e ach
k en
session s
= ',
code name
sy ntax
dat as
cri tical
pie ces
Main Window
S cope
Ġ foo
me s
Ġs pace
ACTI VE
MODU LE
c name
Ġ stats
Pro p
ĠS e
bind ings
termin ate
O Auth
c atch
h uman
pr inter
Config Parser
EX P
Ġsk ip
F in
X Y
comple tion
Change d
deri v
Ġ Model
ch at
Ġi mp
si cal
style s
vt Type
OPTION S
RES ULT
j ump
y cle
co lour
th en
sa mp
iz ard
fs m
analy sis
Auto Field
Pub lish
Ġhash lib
H ist
P ID
Ġ pickle
pre cision
sub set
Ch unk
mod name
ath er
BLE D
override s
Mis sing
p ur
Ġ] =(
make One
Ġ[] ):<
={ },
SU C
asset te
Ren derer
arc py
N ER
c si
h ot
log out
ali zation
Se curity
train ing
alle l
: ",
j it
m argin
Ġ prefix
=" /
S cale
Ġ J
>' ),(
sc roll
DI S
endpoint s
NOR MAL
te ll
=' '.
lock ed
iter values
og ram
ĠĠ ĠĠ
, {<
D iff
Ġ conf
Con su
R ANGE
model Xbrl
>'] .
Fa ce
Ġ| =
para graph
x l
Ġp kg
CM D
Lim it
S hape
v pc
check out
view er
LI B
q t
hash es
dist inct
NE W
n m
ffi ci
>' _
ren dered
rot ation
serv able
p q
Ġ ",
Ġ chunk
':' ','
Re lease
report s
Sy ntaxError
) ._
, []
C B
z mq
Ġ Resource
E rr
b am
F LO
e vt
u gettext
key pair
ĠS y
ir d
D ele
S IT
q n
al tern
STR E
import s
AL LOW
dele gate
Test Suite
su g
exec utor
Virt ual
Ġ names
re map
iter ations
E val
e ar
m f
to uch
port al
') =='
hash lib
FO UND
expand user
( ':
t up
STR U
er arch
ch allenge
si c
comm its
'), (,'
bro ker
an ti
)/ <
bi as
Org anization
s mo
xml ns
Create Model
( (,))<
D L
S W
b el
o v
Ġ valid
offset s
Ġ ))<
do es
ca ch
Ġor der
G IN
Ġ change
in to
__ (<
tr al
un ce
si st
Content s
high light
( (,),
I ES
card inal
: :
Ro uter
U AGE
f old
v if
dis count
(), "
Di mension
nu meric
Ġ/ <
Ac tive
('. ')<
An aly
Iter ator
cri ter
z oom
Ġ 0
op timizer
pa let
FA ILED
an a
key name
fact ors
Valid ate
INE T
)- <
A p
Ġ nodes
Mo ved
Ġf loat
Ġ" "<
Ġr v
mac ro
CLI ENT
) )==
_ ='
it ation
Ġc ap
Sele ctor
arti st
i log
Ġ array
mod ify
parti tions
S ome
S CHE
s ter
ce il
(), '<
compile d
initi alized
cap abilities
manage d
S kip
un do
he art
>_ ,
vistra ils
i py
os s
po licies
block ing
Class ifier
imp orter
dispatch er
rep orter
= **
ate way
Ġc fg
Ġor ig
ryp to
c df
pro d
Pro gram
iter al
OUT PUT
topo logy
i mat
ist ic
inter active
Ġt mp
LANG UAGE
P op
f ter
x f
co in
In formation
Ho ok
h p
t ls
al ter
pre serve
') ).
play ers
Object s
Mid dleware
5 00
Ġ exists
IN PUT
=( ,,
author ization
DO M
) '%(
B L
S plit
clo sure
root s
mem cache
product s
IG N
USER NAME
PAR AME
P lace
d temp
Ġf p
LE FT
dis p
Set up
bg p
A WS
D a
Ġ Comp
>' ),)<
"," .
ep s
activ ation
BY TE
4 8
N V
Ġ word
=[ [
im ate
gg le
STRE AM
PARAME TER
F etch
y te
Ġ },
=' ',<
board Interrupt
mid dleware
g ray
h w
Ġ+ ]
stat uses
ĠM e
{} ).
br idge
rot ate
Wor ld
WAR NING
F n
O ther
b at
>' /
mp a
(' #
LA B
" )==
[ %
o u
Ġ it
ce nd
di tions
cen tile
x link
ad ow
Ġp op
gue ss
i tions
lin ux
Type d
candid ates
instr ument
FRA ME
P T
ata ble
pa use
(" <
trans for
[ ],<
mp p
Ex periment
uni x
Ma ke
ffici ent
E VT
P e
Re pository
Ġp andas
let ter
sv n
assertNot In
Sched uler
N R
Ġ Object
se mb
str p
AL I
En v
assertRaises Regex
Sy nc
sto ck
Ġdecor ator
G it
w ell
con ti
Ġ- ,
IG NO
v env
Ġ callback
st and
Con v
Pro to
PE ND
dep ends
ri s
is csi
": ["
Ġ: '<
Ġd iff
seriali zation
abstra ction
5 3
si lon
Con sole
new line
CO OK
RESP ON
B AC
d al
r sync
in et
(' ',
OR D
Par tial
dat atype
Que st
clu sive
Cannot Contain
independent Data
f graph
g zip
z ure
ro id
return ed
Query Set
Pa ir
orient ation
provide s
Ġ wait
lo pe
ver tices
Ġ+ [
,' ')<
Ġ[] *
AR CH
':[ ],<
sn ap
P ow
T OP
Ġ part
pk t
(- )<
Callback s
deg ree
0 8
Ġ graph
res id
map pings
process ors
IO Error
(- ,
Stub Out
shortcut s
w rong
in verse
ur is
he ap
() ['
context s
char acter
plan ation
E P
P K
T ON
Ġ extra
Ġd f
be havi
tran sa
jam as
L ines
P H
scal ing
WIN DO
Ġ stream
in ds
IN D
en dog
ic ago
Ġre pr
Quest ion
pre pa
Ġb ar
CT L
PRO CESS
listen ers
4 7
h ard
ct r
Ġs rc
ig nored
Ex ternal
B LOCK
h it
s an
Ġ 3
ro py
Ch icago
Ġapp ly
tick s
D one
V o
DE N
ect ors
sh p
Data set
HTTP Error
Qu o
Colle ctor
A NT
c ms
f lip
v l
Ġ cursor
Ġ entity
test dir
Ġs m
title s
Inter val
Identi ty
) ),(
p ull
Ġ my
Ġ expr
ut ation
Tag s
flo or
C KET
Z Z
c assette
Ġ timeout
st ation
put ln
With Mock
(,),(,),(,),(,),(,),(,),(,),(,), (,),(,),(,),(,),(,),(,),(,),(,),
X M
g res
ON LY
Le ft
ship ping
Ġ encode
par ty
bo th
('. ')
anon ymous
StubOut WithMock
/ '<
U se
Ġ Node
': },<
pl oration
Se gment
lat itude
measure ments
ATTRIBUTE S
> )<
r ating
as sets
go al
retri eve
attemp t
cardinal ity
" }<
Ch art
':"' '",'
WA IT
Sign al
Many ToManyField
disc ard
t abs
w ar
add Widget
OR IZ
pri vilege
Mar k
' '
F ree
h ass
Ġ function
skip If
TA SK
WB EM
SUC CESS
b an
m ixin
field name
trans lated
SO CK
av atar
RA Y
ra vel
parent Obj
Ġfor wards
book s
Sign ature
nor mpath
in el
de que
us sian
=" ",
long itude
regex p
As sign
neighb or
Dep loy
Ġback wards
Ucs Factory
vail able
Q Q
S L
S ave
v id
Ġin clude
ot al
vent ory
Ġb in
second ary
CONT RO
Ma chine
trun cate
5 9
Ġ join
In tegr
INT E
)/ (
Enum Value
Arch ive
a il
Ġ operator
RE TR
CO RE
Ġ" ""
p open
Ġ world
ct xt
form ula
),(' _
SO L
period s
F ull
M ix
nu mer
mk dtemp
depre cated
M ask
i um
mp i
RO M
Log ging
>'] :<
Al low
har a
S izer
Ġ at
an no
ation Error
Reg ister
La zy
N U
r w
no op
ra in
() /
Ġ[] []<
RE GE
SET TING
pre ter
token ize
En code
lat form
gt k
instr u
Bytes IO
canon ical
D T
Ġ en
Ġ plugin
Ġ connect
Ġ Event
Pro gress
Ġt ree
Ġ], [
expi re
Work flow
white space
Owner Account
comb ine
weak ref
Authenti cation
5 8
D jango
i ct
Ġ List
Ġ meta
mm al
> >
A G
o vr
t un
Ġ #
Ġ the
', {})<
ol low
sha ke
Group s
acc um
C lick
f ds
con tract
(' "
Ġ+ =[
ĠS ub
exp licit
F lask
j inja
out ine
Ġf ull
Co ord
inf os
eff s
Lang uage
. ")<
S V
per centile
ĠO per
named tuple
produ cer
a vi
un ct
up stream
Ġ] ]<
ff e
Ġf etch
NET WORK
DataCache Dictionary
Mon itor
attemp ts
B ro
con s
si lent
mo ved
Not Supported
recor der
L in
S p
c ards
f lavors
w ho
Ġ ")<
al arm
co erce
Ġin to
() []
ten cy
>[ ,],<
io type
queue s
tool bar
attach ments
FIEL DS
,,,,,,,,,,,,,,,,,,,,,,,,,,,,,,,,,,,,,,,,,,,,,,,,,,,,,,,,,,,,,,,,,,,,,,,,,,,,,,,,,,,,,,,,,,,,,,,,,,,,,,,,,,,,,,,,,,,,,,,,,,,,,,,, ,,,,,,,,,,,,,,,,,,,,,,,,,,,,,,,,,,,,,,,,,,,,,,,,,,,,,,,,,,,,,,,,,,,,,,,,,,,,,,,,,,,,,,,,,,,,,,,,,,,,,,,,,,,,,,,,,,,,,,,,,,,,,,,,
w heel
Ġ net
Ġ login
se ct
dra ft
writ ten
C ALL
O M
P ush
el t
add Cleanup
cor pus
cv s
leg acy
C V
Re p
inf ra
B undle
n ed
mo vi
== -:<
sen tence
over lap
Pri ce
) ;<
S Cons
W ID
RE EN
order s
render ing
strp time
S c
S can
Ġ commit
pe ek
li o
Com mon
sen ce
From String
language s
Ġex port
S pa
Ġ \
ex planation
Test Model
RE Q
ĠT h
notifi cations
WA RE
erry py
L iteral
Con ver
>[ ,,
=- ,
Ac cept
REGE X
" })<
H ER
qual ity
() *
Not Implemented
decode d
peri ments
trip le
Consu mer
r split
=' *
De coder
AR G
fin alize
non zero
Sh ort
RESPON SE
Ġ attrs
ar row
lo ok
ad s
,,,,,,,, ,,,,
AC L
Bu cket
analy zer
) ',
l as
') :
Temp orary
b idden
Ġ cell
fa sta
const s
' m
A rea
sel ine
in DataCacheDictionary
In f
mode s
Object Property
Parse Error
S SES
[ ('
ST OR
', _
Ġ] []<
node Name
St andard
Ġ* )<
)== )<
Se q
attrib Xml
transa ctions
Ġ' '.
Co effs
ref le
Ġk ind
EX IST
merge d
gy p
heart beat
Ġ prop
in i
ke eper
che me
BUT TON
( ('<
6 8
>'+ '<
consu me
comple tions
b on
g au
l it
Ġ stat
re cipe
,' -
config ur
lib s
rad ar
percent age
STO RE
FLO AT
D est
T en
Ġ fake
Ġ chain
in Coeffs
ri c
do or
Ġ[] [],
iter ation
Uni que
Ne g
pas sed
ma int
=' {
plan e
"), "
B lue
conf lict
medi ate
alloc ate
- ,
c ube
DE V
for k
class ifier
De cl
UP DATE
Open Stack
D C
b n
d sa
h alf
k v
p andas
Ġ Y
Ġ pro
mo der
ne eded
Ġs plit
off er
(,, ,)<
zone s
PY THON
freq s
Ġ defer
coun ters
Variable s
Ge o
STRU CT
S im
Ġ parsed
re co
on al
st atistics
li k
norm alized
aff inity
mob ile
cate n
fr appe
I DENT
S aml
p wd
st uff
ge no
un quote
Ġ[], )<
mac ros
PARAM S
',) ",'
C AP
R ate
Ġin sert
RE E
Ġc ustom
64 7
Ġpy jamas
RA W
Dependen cy
SELE CT
= /
X X
g w
r sp
Ġ Add
min der
(_ ('
Al ter
( /
: ]
A ggreg
d ll
x i
x axis
xy z
tiv es
sr id
0 7
S o
U ri
e ye
Ġ auto
are st
Ġiniti alize
INTE GER
tr ac
Ġ+ ):<
df p
CLA SSES
minion s
palet te
) [
B and
C TED
R L
r sa
v ate
Ġ fid
ar s
pos al
float X
sv c
, ,<
D ynamic
P lot
fi p
pe m
py plot
As sert
AB C
( \
= (,
> ('<
v di
Ġ level
re served
exclude d
tim ing
failUnless Equal
F uture
G EO
d ur
'] ,'<
File name
COMP LE
LAB EL
3 1
a udit
f y
h at
t gt
Ġ an
se ason
FO L
TEST FN
clu sion
Ġ kw
con fi
do ctype
Con dition
ali ce
Ġ- ]
iter s
AD ATA
sent inel
rest ri
fra g
S D
e qu
f ab
o ms
Ġ Connection
re write
as pect
=' -
ces ses
trans pose
err msg
UT C
HTTP S
cap tion
Conn ect
MAR K
( ("
D ING
w f
Ġ of
ong o
g ap
Ġ queue
=[ ])<
Lo st
SH O
sol ver
sd k
Ker nel
e y
ret ch
ex tent
state ments
ĠS ystem
ep silon
Form Set
deli tem
subscri ber
Decode Error
Z ER
c data
() }<
Par ti
MS A
cnt l
Choice Field
REQUI RED
) ),)<
C lear
G IT
I FI
Ġ limit
al k
sub parsers
Wh ite
CONTRO L
' [
S oft
l arge
w ind
po sitive
reverse d
AGE NT
ench mark
pie ce
subst it
Ori gin
" ,,
t ty
de dent
om ial
Base Command
ep isode
ĠI s
Message s
Bo und
poly Data
P tr
y p
li ed
ke s
==' ':<
ĠM ulti
VI EW
Ġopt parse
) ')<
: \
y y
Ġ lookup
=" \
IP V
parti cip
memo ized
invo ice
Produ cer
2 39
no bs
File Name
NO TI
{} '.
Cre ature
LOB AL
D raw
G T
if s
et c
(" ")<
St roke
Do uble
batch es
tw itter
Ġinst all
f q
t an
test case
inter section
cap acity
,,, ])<
Dist ribu
rou ters
Saml Base
a ker
u tit
re build
in ser
ar rays
', [])<
Ġ] -
ac cur
SETTING S
caten ate
p key
al ity
el m
erarch y
R IGHT
S hell
ra c
'] )
Ġf d
nc ies
Ġ[], '
NAME S
LOG IN
Ġ+' _
transl ator
hy dr
NotFound Error
fire wall
g m
ma pre
== )<
pre fer
Ġre port
iter tools
Object Name
ĠC heck
asy n
CER T
mapre duce
F ill
T otal
se quen
Ġ[ _
he et
"] ))<
hist ogram
decl are
CR Y
accep ted
G O
m ute
ME T
width s
ome ga
disc oro
ĠCre ate
__ '):<
code cs
ca m
([ ,]
EX TE
multi part
QUE UE
Tabular MSA
r an
Ġ md
re ferences
Pri mary
CLO SE
L ong
P B
RE SOURCE
Me dia
Create Mock
c inder
g un
k ze
y thon
Ġ total
an cy
arg list
TER N
kze ug
x ls
Ġ section
add Edge
Ġ[] ]
Ex pi
==' -
email s
Ġ[- ])<
celer y
d k
par allel
bu d
col lap
() [
cur ve
String Property
iti ze
,_ ,
EN V
Check er
' d
H AS
u it
v ectors
Ġ password
Ġ win
int ro
(_ ("
OP T
controller s
fetch all
P UB
S ide
c um
r nd
Ġ help
st c
bl y
json dict
trans forms
Event s
TEXT URE
L ONG
r pm
)< =
tr im
,' %
member ship
protocol s
fetch one
COOK IE
j ected
s andbox
Ġ decode
in cr
no se
from string
=[ ],<
Ġ] ),<
Mo use
([ ,,,,
') ]
tuple s
Al gorithm
Ġflag s
quot as
A A
c art
m and
re ak
out s
max size
Ġ' *
Ġ- -
replace ment
web app
PRO PER
tor nado
defin itions
predi ctions
dup licate
B al
P DF
k o
t weet
Ġp lot
Vi de
EX CEP
) "%(
D R
Ġ domain
Ġ wrap
(" _
cy thon
ATE D
mpl ing
S ort
Ġ tags
en queue
di an
'] ",'
pa ren
comp ression
match er
ĠS Cons
)) ):<
)* (
sis tency
optim ize
te l
ss ue
read able
Ali as
DataCache Functions
Fix ed
S ec
T AR
k b
te ch
field sets
ho od
sub scriptions
mark up
ValidationTest ModelAdmin
ĠSchema Migration
F IN
] ])<
e u
r g
li es
Ac celer
)* <
Ġcontext lib
inline Callbacks
D rop
m n
si mil
(' $
Re ply
Ġ: [
(,, ,
vo ice
deli very
Redirect s
Pub lic
sug gest
= (,)<
= (,))<
R ed
T ex
s lt
Ġ role
it al
ch mod
ex periments
'] ).
Ġs ample
Sett ing
Ġlib cloud
nom ial
STOR AGE
> \
H idden
k Control
p lots
var name
ĠD ummy
Hist ory
P latform
U ES
Ġ Unicode
open id
Match es
Schema Migration
S ys
f lex
Ġ html
Ġ users
re en
at ter
ff ect
m v
one d
par sing
sign atures
cho ol
sol ve
cred it
UcsFactory Meta
a ma
c amera
x en
Ġ cluster
ex ploration
pro files
int s
') []<
Res olver
mar sh
Ġ+" \
Mod ified
Tra its
Nu meric
REMO TE
pli er
B lob
G ateway
G LOBAL
g ation
Ġ Fake
>' __
an ted
), ),<
RE GI
)+ '<
mark down
By Name
Ġ** +
fri ca
D NS
S heet
t ur
Ġ per
co ef
po d
AC CEP
setup tools
wer kzeug
Cal c
A ss
h v
de vel
pi ke
-- --
CONT EXT
invo ke
Ġ length
RE L
np t
SE NT
Ġ/ )<
IP v
':" ('
Method s
OS Error
D LE
Q Application
h id
Ġ+ *
py c
new s
so und
Ġp print
Ġg it
Sele cted
MENT S
bench mark
A frica
B AR
Ġ Field
st roke
en ce
), ))<
key file
mock ed
so up
mil li
We ight
6 7
y axis
Ġ temp
Ġ abs
Ġ bytes
Ġ JSON
mp c
Ġ[' __
est imat
>[ ],<
free ze
Dist ance
Top ic
produ ction
WID TH
B A
F ault
h ub
ol ve
cor ds
'], ['
rel path
transl ations
(',' )<
Scal ar
c gi
Ġ Queue
in coming
co e
assert Dict
ver tex
class name
fo ur
() ),)<
sub plot
manager s
attrib Stroke
epoch s
=[] ):<
Sha red
Ġ extract
'] []<
il low
=[ {'
", (
Ġ] ).
Ġs p
comp s
index ed
Ġ[:] =
maint ain
Vide o
b et
Ġ stack
Ġ parts
ma ch
In ternal
Ex ample
Ġre place
fil ing
pri m
gra ins
seq s
HE LP
Ġpre pare
'][ '<
SCRIP TION
) =='
Ġ ans
__ =[<
py game
ObjectProperty Type
' /
( (<
, {},
W M
z zy
Ġ verify
ret code
Re set
exp lo
assign ed
Sw itch
R SA
T LS
Ġ rows
ge tenv
'] (
Ġ+ ]<
pre ad
ca y
spec ific
socket Id
ado op
" )]<
a jax
s lope
Ġ ID
Ġ Text
ge ns
ha z
':[ {'
agent s
fra c
snapshot s
question s
Q L
ce eded
add Test
DI SP
DO T
dra g
measure ment
writeField End
writeField Begin
bas is
bas ket
v ms
y m
=' ')<
vo c
DIR S
Ġconfig ure
stride s
={} ):<
WH ITE
semb le
l f
tr v
th at
Tr y
() )))<
ALLOW ED
mpa ign
J OB
t urn
z a
Ġ append
en crypt
file Name
() ;<
En able
plu g
ĠD ec
lat in
ATION S
C fg
P M
S creen
Ġ queryset
at al
el low
we en
function List
fin ite
UN IT
Element Tree
Pre fixed
button s
INTER NET
M CI
Ġ bo
Ġ Group
Ġ ctypes
le ading
ch ro
set ObjectName
py tz
build ing
ĠM essage
App end
Deta ils
ww w
identifi ers
: /
Ġ logger
Ġ oauth
me l
ti lities
pe ed
app y
db api
inter cept
,- )<
Ġcode cs
inher it
Credenti als
G lyph
h mac
Ġ put
Ġ addr
Ġ Open
Test Base
Ġd raw
," -
(,, ),<
rf c
dete ct
MET ADATA
p ip
Ġ site
el i
Ġ[] )
Ġ* =
by ref
fe rent
Ġ" \
Fact or
Neg ative
B ot
W ITH
f m
p ci
Ġ yaml
con ditions
(' +
args pec
debug ger
CE NT
)+ '\
IP PROTO
go to
cycle s
Any thing
HAND LE
F ACE
N ON
in ventory
po sed
Ġs n
read s
nu ms
pop up
MA SK
P ix
>', {<
log ic
cs r
LA ST
ba seline
HO ME
,,, ]<
white list
C ASE
R pc
o ck
ĠS kip
ath on
oc ity
Mar ker
ĠPer mission
Conver ter
A ng
G pu
s al
== _
Mo re
Po se
Ġr df
wal let
Track er
sca pe
expan ded
J O
O GR
le ader
comp any
tmp file
dat ad
wi re
snip pet
" *
P OR
o th
Ġ U
er t
ra ck
la ck
>@ _
=" .
Ġre mote
Ele m
,] ])<
f path
i ke
m ult
Ġ constants
is nan
sc ipy
dele tion
av as
Sum mary
PACK AGE
i ties
m dao
Ġ Database
tr ial
lib r
stop ped
Temporary File
Prefixed String
3 64
M ac
R ight
Ġ Module
'] }<
>" <
Ġd t
tra il
qui ck
US H
ENA BLED
L ight
is m
() =="
>" -
attrib On
Comp iler
VE D
redirect s
Vis itor
Ter m
squ are
MID DLE
o x
Ġ qs
',' __
sh utit
Ġs tep
Ex port
ten ants
>': [
ĠC ON
cen tral
gl ance
pid file
Br anch
" },<
p f
v in
z oo
an other
Ġc an
arch i
Ġt t
ast ic
Pack et
PROTO COL
C Y
R ST
Ġ fastbinary
pro bs
pri te
duct or
include s
some thing
coordin ates
accur acy
C la
E mbed
_ ='<
in cip
lin ked
run s
Command s
Comple x
att name
TRAN S
C ancel
a mp
q a
Ġ pi
le ast
ti ce
Ġ] ),
list ing
inter preter
CH AN
skip ped
Plan e
Distribu tion
EXCEP TION
F D
p ure
u ous
Ġ pa
Ġ dump
DE P
',' \
() [].
pack ed
DI SK
xml rpc
20 14
Exten ded
CUR RENT
ĠName Error
Gre ater
R ot
w ant
to do
lin space
Ġs q
Ġ[] =="
dir path
AR RAY
IC AL
ĠKey boardInterrupt
ADD RESS
proj ection
recipient s
[,, ],
proble ms
(':' )<
prepa red
bud get
( ?
D n
e very
x range
Ġ address
er ature
Ġ] ["
comp ressed
expi ry
P lay
P oll
T IT
ler t
SE C
extra ctor
Sub scription
af ka
medi um
" )))<
l and
ver ilog
fa c
Ġ[] ),<
Ġv m
Path s
sur face
FUN CTION
= (,),
co res
'] })<
() !=
Ġ[] =<
min us
sup ports
buf size
Ġde c
Wr ap
SM TP
Ġsu ccess
TAR GET
, )
th ird
add Handler
object Id
load ing
Ht ml
Ġ]+ =<
DATABASE S
, =
5 12
() ]
') ==
rf fi
byte array
bd m
c ifs
Ġ ca
ch oo
',' %
app le
Con vert
(, ):
>" --
ĠA b
)= ='<
dr us
TEXT NS
Relation ship
j pg
z lib
Ġ plt
id map
(' {
to string
To One
ci al
ener gy
alpha Materials
Row s
ane ti
Sa fe
sem bly
} }
Ġ me
pe ak
con tour
pro pa
gl fw
au x
Ġ{} '.
unct uation
P en
f cntl
Ġ ).
for a
ul ated
(' [
map ped
we ep
Ġg o
mk s
Poly gon
Acceler ated
- ]<
C AL
D b
Ġ ro
Ġ errno
un ded
mo id
app lied
del t
Re al
context manager
ph p
"] ="
win types
Add Field
imp licit
Ġsu ite
ĠSer vice
posix path
datas ource
W atch
a ke
n f
p list
up licate
PO SIT
For bidden
iso format
issue s
MI ME
TBinaryProtocol Accelerated
CreateMock Anything
G o
b w
ap ic
read Field
)) /
ill ar
Sign ed
) '%
e g
DE SCRIPTION
de tach
Ġ[ ,]<
assert Redirects
':' /
Ġs chema
read Struct
back ref
," %
User s
change set
ud p
pol ys
ĠD B
Ġclo ud
Publish er
I t
c g
Ġ ns
Ġ product
le ts
an n
mo ment
__( **
Re pr
(). __
ir th
VAL UES
Tests From
authenti cation
vers al
c raw
op le
ob served
=[ ,]<
format ters
write Struct
vo ke
Ġsub lime
Int angible
sto red
direc tive
PEND ING
D er
t n
Ġ ;<
Ġ OrderedDict
py eq
UR N
Ġ/ (
emit ter
VAR I
c tivity
is su
'] ),)<
LE S
vel ope
>[ <
KE ND
EX EC
Date Field
Pay load
BUIL D
=[,, ]<
bel ow
= +
T IN
ati ves
add Component
np c
sa mpling
':_ ('<
syn chron
Ġ signal
Ġ patterns
un ary
vi ded
[], [],
ren d
SE CUR
ci rc
web site
Ġ[- ],
prox ies
R M
} \
is ol
ment ation
ne st
start up
length s
Di vision
sen sitive
TH READ
avas cript
ta ched
comp ar
RE DIRECT
tag ged
doc test
':" ['
[: ]<
marker s
F ROM
P N
S R
i os
u tions
w izard
Ġ thread
', ,'
con catenate
si mpl
den sity
CS V
At tach
SCA DE
1 12
M aster
Ġ backend
Ġ {"
ro ves
(' !
ass oc
ite cture
') ),
={ :
driver s
face book
Ele ments
Comp ute
B LOB
a res
t pl
Ġ package
re pl
de t
ut ors
", [
'), **
En tries
skip Unless
Ġsimple json
A ctions
C y
h ic
m orph
un wrap
() ]=
[] ])<
Ġ/ =
wait ing
vis itor
Sn apshot
B B
h ue
Ġ metadata
Ġ httplib
de part
Ġi denti
un ked
sh adow
Ġ+ ))<
cor outine
post gres
attrib X
ĠD ate
Widget s
AUT O
Ġeval py
wk t
M ul
g dal
s b
tr ust
sc atter
am i
sub dir
ĠA PI
Id x
io dic
View Set
100 0
Pre di
":[ <
align ment
ĠSer ver
T Z
d ct
k y
de sk
con version
ap prox
ta u
St d
child Node
queue d
OP ER
imp orted
contrib utor
TER M
CA SCADE
direc ted
samp ler
SCHE MA
I MP
] ),('_
Ġ sentry
(" :
min al
Ġc sv
BAC KEND
re cent
',' '))<
ra ft
Ġ] !=
Ġ+ ':
work tree
(,), (,
PAT TERN
tool box
scan ner
combin ed
F ACT
a che
b f
i an
o site
s ot
t arg
st ype
bo ards
Ġs ort
ĠO n
vari ate
Ġpub lic
transfor mer
A X
A ST
A SS
B enchmark
r ss
Ġ Log
ver ified
ten tion
sql alchemy
folder s
SECUR ITY
Ġ transform
Ġ] =[
Ġopen mdao
MI SSION
FAIL URE
0 9
S RC
a ir
i map
p al
cl au
uni v
Ġt x
(,, '
Cre ation
Trans fer
DS A
74 9
RUN NING
b id
f ut
Ġ resolve
In dent
>',[], {})<
Ġ[] !=
List View
Run ning
MO CK
F inder
z ie
Ġ pattern
': []
sh i
Ġre view
ME NU
Base TestCase
NS ION
ED IT
subject s
discover y
D Y
e i
p db
Ġ comment
OR DER
ile stone
Man age
0000 00
fron tend
encryp ted
CLU STER
hic le
Y PE
a mo
at ory
', **
ke h
Ġre lease
St ar
foo ter
of fi
handle s
ENT RY
bad ge
INST ANCE
sl ash
U TE
Ġ De
Ġ style
Ġ choice
py func
py gments
Ġp ush
access or
] =<
y lim
} /
th row
to c
ne arest
Ġb ad
auto Generate
wx ID
State s
Ġmatch es
',,- ),('
interpol ation
D ig
F W
Ġ Z
Ġ Project
ge os
res ume
Pro c
loy ee
Ġreg ion
bla h
compo se
leg al
, ).
8 00
M B
m x
m or
ap s
ent ropy
Re po
Ġf name
oper and
cr ash
ĠHTTP Error
f v
j wt
v cs
ar p
la in
BO OL
iter keys
round ing
libr aries
, )=
E NO
ame r
en g
pa ger
Ġd at
ĠM is
ude nt
20 1
ĠD is
quo ted
pen ame
NUM ER
schedule d
ĠCommand Error
MIDDLE WARE
B ig
Ġ manager
re boot
an im
>', [
ne o
Ġ: _
Lookup Table
N a
name dtype
pro vision
user id
,' /
OR S
prefix es
25 0
Comp arison
seq id
expi red
instru ctions
- ,,
6 24
E LE
S cene
v or
Ġ messages
un register
mo ds
assert Contains
to list
ra mid
Re pe
ron ic
User Factory
Ver tices
Version s
cr ud
Back up
bi an
clau ses
A tom
Ġ up
Ġ vistrails
er ase
', ),
am b
ele ms
plat forms
sli ces
Ġreverse d
D es
K IND
R FC
S CO
Ġ channel
Ġ \\
Ġ perm
red mine
uuid s
gre es
HA VE
8 85
I I
N N
y label
Ġ serialize
Ġ werkzeug
ti vi
get Attribute
is ys
RE PL
box es
full path
assertDict Equal
ĠSkip Test
POR TED
C LE
G D
f la
or ten
', {}).
>', {'
AL IGN
Cre ated
Dis patcher
bit map
Ġ:" #
DA Y
( ',
F ollow
M apper
e th
Ġ ms
Ġ profile
'] ])<
app a
pri me
=[' -
Op s
10 1
DO UT
maintain er
issu er
d shape
mp tion
ch errypy
Ġin ner
',' ',
Ġre duce
Ġc StringIO
Ġp d
Exec ute
tot als
Ġnorm alize
> ]
C s
b ib
f resh
u ate
Ġ compile
__ ),
is tent
Re dis
pre view
jo urn
load TestsFrom
DI CT
ci r
ps util
bs l
spi ke
visi ted
ZER O
) [].
5 2
C enter
t list
Ġ al
Ġ fix
Ġ username
Ġ[ ,:
con sistency
si bl
mar athon
pt g
Sup er
Allow ed
A fter
q r
st ick
le v
Ġ] (
For ward
Ġjson ify
serv ations
basic Config
director ies
) ()<
, ),(
, (,))<
D ump
Ġf ab
Ġ[: :-
clo sing
Ġe mpty
LA ttribute
web ob
Sub mit
cap s
release s
prote cted
datap ath
ALI AS
XM LAttribute
C tr
C li
r med
s at
s patial
s chool
Ġ factory
Ġ exclude
to o
is digit
pre ferences
Ġre po
reg ular
Fo cus
WINDO W
FOL DER
< <
O k
R DF
i mag
u da
st m
>', ['
,' .
gen der
): ]<
hi erarchy
Pri vate
stri pe
suc ceed
RETR Y
tivi ties
I ssue
y nc
ti ties
con cat
), [
=' #
',' ').
Ġ] =[]<
Re try
() [])<
ff set
tra ver
net mask
cor r
Ġv olume
11 11
Al ready
cert file
Reg ression
ITE M
Can vas
Ang le
delt as
" '%
L ater
b q
py curl
length String
Vi sible
CODE S
comple ter
analy ze
ateri al
bra cket
A GER
C red
O G
S MS
Ġ ssl
Ġ merge
si oned
from timestamp
'} ,
temp erature
Command Error
track ing
Tag LookupTable
switch es
ater n
Match er
Build TagLookupTable
ural Node
represent ation
: '<
B reak
H ORIZ
V ID
c time
Ġ container
and ra
ob servable
Ġ[] [
DI FF
medi an
grad s
gram mar
Ġ dis
re m
re ject
st retch
(' *
Ġ+ )*
min ator
Ġb ind
)) ),<
MO D
__= __
A ns
P ac
w ers
Ġ download
ve y
he mer
conn s
oo zie
mid dle
AF X
) "%
3 19
E l
m map
p th
s ink
Ġ Form
Ġ should
Ġf r
ns map
of s
For ms
cap it
Ma il
Den ied
Annot ation
NUMER IC
I V
i ces
p seudo
s rs
Ġ alias
Ġ dispatch
ge nd
'] =[
il ter
Ġ+ :
,' #
RO W
fail s
ĠP age
expr s
PRO G
bucket s
Float Field
{ %
Ġ number
(' \\
Tr ig
down loader
Bo ot
,[ "
Clo sed
writ able
appro ved
Transl ation
q os
Ġ lock
in ed
ex clusive
stack level
Sub ject
ish ed
>} ,)<
COM MENT
Hy per
monkey patch
) [])<
1 39
S orted
} .
Ġ Time
Ġ Output
le ave
ass andra
app lic
)) *
DI SA
}, {"
Ġ]+ =
cir cle
Pac ific
- ,-
< /
F P
Ġ ),<
Ġ display
__ =('
Ġi gnore
hand led
To o
html help
IG H
PER MISSION
3 16
c func
Ġ ^
ho use
AT URE
Str Opt
ĠS ite
cs w
('/ ')
Ġ[:] .
SIG NAL
scalar s
mg mt
cipher text
4 00
H I
U tf
e qui
s olution
t ali
u f
Ġ objects
Ġ encoding
Ġ may
Ġ[] ["
pre fetch
SA MPLE
CONNE CTION
b ri
d id
u dio
Ġ buf
Ġ contents
ele d
Dec or
sequen ces
n db
s weep
w anted
Ġ ok
Ġ Json
ad a
ip tables
form field
>[ ,,,],<
io us
ĠT ag
QU O
Var i
head line
CU STO
phy sical
ĠAb stract
, (,
= ",
N ative
] ]<
r al
u dy
qu ad
url join
vel ocity
Ġb r
'), '<
CON ST
month s
mu g
plain text
egg s
':{ },<
prefer red
s vm
Ġ Update
Ġ home
>< <
Re vision
size of
St mt
other array
spec tive
Se cond
SI X
feed back
Pay ment
encryp tion
b ash
Ġ View
Test Runner
RE A
Ġ: {<
gin es
ĠT ask
QU AL
Sy n
cm c
Pri or
article s
voc ab
( ",
/ "+
B us
F ULL
R B
n net
u ms
x label
Ġ sig
ro d
assert Greater
ance stor
man ent
spec ified
Ġm ime
Sub scri
Number Format
"], "
note book
Ġsa fe
SUP PORTED
( {}
X s
j k
pre sence
RE N
hand shake
ity Error
Ġiter items
Mes h
simpl ify
D ay
G MT
Ġ wrapped
Ġ Web
ar ing
pe ople
ut o
ap y
=' ?
pro be
am t
ac ters
GE NER
Del ta
Sched ule
Ctr l
n ex
Ġ ):<
Ġ raises
ance d
aut om
ten ance
Ġp retty
AR GS
pop ulation
Ver tical
VER BO
timestamp s
Ġdefault dict
pagin ation
Items Equal
>{ '<
Positive IntegerField
C are
Ġ location
re rs
de compress
assert Template
th ick
db name
ĠS ession
)) ])<
mon it
CT X
>'] ='
cover y
Poly Data
Tw o
_ ):
h adoop
OR ITY
open ed
HTTP Server
=- )<
dif ferent
System Exit
Coun try
week day
embed ded
The me
Alter Field
+ +
E p
h g
Ġ URL
Ġ paths
lo se
=[ ,,,,
Ġ- (
sy co
"] +
play list
vo ter
'+ '",'
TR A
B C
B eta
D AT
in vi
an ger
': {}
assert ItemsEqual
op code
Re actor
base dir
ele v
File Path
$ ',<
C at
Z one
Ġ Post
Ġ gevent
ST DOUT
un ity
di ces
St age
Ġm igr
") ),<
Ġh orizon
As sertionError
BUIL TIN
sam ba
particip ant
ĠDec imal
, [],
D RA
F it
p args
Ġ seq
un signed
pre f
Ġc mp
go ing
WA Y
Rad ius
F TP
b or
r ho
u df
re aded
temp orary
arch itecture
FO RE
Date time
mu x
sol r
criter ia
Quo ta
eli hood
M Q
P P
_ ,<
p illar
Ġ cl
(' ;
unt jac
Ġc m
') )
content types
fe rer
loc ate
sen ses
vis ual
avail ability
click ed
decl ared
Permission s
OBJECT S
Deploy ment
VID EO
> ",
D D
F Y
T roves
V S
o ct
r n
st an
ty pename
il led
ve red
per sistent
Ġ[] ).
pass phrase
"] [
Ġe q
sk ill
track ed
Gr ad
iv y
CUSTO M
F L
P atch
b irth
f obj
y ellow
Ġ tokens
at an
Test Loader
(( (
ĠA l
PO SIX
Ġname space
Index ed
Const ants
Registr ation
j ack
Ġ Co
Ġ pack
th an
max len
kw s
Re served
)) []<
af p
)] ]),('_
lb ry
visi bility
Align ment
traver ser
a sta
Ġ device
Ġ prev
in lines
pe x
ex istent
), (,
Ġ+ =(
po re
=" "):<
new axis
task queue
ĠA n
HTTP Request
secret s
gorith ms
CR IT
Ġfe ature
assertTemplate Used
0 33
F reque
o vs
y tes
Ġ move
__ ',
BO R
comp arison
sub str
Key Value
En coding
HTTP BadRequest
attrib Font
URL CONF
enu ms
ĠD ist
hyper visor
Extra ctor
Pe er
assertRaisesRegex p
ĠMis sing
E K
M ON
y max
Ġ partial
te ams
de termin
ST ACK
un set
out line
Equal s
reg ression
SE CON
," _
CONT AIN
ANG O
)[: ]<
MAN AGER
NotImplemented Error
O VER
i od
j un
r find
{ '<
Ġ DEBUG
pe p
ri ch
cur ses
FI RST
)== "
ns path
dist utils
,[ ,,
sock opt
div mod
Xbrl Const
REC ORD
'" }),<
! ')<
) \
H igh
P HA
g ar
Ġ ad
Ġ children
Ġ Document
sel en
me ans
ri er
'] },<
'] =_
=" <
exec s
ep hemer
Ġm k
Resource OwnerId
let ters
USE D
ae mon
mix ed
broadcast able
Te am
A zure
st p
and a
file system
out come
ve hicle
() ):
Lo c
User name
PO LL
dec rypt
workflow s
fri ends
remain der
DEF INE
mas ked
6 2
8 2
E mp
L F
Z ONE
o se
Ġ Parse
(" +
tra verse
Ġc p
=( ,,)<
dar win
Tra it
selen ium
3 10
n sa
p tool
Ġ escape
key id
ne ver
([ ,])<
Ad v
Ġm untjac
flow s
record ing
sym link
Back ground
Pow er
B LU
N ested
m cmc
x mpp
Ġ Query
get pid
con ductor
si o
(, (,
Ġ: ('
act ors
De mo
gener ation
oper ators
HTTP Connection
break s
PRO VI
integr ation
White space
inser ted
EXTE NSION
milli seconds
SCO PE
h h
i re
s ke
00 4
," ")<
KEY S
Ġ[:] +
consu mption
INTER NAL
Job s
Build ing
Sli der
: '+
I mpl
O TH
S ur
l db
q p
Ġ by
Ġ shared
re minder
'] ]
he at
SH ORT
ĠF oo
Ġsa hara
Gre en
life time
stru ction
Division Error
s low
Ġ upload
ch k
(" {
BO X
start s
RE SET
jo hn
(), [
Char acter
VI RT
inf er
HA SH
Conf lict
bet ween
atern ion
) '<
, /
S ta
a es
g of
m ing
p n
w o
Ġ Type
Ġ offset
Ġ left
at ty
Ġ] =_
change list
dist ri
pub key
Qu an
mi rror
,: ]<
>} ]<
Err back
h ive
l int
Ġ missing
ri end
da g
ag tail
df s
)+ "\
ĠC ustom
EX A
zip file
Le af
200 0
BS D
tit ude
bill ing
ĠSy ntaxError
attribX link
C lip
G A
H MAC
R ob
m box
get state
con an
pro posal
Re verse
son g
tra de
"] =<
Ġg aneti
io loop
{} ".
Le gend
success ful
NE D
":[ '<
sim ulation
, ),)<
M ongo
_ ,**
on line
ce du
obj ective
msg id
Comm Care
addr s
ĠT oken
Qu eries
lis ted
dot ted
bot tle
pkg s
tf tp
Zero DivisionError
suc cesses
refle ct
VERBO SE
M R
e ther
r id
Ġ St
re lu
cep tor
resp on
start ing
back off
Un iform
FILE NAME
':[ (
contrib utors
esca ped
PRE SS
pagin ate
ĠConfig Parser
UNI CODE
hdf s
EXP AND
movi e
propa gate
E ffect
f ar
in validate
Ġ[ ('
(' ='
], [
sys log
Ġ* ,
ress or
LI CE
':" '+'",'
Comp osite
branch es
Read able
fol ds
' '.
G C
G REEN
S lug
b z
d ue
Ġ uri
al a
pro vided
Ġc ategory
view point
(( ,,,
Ser ial
KE D
Call able
Link s
Zip File
" ),)<
i er
Ġ attribute
__ ),'
(' ^
up loaded
Ġ] ={}<
Re quire
Ġf lat
table Widget
we igh
ag ger
>'] ['
16 37
IL D
ba as
Default s
dar k
repe ated
Work book
LD AP
LOC ATION
coordin ator
rg ba
3 32
F am
r h
r u
r ink
u fact
Ġ com
Ġ now
to ggle
ver ti
RE T
Message Box
Ca ched
activ ated
Execution Error
fron t
647 40
j avascript
m oney
s fa
v box
Ġ filters
Ġ ensure
pr incip
=" +
ff ff
util ity
function al
IL L
rot tle
Ġcon ary
screen shot
lon s
syco pg
A vailable
T W
re open
=[ '%
add Action
ip t
"," /
SE ARCH
Ġsys tem
exc info
author ity
>: (,'<
Comp are
NE L
Al ph
Cer t
Vo te
E VP
n v
Ġ cookie
se ver
IN F
le on
an c
url conf
format ting
valid ated
Ġp h
loc s
Ġb atch
ĠA pi
>[ ('
>[ ,,,,,,,,
CT RL
DO C
FIFF V
Ġweb ob
>[,,,, ],<
Imp orter
offi ce
# #
( {})<
P in
_ =[("
b dist
b are
s db
in formation
__ =["
ca use
LA BLE
EN CO
ĠG it
PA Y
poly nomial
effect s
recur se
interp ret
ims how
fq dn
" ):
) ^
A VA
g te
m ilestone
n fs
y a
LIT Y
Ġ[ ,,
ac ces
module Id
Ġ[: ,],
mail box
>[ (
ci dent
EN CE
SU F
require ment
scr atch
altern ative
marsh al
7 2
S N
_ "+
a ussian
p name
Ġ lin
Ġ transaction
ST A
': },
Ġs cript
Re view
so ap
ID S
PE M
play back
CH UNK
Ġname d
Text Input
HTTP Client
Ġ[:- ])<
MI SS
andid ate
des cend
capit alize
EXA MPLE
G oogle
t ors
Ġ sha
cl as
from Utf
port Spec
Resource s
non ymous
contact s
hint s
Ġiniti al
= (),
B its
S elf
\ .
Ġ Context
Ġ< (,):<
',' *.
=- ):<
track list
Ca lendar
dat al
LU GIN
placeholder s
cas cade
ail gun
H i
R D
T ip
h old
v cpus
Ġ member
Ġ failed
at s
as df
for med
out dir
RE ST
([ ]
ren a
fe e
)+ (
CH ILD
environ ments
attrib Color
)), ))<
assign ments
,],[ ,]
Decimal Field
declar ation
Ans wer
D J
T T
] ]
e of
g ist
Ġ wx
Ġ OK
=" {
Ġ: ('<
Ġre quire
map ho
func name
child Nodes
ĠA ction
Un its
sn mp
gl Vertex
monitor ing
Ġfn match
Named TemporaryFile
t ap
v x
x min
Ġ sign
Ġ extension
Ġ account
Ġ selected
re play
as n
__ ')<
con ds
con crete
Ġs can
lu x
initi alizer
Instance Id
)/ /
LU ME
oci al
Dep th
freque ncies
)& (
Initi alized
BIN ARY
ĠSystem Exit
datad ir
ToOne Field
P unctuation
c make
f ts
Ġ description
in a
arg max
ab o
ip sec
Ob server
emp t
database infra
Rule s
INST ALL
cach ing
conti g
collap se
G lob
O WN
d ont
n ice
Ġ ','
Ġ Admin
log level
Ġre al
Ġf ree
wh y
Ġdata store
database s
tool tip
Change s
END POINT
([,, ])<
Assign ment
Quan tity
' -
B IG
I mportError
R ATE
b ond
d anger
g data
g ain
h appy
p ane
Ġ pool
Ġ traits
IN FORM
ol ds
ise ct
Ex cel
ĠM an
ĠsetUp Class
Random State
configur ations
Ġdec imal
ufact ure
8 1
e ven
y min
Ġ axis
Ġ expand
ap on
Ġs cope
Ġb it
>') ),('
Man ip
aa aa
Verify All
Inst all
RU LE
Moved Attribute
j u
l ash
v List
Ġ tok
ro i
(' @
>', ),('<
>_ =
cho sen
ĠT able
Per iod
mi os
pick led
Argument s
lon gest
":[ ("
CONNE CT
mach ines
= ,)<
T DS
U X
w ild
x max
Ġ clone
get Name
ter mios
is null
'] =[]<
back ward
ibu ild
=( -
descrip tions
ĠP lugin
Ġk ivy
Connection Error
Th ing
report ing
IC K
Mon th
C ATE
i or
s po
s us
u c
Ġ unit
de cay
est imate
ac le
Ġ' /
Ġc ms
ME TR
item getter
Po inter
US AGE
API Resource
associ ate
Security Group
So up
INFORM ATION
C N
Ġ exit
Ġ DEFAULT
Ġ tables
Ġ cached
Ġ enable
in side
at tached
text ure
url name
() >:<
Ġre c
row se
reg round
ID P
TE X
wa v
mod ifiers
Named Type
ĠĠĠĠ ĠĠĠ
privilege s
parentObj Id
Bro adcast
B I
E V
Ġ strip
in tr
de serialized
il la
", ["
Ġs cr
Test Result
ten ded
Ġc lick
Ġ- ]<
Service s
ĠF e
usage s
imple ments
READ Y
,), ),<
Ref resh
drop out
M APP
R S
S core
T MP
l bl
l baas
en e
el lip
__ ','__
tr usted
ma le
nt p
th ro
class ification
", ),
== ):<
Ġc ert
exp onent
To String
He ad
',, ),('
san itize
ban ner
COMPLE TE
+ <
6 1
= ','
A bs
D ONE
Q name
b oss
c ue
s prite
v ault
Ġ one
Ġ argv
Ġ proxy
Ġ this
in vert
as ure
', *
Ġi mg
un defined
ra x
lib virt
local time
Col ors
graph y
Ġ/ ,
CON N
FO UR
)] ))<
Fo ot
year s
Sy ntax
Ġj inja
delay ed
Pa gin
Ġ} ))<
tre es
gau ge
substit ute
" ))
I SO
I mproperlyConfigured
O ld
t type
DE SCRIPT
'] !=
() (
ic mp
Ġc Pickle
now led
dist ro
IL LI
Format Error
Option Error
Plugin s
44 7
Del ay
geno me
Pix el
Trig ger
7 89
D at
D im
D uration
F H
L M
P hoto
S i
s pread
Ġ Process
>' ',<
Ġ' -
Ġc b
token izer
CO PY
Request Error
rel ations
stats d
('/ ',
ĠB yte
Map ped
roll up
lt k
,), (,
returned String
mks temp
Fam ily
9 8
l ng
Ġ we
Ġ environ
Ġ Environment
Ġ[] ])<
num Vertices
Ġre cei
fil t
exec uted
ĠI P
gener ators
Ġa st
dev null
Ġ** <
hy p
gpu array
Ġfr appe
BLU E
E ST
E qu
E scape
W arn
m aterial
o h
w ig
Ġ width
ur se
it ution
con cept
Ġs aml
config ured
new lines
AL PHA
ID s
ib s
au tif
Down load
ĠE mpty
ane ous
sli ver
Ti cket
aller y
:/ /%
DESCRIPT OR
autif ul
( .*
G ID
v fs
} :
Ġ allow
Ġ allowed
__ )
tr ize
ch a
pe s
ver ifier
per mit
Con nected
work s
Ad ditional
other s
make Suite
Ġpy gments
Label s
sca led
VO LUME
mute x
" )):<
P ol
S ent
w ater
Ġ th
Ġ events
Ġ perform
fi sh
,, '
sc m
Ġre gistr
check Join
su le
bin der
Ġ[:] ))<
INTER VAL
predi ction
,],[,],[ ,],[,],[
PRI ORITY
fu zzy
MEM BER
BYTE S
lik elihood
, )+
/ *
C alled
d um
y r
z able
Ġ warn
Ġ storage
Ġ disk
Ġ wsgi
st udent
>' )))<
lo p
op codes
es ter
so cial
item size
va lent
deploy ments
Ġun pack
COL UM
Iter able
take s
Nu mpy
tun nel
Sc roll
IDENT IFI
B log
D ot
K ind
W ER
d j
h u
o ol
Ġ quote
re vert
(' '.
Ġ] ])<
put PrefixedString
ho mo
gr ab
AL G
multi line
pick er
17 2
CP P
direc tives
Da o
Ġsm art
Aggreg ate
C lock
L st
l just
y n
st s
type code
log o
Base d
En cryp
block size
Object Type
Se par
can not
36 0
moment um
2 20
F LOW
M ATCH
m al
as sist
ma xt
type d
ca mpaign
AT IVE
Base Test
(,, ),
sec group
Ġ[- :]
40 1
FO NT
book mark
eff ective
' ==
B ATCH
E E
L C
L W
Ġ term
__ ):<
li ant
com bo
Ġf uture
ans ui
var args
so a
Un authorized
)+ )<
Ac tiv
convert To
SO CKET
Exp and
HOST NAME
Ġevent let
cut off
COMM IT
Jo hn
REC ASE
dead line
tali b
$ {
3 00
Q ual
m ass
n rows
de grees
ra ce
Ġd one
RO P
socket s
non linear
rs lt
poly gon
mes os
IGNO RECASE
8 40
I gnore
R ON
r at
u ator
Ġ actual
os ted
del attr
=" #
Ex pected
Ġd st
Pro ble
pi o
lic ates
rand range
ĠA c
Request s
Char set
gra ms
cap ability
Ġde v
suffix es
mime types
WE B
(,),(,),(,),(,),(,),(,),(,),(,),(,),(,),(,),(,),(,),(,),(,),(,), (,),(,),(,),(,),(,),(,),(,),(,),(,),(,),(,),(,),(,),(,),(,),(,),
Scan ner
journ al
stm ts
CRIT ICAL
x lim
Ġ Protocol
Ġ Comment
Ġ director
de cision
or ange
al location
ex cel
ma gi
up y
pr une
Ġf lush
json utils
Ġc li
sup press
Di gest
patch ed
make file
)== (
go ti
INTER FACE
1234 5
prep end
bsd usr
4 69
I ME
P F
U BLE
l te
z f
} }<
Ġ active
Ġ columns
Ġ abc
res ample
(' >
,' \
node set
pre ference
ans wers
patch es
sche mas
>') =='
Ġ!=' ':<
band width
hr n
Rad io
()[: ]<
declar ative
CLU DE
ENCO DING
MISS ING
+ )<
P LUGIN
Ġ variable
op a
", ))<
RE SER
>') ]<
SP I
Ġ[:] =='
ĠAr g
Sm all
F MT
P TR
s x
Ġ dest
st im
al gorithms
en gines
ab bre
com ma
main tenance
Excep tions
'), (,,'
iz ations
vo ked
conver ted
Instance s
parti cle
Table s
STAT S
Cur ve
dra in
submission s
Hy drus
PROPER TY
POSIT ION
D RI
L ess
k i
Ġ loop
lo red
Ġi i
',' +
=[ ('<
add Errback
Ġc s
mit ter
PO LIC
,_ ('<
byte code
hy sical
rou ped
Ġfin alize
POLIC Y
> ")<
M ay
] ',
d it
l k
n bits
Ġ 4
Ġ ><
con ne
ul ong
rom ise
file r
ac tivities
dy n
prefix len
cp d
admin s
over flow
include d
Server Error
Dis abled
S pike
Ġ si
Ġ desc
get attribute
ul se
text wrap
ec ycle
'% (<
(,), '
IP Address
UP LOAD
Oper ations
Lock ed
sli der
Rep orter
ĠCON F
cedu re
, {"
E QUAL
N L
c rc
s mp
Ġ ge
Ġ groups
Ġ head
Ġ menu
for d
per iodic
In clude
unt u
00 1
lock s
off line
ched ule
sta le
Sub net
TA GS
ĠG e
font size
UD P
Sen sor
SUF FIX
3 86
V L
v stack
Ġ ar
Ġ train
in secure
me g
ate x
no st
Ġin dent
',' #
sh orten
lin ter
bo unce
fig size
(, )
Value Flag
Ġ[: ,]<
Ġp id
"] =="
fail ing
UL ONG
('/ '):<
aggreg ates
blob s
criter ion
DISP LAY
vor ite
D LL
P ending
P adding
T Transport
Y es
_ (<
e di
Ġ store
Ġ static
NT IC
STR I
el cast
__ ,'
Error Code
add ons
Ġs ock
Ġd ns
sys tems
my id
face t
Ġcreate d
conver ters
PRO FILE
multi processing
inf inity
sis tence
ĠRe g
()+ <
reque ster
watch er
Dependen cies
behavi ors
hydr ate
Ass oci
Y A
l un
l ify
n av
Ġ Configuration
co up
tr uth
est im
Re place
Ġ[: :
Data Source
(( -
AN K
UR ATION
Meta Data
Ġh y
gu ous
SPE C
Lin ux
METR IC
C d
C ustomer
H ome
P DU
S ING
p end
w c
Ġ ra
Ġ loc
Ġ attributes
Ġ seen
Ġ atom
ti cs
tr ap
len v
SE D
Data Type
PO P
graph ic
idx s
over lay
contr ibu
',[ [('
Comple te
)>= :<
Ġ[,] ,,)<
flex mock
xen api
weigh ted
) ")<
e red
o cp
p onent
Ġ trans
Ġ Local
>' ==
ex pose
pro ba
() >
() ],<
cur dir
Co lour
iter ate
VER TI
TH RE
DO UBLE
quo tes
ĠBase Command
Annot ator
Ap ply
mixin s
ffe red
FACT ORY
ephemer al
Alph a
mapho re
MAPP ING
e ved
p asses
vi c
ss s
Ġ] =='
est Case
Ġ[] /
read me
Di rection
AC H
PE D
char ge
HTTP retty
Message Type
ie ve
suite s
Ġex ample
cach es
ĠTh read
; ")<
A ES
D rag
x or
Ġ Network
DE LAY
te ct
Ġi ronic
node Type
() ),('
auth n
Ġre actor
work dir
rel s
FA ST
Message End
,- ,
ĠO Auth
Su ch
follow ers
1 36
Y ear
p illow
Ġ stdout
Ġ views
Ġ fit
re x
in cre
time tuple
py ui
Name Or
sha res
nu ma
char acters
Bu ffered
cap t
Task Queue
Box Layout
fol lower
cla im
soft max
Credenti al
* ','
9 7
r ings
x si
': (,'
id om
get opt
set state
(< <
bl as
') ],
pos ure
AR M
Base Class
local ize
Response Error
Bo ard
Ġto ol
Method NotSupported
defin es
PA RENT
Ġ+=' \
aler ts
pas te
Debug Format
advance d
ĠObject DoesNotExist
reco bj
REGI STER
haz elcast
Decor ator
/ $',
C AN
H S
P ress
] }<
p ic
Ġ ma
Ġ ec
tr ash
=" ""
open ssl
={ },<
AC ES
ker n
color map
Ġg lobal
cp meas
parame trize
fore ver
xx x
Place holder
CRY PT
mand atory
ACCEP T
$ ','
C ar
m name
n es
{ }<
Ġ edge
Ġ Color
te le
lo st
assert No
cl k
sh op
(" __
per f
Ġs cheme
com men
Ġ- *
Di rs
Ob servable
ĠM ark
Th resh
USER S
sheet s
Stream Handler
Ġ+=" \
gui de
>[,,,, ,],<
5 1
E xt
I LABLE
h stack
r um
r aster
u ally
Ġ raise
Ġ parameters
Ġ existing
re use
Ġ[ ...
pa int
request or
pl ank
comp uter
Pro mpt
wa iter
sy mp
"] ),<
Ġnode Name
By Tag
30 6
sli de
Ġ{} ".
gu ard
micro second
MULT IL
plank ton
4 88
C G
T TL
_ =""<
d g
h b
Ġ dirname
de rers
assert List
ip her
base d
jo se
im mutable
Ġp oly
20 13
OP TS
TO O
ENT ITY
Ġ[-] =='
gre y
AB S
Direct or
Pr inter
coeff s
PRI V
coe fficient
= ()):<
C ANCE
H V
M oney
O c
d v
Ġ modules
Ġ operation
Ġ teardown
Ġ World
in omial
or n
par s
db g
": }<
']= {'
(* (
ay es
PRO XY
DO CU
coun ty
mi str
JSON Encoder
aff ine
Sm art
confi rmed
applic ations
ĠByte Size
1 50
O LE
Ġ se
Ġ route
Ġ hazelcast
en der
qu aternion
(" [
Ġ+ :]<
() )==
sa x
man tic
Ġ% ==:<
block ed
cluster ing
fn match
ĠF lask
RI B
rank s
sever ity
assist ant
! ")<
+ ',
O O
S te
Ġ security
de nom
=' _
data Received
attr name
Ġ* +
AC COUNT
super visor
HE NTIC
Ġ** *
MI X
Ġclean up
anno unce
ufacture r
- ,<
C SS
} {
Ġ long
Ġ proc
Ġ upgrade
al one
ch unked
(' ..
is ing
sa y
') ],<
00 01
>[ [
EX PI
Gener al
15 9
Ġtop ic
pur ge
parentObj Type
Decl ar
Prior ity
NameOr ValueFlag
. '<
D s
f out
RE DIS
Op tim
pop left
>: ('
SH ED
)- )<
rad io
Exp lo
bro ken
Ġapi proxy
Ġview finder
ino de
SPE CI
Ġbo keh
stan za
MULTIL INE
e Error
Ġ shape
key space
la m
Ġ[] [])<
mess aging
Ġe ach
win reg
Ġr ad
char sets
ash board
namespace def
Number Of
verify list
gor ical
Block s
stre rror
quan tities
SUP PORT
Ġnetwork x
Detail View
OWN ER
Proble m
R R
U AL
s pl
y bot
Ġ component
', {<
di e
age ncy
um ask
cal le
mod al
err s
Ġpy learn
Ġpy ramid
)= =[
own ed
Read Only
Ġweb site
Ġbe fore
Pi pe
Analy sis
suggest ion
ital ic
Legend re
datal ist
H ex
h m
k afka
v min
Ġ media
Ġ ContentType
at oms
ch ant
un named
um bs
=[ {<
", {"
po ten
py csw
db s
Re cords
Ġ[] [:
ml p
Lo w
sy ms
List Type
err back
PO WER
Ġn ailgun
opt parse
loader s
DER S
tx id
person ality
condition al
distribu ted
PL AT
Ġref resh
assertList Equal
, %
? %
O pa
R ing
b lip
l xml
x code
Ġ words
Ġ mapping
Ġ destroy
in active
get pass
BO T
comp liant
>" ,<
bl ab
ag ne
AN DS
lob j
ĠM em
ĠI Python
Add on
Invalid Operation
Ġ** -
geo json
Ġ+'. '+
ĠApp lication
sam db
Ġpub lish
conti guous
SHO W
simil arity
, ('<
5 29
i mplemented
z axis
Ġ usage
Ġ override
di ction
vi a
put s
write row
event let
Ġx s
AR B
pay pal
50 4
Struct uralNode
Ġret val
abc d
CP U
stre et
reduce d
ua lenv
ov f
ares ansui
885 9
Ġfab ric
ByTag Name
' ',
' \\
= =['
C ross
M gr
g us
i ma
Ġ layer
te t
>' \
as c
ge red
en force
pa m
sh ader
with in
ID DEN
RO LL
Ġg l
ĠB asic
ERROR S
cen ters
") []<
TEST S
au g
rm dir
Ġ'. '
AUT HENTIC
cip ient
OFF SET
Ġmulti processing
Embed ded
TIT LE
ELE MENT
determin e
ĠArg ument
H C
H ub
P AN
S olver
p ret
q ibuild
Ġ fo
re connect
get VarInt
data flow
py lab
Test ing
Ġf low
') :-
Lo cator
uni q
Time s
ay stack
Ġk lass
SH UT
Be fore
dl g
Timeout Error
Bit map
INIT IAL
choo se
F rac
u tilities
v max
test file
=< <<
[], '
In crement
host ing
by groups
De sign
SI MPLE
From Str
SET UP
79 7
SUP PRESS
>], )<
IGNO RE
mug shot
! ="
A E
B ra
T C
U NA
b right
e asy
g let
k in
m ro
Ġ Index
Ġ wraps
ue l
is atty
':' +
Ġs leep
mis s
Ġe mit
CT YPE
Ġ], '
Ġ], )<
Version Handler
Ġ[:- ]
present ation
Over ride
monit ors
F ig
f x
i cen
r ally
DE CI
Ġ[' --
bu y
(" #
sub command
SE PAR
)) ==<
Man ifest
':[ ,,
") ])<
iso des
uch er
spe ction
Cap ture
nat ural
adap ters
estimat or
'):- ,('
F UT
G UID
I CON
S ol
l ut
u sion
Ġ setting
Ġ generic
te rest
fi c
to ler
Ġs ol
max int
Ġ[] !='
sub title
sum mar
part ner
simple json
dat um
Exec utor
cus olver
COMM ANDS
GP IO
compati bility
predicate s
ValidationTest Model
,[] ).
tan h
C amera
D if
Ġ locale
Ġ workflow
Ġ Generic
al ker
li sion
nt h
assert Num
data file
BO OT
fil led
Str ict
den se
sig moid
Di Graph
Set s
ĠM O
wr t
hash ed
PO OL
Ġ[], '<
MP P
Ġn x
lower case
convert FromStr
tex info
submit ted
GR AM
sur vey
)** <
mongo db
relationship s
nick name
REMO VE
Ġorig inal
ĠOper ation
OTH ER
conne ctivity
=""" """<
i ris
j ection
m w
x id
Ġ lang
__ ('
vi dence
Ġ] ='
py file
() ],
am ing
form ance
Ġ' ):<
Str ategy
Di ag
Ġde tail
,] ))<
Ġsy m
Ge om
ĠAuth or
desk top
maxt ag
$ ')<
( ,<
= =[]<
C od
C ity
M utable
N ow
P USH
S ho
T TP
] ')<
Ġ window
st ory
id p
get list
set sockopt
str ong
ne ar
== (
() ==:<
Ġ[] ==:<
BO DY
Ġc at
AL T
Ġp ip
cp s
Fa st
TI FF
ĠB e
compo site
Ġiss ue
Ġblock s
Dele ted
,,,,,,,,,,,,,,,,,,,,,,,,,,,,,,,,,,,,,,,,,,,,,,,,,,,,,,,,,,,,,,,,,,,,,,,,,,,,,,,,,,,,,,,,,,,,,,,,,,,,,,,,,,,,,,,,,,,,,,,,,,,,,,,,,,,,,,,,,,,,,,,,,,,,,,,,,,,,,,,,,,,,,,,,,,,,,,,,,,,,,,,,,,,,,,,,,,,,,,,,,,,,,,,,,,,,,,,,,,,,,,,,,,,,,,,,,,,,,,,,,,,,,,,,,,,,,,,, ,,,,,,,,,,,,,,,,,,,,,,,,,,,,,,,,,,,,,,,,,,,,,,,,,,,,,,,,,,,,,,,,,,,,,,,,,,,,,,,,,,,,,,,,,,,,,,,,,,,,,,,,,,,,,,,,,,,,,,,,,,,,,,,,,,,,,,,,,,,,,,,,,,,,,,,,,,,,,,,,,,,,,,,,,,,,,,,,,,,,,,,,,,,,,,,,,,,,,,,,,,,,,,,,,,,,,,,,,,,,,,,,,,,,,,,,,,,,,,,,,,,,,,,,,,,,,,,,
Primary Key
Adv anced
YA ML
{ },<
Ġ rc
Ġ engine
Ġ payload
Ġ dim
Ġ resources
Ġ segment
de no
at least
ST C
Ġ[ ,],
un parse
(' ?
pa st
Ġ: ])<
Ġ' _
uni chr
Bo unds
(- ,)<
ĠF ilter
Exp an
chan ism
sensor s
integr ate
* ',
F ra
T ick
c and
c xx
e b
f atal
o de
v n
Ġ ll
Ġ property
on enti
ut t
(' ~
ati s
pro cs
inst anti
In dic
>" \
": '
so lete
rec tive
(- ,,
Ġde le
Image s
gre ater
17 0
failure Exception
packet s
clusion s
, {}
D UP
G ING
d pid
f if
v y
Ġ labels
Ġ actions
Ġ urlencode
re lay
de b
ab e
>', ))<
ase d
=" ".
RE PORT
LO T
fail If
Ġdata base
),( ('
TH E
FO O
Code c
API View
js vars
mount point
mean ing
Gui de
spe aker
caller s
Inf inity
autiful Soup
: ')<
J ar
S ID
S patial
V Array
_ =[('
d dns
s pr
Ġ delta
se e
in ch
on ts
st h
__ ),<
ex tern
no ther
'] =''<
app name
Ġ+ ,<
Ġ+ =['
Re q
EOF Error
Ġ: ,<
net s
exec utions
network x
'. .
dist s
Ġ[], "
TR UE
Ġde ep
ĠNot Found
Module s
Process Error
Enum Member
Elements ByTagName
morph ic
Ġreview board
Na N
mistr al
E cho
m nt
r q
Ġ Tr
', ,)<
un read
(' |
ver ts
inst aller
inter act
Data store
qui res
sing ular
Char s
PRO V
tifi er
Sub mission
HE IGHT
Ġ| <
Hidden Input
trail ing
danger ous
( ","
* ')<
, )))<
: "+
M AT
M argin
S lot
_ =='
c dn
c Pickle
d on
o red
u als
w ants
Ġ ':'
Ġ down
Ġ document
Ġ robot
an si
co urse
__ _
Ġi m
pe g
), [])<
Ġd j
write ln
Ġre cv
SE ND
ele ct
Var s
ForeignKey Constraint
Member ship
([,, ],
GEO S
HTTPS Connection
M Y
M al
O AUTH
d ce
d pi
d types
f an
h ers
l vm
m stats
m alloc
p ids
Ġ ValidationTestModelAdmin
re ferer
ati le
'} ))<
Ġ_ ,
am qp
ten ces
," __
use c
Ġt z
"] ==
Op ener
ĠP re
control s
Per cent
mi ted
loop s
Cont in
Phone Metadata
stre amer
deri ved
Emp loyee
I ENT
L ive
] [
Ġ collection
Ġ Delete
co ol
Ġ+ ['
Ġs c
RO LE
ĠP ath
her it
34 9
tool kit
cb c
Multi part
Su c
ĠL ib
keep dims
Ġtext wrap
distance s
Menu Item
({ '<
WAR N
diag onal
PK G
" /
: ")<
A SC
C ast
M NE
P kg
T ester
r spec
v mo
Ġ compare
ort ran
get ElementsByTagName
con tra
con currency
con sistent
data frame
Ġ] )))<
Ġs phinx
Re cipe
() })<
ca cert
>': (
([ ,],
call Later
Pro te
orm bases
inter action
File System
AP IT
Ġ+= +
Ġr val
ĠC lo
>: {'
full y
Number s
cell profiler
cell aneous
)] :<
>':' ',<
intern ational
subscri bed
arc role
DATE TIME
confirm ation
canon ic
Ġstats models
tel net
4 3
e dition
s dist
t lv
Ġ edit
Ġ answer
in ess
ar a
__ =['<
id ref
ex on
di ent
ri ces
=' [
ver ification
Ġ] }<
In v
min s
mock s
uni versal
trans it
32 9
spec iali
ry u
sen tences
auto commit
true div
indi cator
PA ILLI
)| (
moder ator
Freque ncy
CONTAIN ER
IDENTIFI ER
PAILLI ER
G ATE
M u
P ut
i j
r python
s tem
} )
Ġ Dict
Ġ widget
Ġ trace
un c
ab bit
os h
time d
mat ron
bo lic
St ation
ren derers
descrip tors
ĠP ack
men ter
BU CKET
Tag ged
Al location
ome tries
hex lify
Tree Node
angle s
failUnless Raises
car rier
Analy zer
bat on
behavi or
CENT ER
DJ ANGO
convertTo Str
S cr
T k
_ {
e ast
k vm
p ig
Ġ policy
ri ve
set Formatter
du it
pre fs
"," _
cor ner
Com ments
EX IT
dr v
22 2
sv g
Ġ} }<
='. '.
HAND L
C rypto
R F
f get
j d
v atar
Ġ ap
Ġ track
Ġ VERSION
st orm
ver ted
type id
str and
", )],<
py obj
ig ible
bl k
LO ADER
env s
CE L
iti ves
ĠB ytes
11 1
Code s
pkg info
22 6
Ġsw ift
private key
reference d
>} ))<
Cl asses
Has Traits
buff ers
PR INT
6 3
H IGH
I m
S UM
h uffle
m angle
p format
Ġ lambda
Ġ services
re views
ct s
qual ified
all ing
lib crypto
12 5
cache dir
iz ip
opt parser
As sembly
seed s
oc curren
tile s
'* <
Ġxml rpc
MEM ORY
Ġhome assistant
F riend
H md
P retty
T D
] \
k vp
Ġ Run
Ġ bucket
re ctions
in ference
ro unds
ch i
Ġtest ing
ig i
du al
late ncy
Ġd type
tag Name
pk s
US D
MA STER
Me asure
pol ler
20 15
ĠB lock
tw isted
Ġsw itch
One ToOneField
Ma de
virt ualenv
Ġ+'/ '+
TL V
RANGE S
CRY P
Cla use
DECI MAL
atis fi
) ><
, (<
= (,),<
d ut
e pi
x data
Ġ New
Ġ Domain
de bian
er vice
int f
time it
() )]<
Ġ[] ==<
group by
tra ces
sign up
debug ging
mer chant
mod ifier
EX PE
TEMPLATE S
ĠN ull
lab eled
Mis cellaneous
Package s
ĠAr ti
associ ation
Dest roy
equ ation
Ġnamed tuple
ford ance
atex it
- '+
H DF
H orizontal
j ip
k args
Ġ buffer
Ġ protocol
Ġ loader
in map
Ġi mpl
Tr ip
str at
attr getter
comp act
cal ib
Ġp k
link er
ph ys
"] []
Un ion
AM F
ĠR el
Ġpre vious
Wr it
cost s
mm utable
micro seconds
accum ulator
prim itives
Ġro bo
Comparison Test
_ (,
d vr
m ate
p itch
u u
Ġ String
Ġ arguments
Ġ Stream
ur wid
en velope
col on
pre process
RE AS
AT T
Ġd s
St re
Ġ- ))<
cor relation
im ize
File Field
sy mpy
show Indent
select ors
contr ibute
Position er
=* <
ĠUn known
meter ing
Den se
',,- )]]),('_
interpol ate
smo oth
ovr Hmd
Ġbr anch
ervice s
/ .
W D
_ ()<
b m
i contains
m ip
ti er
ate gories
pe dia
(' ../
') [].
==" ":<
ĠC lass
MA G
contin uous
web page
multi plier
ill ing
PI X
As pect
ĠRe ad
Sy m
separ ators
Bind ing
MULT IP
ABC Meta
xls x
assertNum Queries
vmo ps
H H
L AR
b ul
h sm
j i
Ġ nu
Ġ Version
al ink
el ts
no wait
set Attribute
et ing
Ġ+ ])<
Ġf mt
Ġc or
Res olution
inter sect
ref count
FI C
ĠI tem
Client Error
New Id
Ġimage s
lif ecycle
Ġtr ac
Scal ing
PUB LIC
Thresh old
( {},
N EXT
a cls
n col
(' &
'] *
out going
(, ).
LO OK
Ġr x
sp here
coun tries
Ġ** )<
ĠL a
Sh ip
Ġsy mbol
subtype Spec
Ten sor
equi valent
? ?
G ame
P ING
S cheme
u fo
Ġ dep
or i
er os
el y
__ '
ck er
data center
Ġs lug
node Identifier
Ġ[] ]=
([ ]))<
red dit
Data List
ĠM erge
Fact ors
URL Field
As set
trig gered
SIG N
Edge s
abstra ctions
REF ER
adap t
BL ACK
Parti tion
CHAN NEL
Der iv
A ff
A nonymous
R oll
S pan
b isect
i ser
r ub
s par
Ġ tensor
IN V
or acle
at tack
pe ers
res cue
=' {}
'] !='
vi z
Ex pect
sub sample
Ġre ader
Ġf inal
Ġc c
SE CTION
lu igi
":" ",<
sk y
Ġm ask
Ġa le
Resource OwnerAccount
Ġl xml
SC REEN
imple mentation
Network X
bra in
lv l
ĠPer son
ĠAuth enti
. '+
A udit
D ROP
J ava
L B
g ather
l g
v d
} ))<
se ns
ve st
Ġs lice
create Element
sub plots
join s
Ġre gex
ĠS QL
Com bo
Ġa vailable
Ġn on
80 4
aggreg ation
sto res
evalu ator
SCA LE
EXIST S
Elem Number
thick ness
nonlinear ity
DOCU MENT
SEPAR ATOR
/ ")<
R ank
o S
o i
v ul
Ġ Instance
Ġ trait
in tent
on a
la ci
ta pe
write String
mb ic
Ġt ar
PE G
Ġkey word
ps p
web socket
Ġw atch
__, ',
sv d
backup s
ga ussian
ĠPy Qt
ĠPermission Denied
Ġsq lite
PLAT FORM
" ')<
) "<
d ts
k u
Ġ Ch
Ġ OptionParser
re ach
al titude
no tice
is co
sh el
mat rices
Ġs core
,' ',
max Diff
() )+
read String
min i
main ing
Ġor g
stream ing
Text ure
Text TestRunner
the type
Gr ant
Check ed
feed s
("/ ")<
floating ip
BIT S
SCHE ME
movi es
Predi ctions
RET URN
" ),(
m arg
s mb
x r
as ize
ce ipt
'] [:
Ġ+ _
append Child
aut op
Ġd river
check box
dis position
Str ip
Ġp s
exten ds
gen es
chunk size
Fil ters
Ġconfig uration
fit ted
free zer
revision s
90 26
70 69
tar ball
clip board
LIC ATION
Ġ+"/ "+
Fin ished
ei gen
PROG RESS
G aussian
N d
f red
i pe
i python
o logy
s as
t min
Ġ ui
as ser
en ded
ex empt
li gh
mo tor
), **
et cd
ne ur
() )[]<
du pe
Ġd if
api key
ĠS to
En g
Ġv t
web api
TA IL
plan es
COL LE
Ġ& =
dims huffle
inher ited
Syn chron
opa que
C ls
I FT
a ware
x m
Ġ etree
re lev
ame l
pa used
po cket
() ._
Fi re
om it
service chain
arn ess
RO UND
Ġb ra
(,), )<
Config ur
11 5
80 80
SA VE
aa a
Comple tion
Ġsalt testing
trun cated
Virtual Machine
simil ar
SEC URE
amb da
lose Connection
B D
O DS
Q ui
R aster
^ \
c lic
h unk
p ct
Ġ dependency
Ġ calculate
as te
ame ter
', {}
ap se
bu sy
comp uted
cur s
Ġf ont
Ġas ync
={ })<
CO ORD
Base Handler
Ġe p
En ter
iz able
Ġr pc
10 9
face ts
':"' []
86 01
()+ '<
fra ction
Obj Id
dash boards
SHA RED
Trace back
sal tenv
SECON DS
clas sic
' ')<
I mg
L ate
c tive
g if
h base
l xc
n da
u name
x b
Ġ lo
Ġ Storage
Ġ builtins
ur s
', ),)<
get Dao
cl t
from list
not ation
== :
object Type
min idom
start time
base url
No tify
>[ (,,
Ġg c
oo type
Ġa fter
Ġn ltk
Bu f
itor ies
EX TRA
LOG GING
Struct ured
rv s
Be havi
ĠE mail
retri eved
Ġframe work
az im
ADMIN S
Sha re
>',, -
Sen der
confi dence
NOTI FY
estimat ors
IMP ORT
A nother
G yp
P seudo
T lv
d bo
j uris
k appa
r int
Ġ ;
Ġ unique
Ġ timestamp
Ġ provider
Ġ Address
Ġ typ
on mouse
>' (
co sh
res cale
no thing
fo reground
per manent
ca re
lu on
User Dict
send all
simple filter
SK IP
Mod al
tin y
Ġinter face
ENA BLE
Blue print
SHO LD
DOT ALL
archi ves
isol ated
Attach ment
Boot strap
REAS ON
) ',<
- ]
7 1
B G
C r
D H
D Layer
E tc
W izard
g pio
v rf
w el
Ġ collect
ex posure
un bound
", ),<
pr s
Ex peri
til t
>" _
num Features
Ġ' ',<
dis pose
Lo cale
pi der
(,, ):<
FOR MS
SER IAL
WOR DS
consumer s
bi os
HEADER S
mob ber
extended VersionHandler
asyn core
Sec ret
zoo keeper
DEP TH
wild card
Abs olute
Cod ing
A lert
b k
g mtime
s ses
Ġ Mo
Ġ fail
Ġ properties
Ġ oprot
re raise
file Path
is y
str ument
(" ",
per sist
per sistence
Test Mixin
sub classes
AT I
Ġ' ')<
==' .
Ġf older
LE T
da v
Lo ok
logger s
top level
rol led
Ġk aresansui
Ġex pect
bit depth
Ġiter able
expression s
alloc ated
Attr s
under line
>- :'<
well s
numer ator
invi te
. ',<
B RO
D ST
D aemon
E q
P lain
d ap
e ig
h am
l da
Ġ Case
Ġi prot
,, ]<
obj ec
import lib
BO ARD
read ing
min imal
start Time
comm unity
Ġre quired
Ġf s
da ily
Data Store
child s
List s
(,, _
>'] ))<
Sub tensor
)] +
org an
Ġret ry
Method Type
Ġz ope
DA SH
trun c
dao List
MID I
Moved Module
WINDO WS
Bal ance
nowled ge
RESER VED
2 70
U sing
Y E
Ġ point
Ġ mon
Ġ prompt
ge ometries
th unk
op name
url split
cal ar
') !=
Ġ- )*
http d
Ġb est
ĠA uto
stack s
Wor ds
mk temp
perm alink
Update d
We ak
Float ing
AUTH OR
ĠH y
FORMAT S
Del i
)& <
mix er
attribOn mouse
LICE N
B lack
b vl
d z
d ro
f onts
Ġ To
DE S
id a
',' ..
par dir
pl ur
am ma
') })<
RO UT
PO S
Ġg cloud
Object Id
graph ics
vo cation
Ġtime delta
Sh ift
lear ner
predi cted
Ab ort
Ter min
friend ly
Integr ation
THRE SHOLD
pocket Materials
C Readable
E poch
F REE
G G
M ob
T MessageType
U ST
Ġ ac
Ġ ax
Ġ Content
Ġ builder
Ġ ryu
on ame
ti de
ad m
is abs
'] ={}<
'] ]=
il ation
que sted
sh aring
config file
Ġc rypto
pi cture
LO Y
Model Object
its une
10 44
Ġk itsune
Column s
multi ply
20 48
sw agger
gra in
interval s
='/ '<
Sto ck
Ġfilename s
Attr ib
recur sion
spect rum
COLOR S
CREATE D
DIRECT ORY
Face book
Ġcell profiler
OpenStack Cloud
STA MP
asize of
CReadable Transport
2 89
> ('
A ge
C art
F AL
M IC
Z IP
[ \
p nt
Ġ Code
Ġ short
Ġ factor
Ġ worker
Ġ Ne
Ġ Profile
re ward
re jected
as sis
pe ts
,, '<
test app
test utils
up d
',' \\
ver sioned
Ġ] [:
Re servation
fa cade
(, )])<
sub parser
']= =<
ĠS h
FI XT
(* [
"% (<
mod ification
Up loaded
Ġg ot
TR ACK
40 3
11 45
Ġh ist
AS SET
Block Range
Ġsy nc
Ren ame
>'], )<
GRO UND
writeField Stop
Metric s
silent ly
readField End
readField Begin
readStruct End
readStruct Begin
writeStruct End
writeStruct Begin
DISA BLED
FIXT URE
P LAY
T x
k r
p si
u v
v hd
Ġ 5
in string
ST D
(' ',<
mo ving
from keys
Ġin valid
age nda
form data
Ġre dis
St atistics
cor der
No va
List Field
Un supported
Mock Http
Comp any
Cre ator
20 16
TI ES
rep lication
Ġ** ,
APP LICATION
Ax es
UNI X
Dest ination
VERTI CAL
MIX ER
ĠBytes IO
EXPE CTED
4 66
C uda
a as
b age
c z
l h
Ġ }),<
Ġ threads
Ġ mpf
ue ss
el astic
con duit
'] ="
il li
cur sive
"," %
ber os
ĠS SL
CO VER
Ġ% '
close st
Ġb la
Un der
Do cs
Text Command
Ġdata set
dec ryp
Pre sent
rad i
ram disk
74 5
ĠIn tegr
mut ation
Tw itter
black list
feat s
ĠSe arch
ĠMe dia
Coord in
Ġlin o
abo ve
Pagin ator
O NT
W F
e a
g v
g cc
q i
Ġ Pro
Ġ right
Ġ Proxy
Ġ compat
lo meter
et s
=[ ,,,]<
ta ken
po res
__( ):<
du st
pre ce
line sep
']= ='<
split ter
String Type
12 1
service obj
Ġ> =<
mis match
spec ification
mar ket
Or th
ĠB ar
cei lometer
Ġcon dition
Ġpre di
Ġ} ):<
Work space
tk inter
adj usted
Produ cing
gau ss
PROPER TIES
elev ation
symp ify
onenti al
- "+
8 76
= ,**
B cfg
a ur
c StringIO
i q
i co
o a
Ġ position
Ġ Input
Ġ changed
Ġ HTML
DE L
ob solete
len d
out box
ten der
([ -
mock er
check ers
Get Service
Ġ!= -:<
fra gments
aggreg ated
dn str
,],[ ,,
Load Bal
CA NT
transfor med
Negative Flag
Ġrdf lib
stick y
RIB BO
Indic ator
7 100
F AT
M igr
a val
i ven
r key
t rend
Ġ fa
Ġ Parser
Ġ pair
Ġ proto
Ġ mongo
le ad
ST AR
co bj
op ponent
ab br
to s
class def
'] }
os ort
out f
bo gus
sign ing
AC TER
strip ped
IO Loop
av es
ĠRe mote
99 6
tar file
Cor r
FUN C
Ġmigr ations
CommCare Case
ĠProtocol Error
! '<
; ')<
> }),<
h osted
n is
p vals
s lic
w msg
Ġ fun
Ġ stderr
Ġ Line
Ġ Function
Ġ Job
Ġ enum
for mer
ter se
up loader
(" '
bo ts
Con cept
Con tour
new data
ang ular
Ġ: {'
Ġf lavor
(), [])<
Op timizer
Get Value
DI V
struct ures
ĠT i
rt d
TA B
na vi
Reg istered
Ġzip file
season al
Public Key
princip al
' "%
P G
S peed
c ance
c ators
g ies
k ing
Ġ par
Ġ align
se x
ro c
si cs
RE PE
su ms
SE P
Di rective
Ġt ab
core api
>[ -
save fig
Ġg luon
bar Ds
Ġa ff
flow Error
ĠF loat
mk time
ace ncy
ĠH as
crip ts
follow s
Ġz lib
DELE TED
METH ODS
Ġfin ish
([,] ))<
mn ist
fut ures
@ %
C ycle
E VAL
g ae
g rouped
n try
r file
Ġ he
Ġ Change
st able
as in
ro gate
ab gp
db m
BO OLE
om orph
ON ENT
den ied
AL ER
File Handler
copy file
ir cle
Se conds
IP Network
ĠD X
':[ ('
Task s
gl ue
bit rate
Ġst ar
Ġ[:- ],
84 7
Host s
SY NC
Ġco uch
Ġsh utdown
Ġfe ed
mut ate
accep ts
Ori ent
Ten ant
FIN I
tur tle
permit ted
estim ated
A U
B US
D N
L arge
P l
T REE
W ave
b is
Ġ arr
Ġ entries
Ġ Location
in ten
or ing
if ile
di ter
assert Less
time series
ta iled
Re tr
pre ds
ca fe
>': ('
Res olve
SE QU
']= (
inter rupt
Model Predictions
Ġ> )<
User Profile
Set Value
place ment
contin uation
,_ ,_
View er
HTTP Exception
Ġa w
attrib Id
web hook
Desc r
Ġ+" _
ĠR est
Template SyntaxError
TIME STAMP
[,, ])<
CHAR ACTER
tri als
NC Y
smo ke
Grad ient
icen se
F R
K IT
_ '):<
f ancy
g ce
Ġ tp
Ġ Product
re do
>' ),'
le m
li mited
Re fs
Ġ[] >=
(, )]<
Ġf h
ĠS ocket
64 4
Request Factory
Ġpy tz
ĠC all
Ġret ri
>'), **
oly mp
AUTH ORIZ
sim run
Identi cal
SM B
Target s
Depen dent
coordin ate
inject or
identifi cation
REPL Y
QUO TA
TIFF TAG
/ (
Q Label
b ut
v bd
Ġ nt
Ġ author
Ġ Column
Ġ js
Ġ apps
Ġ Default
Ġ disable
st g
Test Scheduler
comp utation
base path
": _
load balancer
OR IG
sig ner
Data Error
bin ascii
10 2
Se quen
vo x
MO VE
KEY WORD
Per m
Trans late
FOR A
Check box
EL LOW
Exist ing
Ġ[:- ]+
Ġdi magi
theme s
Xml Mapped
Ġco cos
ros py
Zero Flag
Positive Flag
Eval uator
CannotContain NegativeFlag
CannotContain ZeroFlag
CannotContain PositiveFlag
heap q
UNIT S
bsl pdu
Pol ler
Separ ator
toler ance
FAL SE
XmlMapped EnumMember
" ==
" )+
B ag
i als
p z
r dtype
s que
w info
Ġ Order
IN CLUDE
mp o
co w
get Value
no body
di vide
set opt
ta rea
Ġs ingle
sub module
Ġre p
String ObjectPropertyType
GE ST
Col s
To St
emp loy
ĠP a
For um
replace d
>'] ='<
LI G
over all
skip if
Th is
30 18
sock name
)] .
cip hers
single ton
COMP ONENT
Ġdoc test
CF G
Den ver
Rest ore
}/ {
Activ ation
azim uth
4 56
I ZE
P ie
h l
Ġ complete
Ġ hosts
Ġ commands
Ġ helpers
st ors
ar ri
as p
as ing
':' .
'] :
In verse
Ġ[] [].
read cr
ac ted
Ġd rop
query string
') }<
') [:
pos able
ep ub
Get Additional
Comp iled
Path Spec
ĠD jango
ĠB ack
Sub st
Ġtime zone
TO M
Ġno tify
Dis patch
decor ate
SY M
person al
Jo int
Byte Size
((,, ))<
PH ONE
Mark up
deno minator
% %
+ ')<
/ "<
B tn
P rec
R ational
S parse
Y ELLOW
a fi
a group
d set
d os
e fficient
j t
j peg
u ck
v ary
w est
Ġ jobs
Ġ thrift
re voke
in tron
or tion
al let
no p
th rottle
,, ,)<
set Enabled
=[ _
pa ging
sh ards
Ġ+ ("
col lision
model Object
sa as
write s
ds k
mb id
Ġ" *
lag s
Un checked
64 8
":" +
men us
LI BR
select able
EX TER
URL S
non existent
Qt Widgets
Ġl fs
vari ation
0000 0
ja il
hdr s
firm ware
Ġdoc utils
memo ize
Ġinput s
SCA PE
Vari ant
thro at
olymp ia
EXTER NAL
2 34
2 24
W ire
b rowse
f wd
g ad
k m
m ang
p added
s reg
u time
Ġ control
Ġ accept
Ġ translate
Ġ take
st udy
si bility
ma cs
is subclass
app able
pl ates
Ex change
": },<
([ ]),
>_ ('
Ġc v
Ġc ancel
hand ling
Ġb ii
spec ies
En sure
Ġpy face
ĠC lear
URL Error
Service Error
ĠF ound
consu med
builder s
Ġun ify
follow ing
pipe s
Plan ner
IF Y
=[] *
balance d
Help Formatter
ĠTemplate SyntaxError
Tabular Inline
),(,,),(,, ),(,,),(,,
WBEM STATUS
Ignore Arg
+ (
H dr
K ER
Q Widget
Q MessageBox
R ATION
S ql
] '<
b ag
c isco
d q
d fa
d ps
e ze
t age
Ġ ask
Ġ deploy
Ġ shell
Ġ geo
te ts
me nd
IT ER
ge bra
fi ve
('< /
'] ],<
'] [])<
sh lex
'} },<
=" ")<
(, +
sub path
json ify
top osort
colle cted
are r
Ġ[- :
component Type
30 9
cent ro
indi vid
deli ver
Regex p
Ġinstance s
COMM ON
trigger s
Engine er
buff ered
',,, '
Dimension s
ĠUnicode DecodeError
REGI STR
sibl ings
Equ ation
BOOLE AN
Ġbii code
C ri
S Z
T X
V ec
] ).
b x
b cc
f re
f use
i el
n bytes
y o
Ġ describe
Ġ olympia
if e
get s
ex if
test vars
is son
out ube
() [-]<
(, )]
Ġget opt
parse String
Ġc y
Ġas sign
pos ted
match ers
Base Model
lu a
ĠA sync
ime n
find All
cursor s
25 4
PAT CH
Pre ference
)- :<
security group
17 3
Ġ& <
Ġdi rection
84 9
gb p
DU MP
Style Name
Min imum
em r
Ġmo z
Ġbin ary
Ġbin ascii
CATE G
contribu tion
/ ',<
E mitter
H ard
K VM
d oll
l w
m ne
v v
Ġ round
Ġ facts
re du
in jected
or a
an h
': (,),'
app ers
cep ts
Ġtest Get
fo lio
user info
In box
pre tend
ph l
Ġb its
ĠM in
led ger
For a
Comp ile
tran script
Ġw t
au gment
boo st
Web Socket
pas sive
compo und
','_ ')<
ACTI V
FE ATURE
Pop up
VARI ABLE
Cat alog
7 15
A vg
Q P
X Form
] {
a ces
f ld
l group
s outh
} ')<
Ġ po
Ġ Host
re serve
co cos
ex ts
=' __
',' '),<
che f
Re moved
RE VER
Ġre cords
work bench
gin x
tag Set
pop ulated
sort ing
month ly
Ġdi c
Ne igh
SSL Error
OB J
SIG INT
=* (
Ġtask s
sli vers
combin ations
ino tify
Mes sa
Ġsum mary
deriv ative
restri cted
GO OG
(", ")<
ĠDist utils
SING LE
poten tial
Tagged Item
+ *
A udio
N G
T or
Y ES
a h
a graph
h ol
i am
n br
v b
v able
Ġ def
Ġ Options
Ġ Transaction
re base
ra id
ys cale
da mage
im mediate
De v
ep g
Parser TestCase
Protocol Message
bit coin
Open ID
decor ated
Ġsy n
]+ ',
lim iter
copi ed
Dock er
archi ved
VARI ANT
LAR GE
) (<
K B
P hysical
b ble
c w
w ik
Ġ Entity
re named
ur andom
ame leon
', ),(
>', (('
,' --
() )),
BO UND
Ġc ard
') ),(
den ted
lock file
ĠS ign
super class
Ġb undle
bar s
ĠP ub
down loaded
struct or
Man ual
EX PER
MO DI
PRO DU
Inter ceptor
force d
au di
15 54
chain s
ĠCommand ExecutionError
VAR CHAR
Arti fact
chron os
atist ic
wave let
craw ler
Ġidenti fier
CANCE L
Qui ck
2 19
8 22
A st
H IST
k Window
r script
s un
de activate
al ty
get size
get mtime
ol dest
'] ,"
qual s
Ġ+ ],
max iter
node name
od d
late r
RE PO
Ġ* (-
ag ain
pk l
'], [
cy an
attrib Fill
gra ce
success ors
([' --
VERSION S
MI B
Host System
termin ator
fast q
sol id
repe ater
XY Z
RESULT S
who le
homo gene
ALG OR
AUTHORIZ ATION
EXPER I
L ambda
Q Icon
U INT
k top
Ġ ids
Ġ router
Ġ links
Ġ person
Ġ complex
DE SC
co vered
ex cl
Ġs cale
line width
mple mentation
Ġc d
ow s
Ġ" ".
12 9
Ġb asic
Op Code
timeout s
search er
LA l
sp ell
16 0
repo dir
)* )<
Ġsub ject
FOR CE
cent roid
We ek
Ġpre dict
repe ti
inv itation
Args Command
perform ance
dri ll
orph an
Integr ityError
equ ip
Ġcloud cafe
Sur face
vic tim
epi log
> ><
C MS
D uplicate
W I
b ur
b mp
p ression
r lib
s ar
s park
v ot
y c
Ġ mp
Ġ extend
Ġ rules
Ġ urlopen
Ġ weakref
ST AND
ne gate
text s
Re active
Ex c
ind x
check point
Ġc oro
') (
') ),)<
AL Y
ĠA zure
Config Error
graph s
EX PORT
rec sys
web dav
Connection s
He alth
pick s
Process ing
dra fts
Lookup Error
La unch
ALGOR ITH
! "<
) }
2 32
F K
O ID
T N
Ġ have
Ġ which
Ġ authenticate
re at
le ment
ar ms
ge tr
el ist
un lock
test user
Ġ'< %
ob servations
ol ation
key board
'} ]<
() !='
sa les
ang ing
Data Set
Ġt f
Ġg zip
ĠC al
Client Factory
exclude s
Clo sure
ĠH AS
segment ation
REC IP
123456 78
reen as
sibl ing
DRA FT
pex pect
AUTHENTIC ATION
2 30
A mount
F req
F lat
H ar
I A
I o
L ed
R PL
S alt
a way
b db
e ctions
k now
n ans
q isys
| '.
Ġ try
Ġ ts
Ġ directory
Ġ contains
un install
li ze
mo tion
out side
ip pet
field names
du lo
we apon
Ġor d
root Dir
List Model
send Data
pub date
tifi cations
EN UM
,: ]=
IC MP
tor rent
Window Command
Ġ>= (,):<
ĠO ver
rpc api
mu sic
()+ "
ational Error
"" "
neutron client
>'), ),<
[- ]
MESSAGE S
Ġglob als
appro val
(': ',)<
Rot ation
Ġscr apy
instanti ate
sth rough
ASC II
LICEN SE
) ','
S rc
n py
s np
Ġ ta
Ġ depth
Ġ sess
re new
ch ase
ch own
Ġimport lib
and roid
is omorph
ms vc
py pi
(, )))<
np b
Ġd a
00 6
ĠS pec
Ġt b
Com b
Com bin
fin alized
admin istr
Config File
Ġr s
ĠC ategory
>') })<
)> )<
Or More
From File
indent ation
reader s
'^ [
green let
Ġ:" ",<
REG ION
Wh en
Ġsn apshot
Subscri ber
AVA ILABLE
Ġdele ted
ĠAuthenti cation
sque eze
) ;
. ",<
8 80
E st
I X
L ab
L oss
P an
g ml
t Tag
Ġ metric
Ġ lazy
Ġ partition
Ġ vim
re cover
in correct
er m
as sertion
ti ds
en ame
el rod
ap t
file list
et ter
ance stors
ise d
() ,,
our s
Ġ' {
dis py
pri ces
ĠS oft
Ġp ending
File Object
GE N
number Of
>') ):<
MO USE
([' -
cat s
Page d
external bytes
"], )<
Ġnova client
neigh bo
CLO UD
LANGUAGE S
wire Log
craw l
LIG HT
Reactive Test
' _
S ame
f ps
o gr
Ġ defaults
Ġ Build
Ġ listener
DE TAIL
at tended
ar ound
tr c
'] =['
Ġ+ ),
"," __
"," ",
back ing
Ġd ay
Ġc gi
Di v
Key boardInterrupt
pack aging
Model Serializer
User Name
ĠC rypto
sp d
Ġh ex
Al loc
img s
any thing
qs l
Change Set
Ġread line
Pri mitive
90 9
tim ings
dl r
LINE S
CHAR S
Email Field
ONG O
photo s
=), []])<
conflict s
Expi red
HORIZ ONT
canonic alize
Deli very
2 84
G row
K W
a head
g al
p val
t te
Ġ IN
Ġ Ver
Ġ controller
Ġ alpha
Ġ counter
Ġ calc
Ġ extensions
in files
de queue
st aging
>' {
mp eg
ce d
lo re
return ing
ap ache
Ġin dices
>', ('
ra cle
'] -
pa id
mat vec
Re ason
>" .
RE LE
pec an
>': ['
lib name
sys path
') '<
Co efficient
ID LE
Par agraph
last ic
ĠC a
LI VE
Ro und
fore cast
slice d
Ġex pi
38 004
Recei ver
division s
hp elm
restri ct
peak s
Experi ence
LAl chemy
' ',<
, +
C DF
W iki
c nx
e py
f ec
s py
Ġ mail
Ġ vars
Ġ Lock
Ġ serializers
as min
', ,<
get tempdir
is ters
", _
fo od
user data
Ġre store
') ==<
Ġ* )^
ME D
SE G
"] ):<
Ġb utton
IO CTL
desc s
SH E
SH IFT
proto buf
Multi plier
PA IR
Sh utdown
Seriali ze
HOST S
55 5
Hash es
ĠNo tification
prote ct
Cor o
scr ub
ĠPy thon
foot note
Push Button
CLOSE D
Tex tarea
autom atic
C ron
F u
G UI
L T
Y aml
f lux
s atisfi
w m
Ġ le
Ġ updated
Ġ attach
re con
IN SER
name nt
un supported
ab et
time line
Ġ] })<
[], []
raise it
print ElemNumber
group dict
Ġc vs
root Class
En crypt
ĠT ree
BU F
(- ,),
tran sitions
rest plus
Create View
arti facts
AS N
umb na
Ne utron
My SQL
cancel led
standard Msg
combin ation
altern ate
>> ==<
ĠOper ationError
chro me
Spike Train
Legendre X
eros pike
Uploaded File
Ġwt forms
GOOG LE
= )),<
B ulk
S am
g ree
p has
Ġ methods
Ġ versions
Ġ ProtocolBuffer
en s
ab sent
py js
com mend
"," \
form Data
Ġ- >
De ps
hash er
IO S
ha ir
fetch er
Function Type
scri be
repeat s
Comple ter
Ġdate util
communic ation
123456 789
wiki pedia
Typed Field
NOTI FIC
devel oper
Try Merge
Bot tom
compar ator
depart ment
Optim ization
HORIZONT AL
1 40
6 00
e es
f fordance
h cp
j unk
p res
s le
Ġ Do
Ġ Point
Ġ seed
de tailed
], '
Re c
lib mp
pi le
module Name
FI ED
ĠI S
Ġkey words
mt u
Run Test
Al ways
Map Entry
Open SSL
icon s
ticket s
Vis ual
fac ility
bsl ci
spo tify
ĠClo ud
Mob ile
. "<
1 33
? \
A I
A W
C LS
F s
M ONGO
Q Size
e ch
g rep
m cs
p aper
Ġ del
Ġ pr
Ġ access
Ġ Le
Ġ question
Ġ Collection
on delete
co ffset
fi ts
', )[]<
__ ':
get sockname
ter ator
di es
bu ms
log it
== -
am ble
=( ("
Ġt urn
ĠC ur
ĠP ass
Group Name
FILE TYPE
SP lugin
safe string
roll ing
Ġcontext manager
Rel ative
89 5
cri tic
Tool Tip
ET CH
evalu ation
OPTION AL
Sli ver
Skip Test
Spa cing
ACCEP TED
Watch er
hue y
fla kes
Ġflat ten
Suc ceed
relev ant
HIST ORY
2 25
M ER
P ref
T K
] })<
c ds
k c
l um
p thread
Ġ permission
Ġ only
Ġ variables
re index
in complete
ti e
nt he
), _
pro v
add Collection
== ,
In struction
max val
sc li
auth id
lib c
Ġ- ):<
api proxy
AL READY
we ather
LO OP
be a
Ġv o
ĠTest Failed
SI DE
MO NT
og onal
(** {
mi lies
sock s
Ġu fora
rm se
ific ations
Sh uffle
Port s
',[] ):<
devel op
anc ers
juris diction
A V
D raft
T AL
b lo
c itation
d ings
n ight
p join
s ls
w file
Ġ failure
': (,),<
ut coffset
ck s
from subclass
':' '}<
bu til
== (,)<
__( ))<
Re size
new name
Field Descriptor
debug level
wr appers
assertRaises Message
Me di
,[ '<
origin s
Al tern
head s
rate s
With out
)), '
39 9
Role s
Ġq isys
tick labels
week s
dup licates
Ġ[:,: ,:
DA O
>"% (
wind ll
DEP LOY
ENO ENT
Ġmay avi
Rob ot
Orth ogonal
T ile
T Protocol
U i
f ro
r ans
y t
Ġ ws
Ġ when
ch ol
db c
BO OK
Ġ: -
>': [<
doc format
(), ),<
ĠS elect
color bar
ci pat
Ġr ally
identi fy
Sub scriptions
Ro om
Inter pol
Line String
Ġo ic
FLA V
SIG TERM
Load From
tick er
ĠUn supported
ATOR S
thumbna ils
Authenti cated
Ġrel ation
Manage d
Cred it
Warn ings
Ġfo am
LoadBal ancer
B order
C OR
F old
_ ,))<
a id
a pe
a void
p ca
t ings
u short
v cf
w arm
Ġ ct
Ġ la
Ġ application
Ġ layout
NT P
)< <
>' ))
en to
el igible
ch assis
(' =
set timeout
is space
class ify
ne goti
Ġ] [],
sc mr
Ġ[] )+
=" -
od m
Ex ceeded
Ġc andidate
var names
vel y
remo tes
{} /
PRO TE
(- *
document ation
Call s
)/ )<
ĠL ink
17 7
vari ants
Max imum
Site map
Ġfe atures
ĠRequest Context
chrom s
Pair s
subscriber s
>':[ ("
datasource s
postgres ql
CONST ANT
Called ProcessError
speciali ze
Messa ging
3 56
M F
o dict
s it
Ġ tenant
Ġ sequence
sel l
or al
>' )==
ar ma
__ =(<
test me
key map
=[ -
do it
add To
'} }
BO LD
sa hara
wri ters
Ġre v
Lo ose
su i
Data Browser
connection Lost
Ġpy copia
Ġde cl
('. ',)<
recei vers
Boolean Property
Ġch errypy
ANG LE
(". ")<
Mis match
Ġpop ulate
inser tions
)<= :<
BOR DER
distri ct
ĠFe ature
PRIV ATE
, ',
Q Action
X I
b illed
e vidence
n ics
o ob
r type
x w
Ġ ',<
Ġ State
Ġ fill
Ġ Util
le ak
co lored
un subscribe
os p
os x
Ġs pa
Ġs ocial
Con version
ac ct
Ġd ummy
call ing
Ġos car
AN ALY
DI ST
Hand ling
ĠP IL
sp ent
Comp ar
Ġh igh
RA DI
aggreg ator
,],[ ,],<
Ġch rom
prob ability
Pick er
Param Stmt
Ġbe gin
28 40
STATIC FILES
(,- ),
stand alone
Rpc Request
[,,], [,,
choo ser
Des ktop
bor row
Slug Field
transit feed
ĠPack age
, ))
7 20
N P
N aming
c val
i id
p sycopg
Ġ language
Ġ grad
Ġ XML
Ġ targets
Ġ Extension
Ġ archive
sel ler
er tificate
get argspec
un cer
ad verti
int ree
=[ ,])<
lin enum
(" ="
Ġ] >
log pdf
us b
ho o
sub commands
method Name
json rpc
dis crete
Co v
nu mp
"] ),"
mon ic
block device
==" -
Ġpy mongo
US R
(,, ,),<
VER TEX
IP S
ĠT w
norm case
25 00
commit tee
20 12
sent s
mask s
Dis able
pkg name
pen ded
unpack ed
fr uit
Tool bar
Rest ri
Ap pro
ĠGe o
occurren ces
Ġpredi cate
6 78
; \
H int
M i
b se
g ons
Ġ `
Ġ cal
Ġ argument
re tention
le y
un expected
si ent
set Value
up time
,,,, )<
=" ",<
Ġc irc
lock ing
Par allel
Un ary
Un defined
site map
Log ical
down loads
Se maphore
sco ped
20 10
20 11
lication Exception
14 22
Check Box
56 07
rep lic
bit rary
Ġ[-] +
70 9
74 53
sur v
Ġ[:,: ,
ĠSet tings
),, )))<
BUFFER ED
tre at
BL ANK
ĠMe thod
cum ul
loadTestsFrom TestCase
Declar ation
: "
A ffordance
F lush
L inter
O LD
a io
e type
j p
Ġ red
Ġ endpoint
Ġ Graph
Ġ editor
Ġ need
in cl
ex ports
ri an
la x
'} }<
ho le
new Item
fun d
([ ("
man ufacturer
ref er
wa ke
fin diter
Get File
iz es
Ġk ill
Ġm ne
Sub set
vis py
FOR WAR
Ġsup port
AB CD
Ġgoogle ads
Sup port
Sequence Equal
wt forms
TCP Server
Ġchain er
trac er
MARK ER
El lip
Require ment
Glob als
115 79
A cl
[ [
_ =''<
c sc
c pi
l legal
p ulse
Ġ parameter
Ġ ParseError
re ceipt
st ix
at las
ad der
,, -
age ment
um bl
fo x
ip addr
Ġ[] )]<
ca ffe
length scale
auth z
auth role
Ġre name
']= {<
>',' ')<
)) *<
equal ity
ĠC l
Log s
Ġv ol
10 86
Image Field
gl Get
TER MIN
fit ness
80 30
Update View
na ive
Box Sizer
Ġcon v
35 9
75 8
suc ceeded
ond on
hard ware
Mix ed
bib lio
rub y
':"'[] '"}),<
ĠDX HTTPRequest
B el
F inal
c visual
n ginx
r ts
r abbit
Ġ Provider
st alk
ti ght
tr unk
ut ations
no minal
Ġin ternal
args ort
app server
date fmt
sub tensor
Co ef
project Id
TestCase s
Par sing
cmd class
mis ses
ep isodes
change log
ĠC ache
>'] },<
lang s
sw ig
mi um
ĠO FP
Reg ressor
scheme s
termin ation
Dummy Request
[- ].
Select Multiple
GR R
Ġ// <
live action
tri ed
Ġwe blab
ĠMark up
sas l
: "<
L ondon
R i
d L
f cn
u w
v nc
Ġ Result
Ġ dirs
Ġ mean
Ġ pairs
Ġ video
ST MT
ur ious
co o
Ġ[ [
it ations
Ġi x
>', _
data model
(" !
Ġ] ]=
us able
inst itution
() >=
Str ings
ĠS ome
ĠS olution
ag a
ax elrod
"] ]<
my g
Ar r
>'] },{"
CON SO
Bo to
plot ting
Ġurl s
Ġl as
SP ACES
Pre view
ular ity
issue d
andid ates
AB ST
Ġclean ed
rsync mod
Mix In
instru ction
Calc ulate
Fig ure
Ġdeep copy
LOOK UP
umbna il
; '<
C ipher
E TH
I LITY
P ur
U tilities
g mt
i as
l gdal
n row
Ġ ver
Ġ plugins
Ġ curr
Ġ EOFError
re late
as sembly
': _('
__ =_
ad r
la un
ne tid
Ġ+ =_
per spective
list box
Ġ' ))<
Ġ- :<
Not Allowed
AN CH
be g
find text
Config ure
Add resses
glob s
>'] =<
Ġm ix
Index es
Ġh op
Al t
Ġw as
Update s
serv ing
byte order
person s
analy tics
Component s
invo cation
Ġsu ffix
Book mark
rdf value
scr aper
adj acency
Sta mp
':}, {'
Design ators
contra st
Ġxmlrpc lib
ĠArti cle
bul let
Corr Coef
STAND ARD
RECIP IENT
) ),("
, {
. +
0 7069
5 1554
E Tag
R ating
S LA
_ ='\
b ject
c q
k l
u ce
u str
Ġ connections
Ġ abort
Ġ celery
in ations
as semble
ro oms
ue st
get response
get Element
la ys
Ġ] [])<
ub yte
py x
fa milies
read ln
([ {'
Ġ' --
') %
by name
row count
Value Dict
trans parent
http retty
"] ='<
Ġg reen
Meta class
ay e
contain ing
contain ed
gen shi
16 64740
25 9026
commit ted
TR ACE
Event Handler
50 8030
slug ify
fd open
Code Generator
30 469
Inter active
__, __
19 624
Fe at
('. /
abc def
Ġst mt
Ġcon firm
90 64740
85 58
USE S
76 9
76 749
async io
mapper s
38 648
69 508030
STATE S
diag nost
Ġnum ba
54 7453
glyph s
45 239
168 38004
46 1422
paragraph s
=** <
bid i
319 07069
1637 447
1637 45239
220 9064740
Ġhy per
488 36
159 2840
HDF S
Nd array
1044 259026
466 5607
7100 100
EVAL TYPE
centro ids
173 30469
11579 16838004
1086 1592840
ABST FN
51554 10861592840
1664740 849
19624 7100100
8558 31907069
76749 4665607
38648 1157916838004
69508030 2209064740
547453 16
461422 695080302209064740
1637447 386481157916838004
163745239 48836
1044259026 54745316
17330469 855831907069
5155410861592840 767494665607
461422695080302209064740 16374523948836
1637447386481157916838004 196247100100
17330469855831907069 104425902654745316
5155410861592840767494665607 1664740849
" '
O V
P ane
Z oom
e voked
i loc
p anda
Ġ Login
__ '<
un escape
no ut
Ġin tegr
up link
to ut
is rc
class Name
sh elf
code gen
ith er
sc ra
Ġ[] >
length VarInt
ject ory
Ġ: ,
group ing
ID C
Ad just
)) ))
Un expected
Ġ+= *
graph ite
Pre sence
15 6
upper case
panel s
cla des
vr rp
Initi al
fu z
squ ared
MULT I
Gen e
MODULE S
':{} }<
COLUM N
) '),<
8 90
> ]),<
B M
C IP
C irc
F B
F AC
K I
M IG
Q Name
S rv
V oid
_ ')<
c args
j j
u er
Ġ agent
Ġ plan
Ġ signature
Ġ player
ar gest
ro po
co pt
Ġ[ ,
': -
__ ),"
ex its
di ameter
assert SequenceEqual
ri sk
path sep
int age
log It
Ġ: ]
load data
==' \
Ġc ycle
we ar
IO C
Me an
auto escape
auto complete
QU A
He ading
Dis covery
An im
poly morphic
seg mented
Member s
Sig ma
PK CS
SV C
asyn coro
Dump er
BOT TOM
LIBR ARY
> ]))<
B GP
M ath
X API
c ub
f names
g cs
h pi
k ml
m h
n inja
p ty
Ġ exec
Ġ meth
on om
ar ter
ch root
get members
,, "
arg count
is lice
type def
str path
os m
do f
ub untu
'} ,{'
Ġ[] :
sub domain
ten s
Ġre ply
module name
)+ ")
>'] ),<
attrib Text
attrib Clip
Client Exception
=- ,<
,[ ('
pu mp
") %
eval type
Dis ks
Ġsup ybot
SSL v
ĠIn st
'* )<
particip ants
DAY S
skill s
Pixel Type
hu ge
Writ ing
Ġtrait sui
ĠIntegr ityError
SHE ET
aye sian
) (*
9 15
E DED
H KEY
K ILL
O racle
P lug
S q
U nu
m ies
Ġ handlers
Ġ keep
Ġ progress
se mi
re member
sel ess
al phas
get root
ma ble
test Method
Equal ity
user Name
ist ra
Ġ* =<
dis connected
ĠS ingle
Ġb eta
AP ER
fin alizer
HT T
ci pro
stack ed
break point
vo ucher
sp lice
),( ,'
MM Y
Ġ[-] :<
Ġst ix
Port al
Work ing
Extension s
cred its
GROUP S
smtp lib
Usage Error
Note Resource
>}, {<
JO IN
TIT ION
Ġps util
radi ans
repeti tions
LoadFrom Storage
" ^
C e
E PS
F IT
L ike
M as
V e
c rt
g nored
t uf
Ġ Timeout
Ġ ZeroDivisionError
DENT IAL
on ic
me ters
at rix
', ,),
',' &
is class
Ġ] ._
py mel
In ner
fa ker
() )==<
Mo tion
==' /
Ġ* ))<
fix up
delete s
prefix ed
Ġr type
Form ula
sen ger
Ġm aster
gen ce
buffer ing
(- ,-
)),(' -
mil lis
home page
authenti cator
Pri vilege
ĠN on
ĠSer iali
PRI M
accep table
Conn ector
Ġspec ial
appro ve
CALL BACK
Star ted
Si bl
Ġaw scli
cipat ion
' {
E G
E nt
M er
P LA
P CI
_ =[]<
b ol
c assandra
k DataBrowser
m ds
q d
Ġ ss
Ġ play
Ġ elements
Ġ Load
Ġ compiler
Ġ Container
re servations
in cident
de mand
arg parser
cep h
Ġ] ]
read MessageEnd
pass words
>'% {'
AT OM
jo e
update r
," ",
NA P
>[ ,,,,,,,,,,,,
change sets
CH ED
>') ])<
ĠT op
pay off
compile s
tz name
22 22
Graph Type
My App
Ali ve
mq tt
Constraint s
fu zz
RGB A
=(,, ),
Real m
CEL ERY
umbl r
, ("
A rc
H uman
J PEG
R atio
g ff
j itter
j ython
Ġ lineno
Ġ cols
Ġ aggregate
Ġ QtCore
Ġ calendar
al num
ar ner
fi ps
Ġ[ __
': (<
', )])<
arg name
Ġin p
Ġin line
qu or
file diff
obj space
=[ ['
Ġ+ (<
RE P
ist s
Type Name
([ ,,,])<
Ġ' __
Ġre ason
Co verage
=( *
order by
AN SI
=[' --
'), ),<
cate gorical
be ard
ĠP oly
men tion
,_ ,_=
Ġm id
Ver ification
VER T
pp licationException
ha ving
Message Begin
TA pplicationException
") ).
Ġl b
alph abet
product version
calc size
Spec ial
NotFound Exception
Core Tlv
Cho ices
sur rogate
soft ware
TRAN SP
','',' ','','
>], ),<
resid ual
dur able
apic lient
DISA BLE
ORIG IN
cipro cal
- ])<
6 30
> ("
B ed
I SS
I RC
O LS
S OR
T F
T M
a de
c upy
g able
k t
m cycles
n lay
z s
} ")<
Ġ Op
Ġ height
Ġ mpi
re queue
in clusion
de cre
an alog
ret List
__ ',<
li ca
up loads
qu are
is a
sh rink
Ġ+ )%
che m
In dices
Test Data
dir names
call y
Ġf code
Ġf urious
Ġ[" _
'], ['<
Ġkey stone
>'] ):<
feren tial
,[ <
Connection Lost
Dec rypt
Ġform set
setUp Class
vector izer
cla ims
ĠtearDown Class
Unicode UTF
separ ate
CHAR SET
OPEN ID
':{ '<
ĠCre denti
Ġrel ative
IDENT ITY
intro spection
PDF File
inherit ance
Dig it
rich let
SHUT DOWN
' re
/ $
5 64
= ","
A ct
A BO
A verage
[ ^
k nn
k inds
o thing
s ns
w ill
z o
Ġ nc
Ġ consumer
le ton
ar di
__ ('<
__ ={}<
it ka
for ums
th readed
ri der
ss lobj
col no
Ġs olve
() ["
Con firm
ic a
sub tree
": }
ask s
Ad ded
ĠA ccess
ĠM od
ĠM ake
bin op
Time Field
HTTP Handler
auto discover
VER IFY
'+ '
sw f
Integer ObjectPropertyType
SO FT
37 0
mid i
Range s
sim ulate
Application Error
KEN DS
SOUR CES
launch er
CHOI CE
Required Mixin
vail ability
>'} ],<
Eval uation
('=' )<
smp ps
calle e
Positioner Name
slic er
INSER T
" },{"
C ent
X LS
h ack
t g
x ref
z i
} $',<
Ġ owner
Ġ second
Ġ power
Ġ distance
de m
get Edge
li ers
,, ,<
'] ),('
do ts
sh if
new path
sub unit
ac py
OR G
tag Class
Co st
sup ply
Ġb ro
color ize
)+ '.
pub sub
ĠT Protocol
Bo th
INT R
Server s
Ġl st
"), ),<
XML DAO
bundle s
seg s
trig s
COMP RESS
CA ST
vr id
Helper s
ProtocolBuffer DecodeError
Merge FromString
snip pets
artist s
Integr al
accum ulate
coe fs
MCI ERR
Convert ing
Predi cate
PROVI DER
GATE WAY
NetworkX Error
CATEG ORY
Loose Version
Ġlas agne
2 64
C c
D P
D MP
J ID
N AT
R AM
R Lock
S F
h al
l or
r specs
x e
Ġ metrics
Ġ WSGI
DE ST
ro red
get PrefixedString
qu ant
pro cedure
(" *
Ġ] /
Ġ+ ('<
(, (
RE SOL
Pro posal
ml ab
Str ipe
open ing
inter mediate
Model Resource
tes ted
ĠP open
ĠP RO
pp f
Fa vorite
ste ad
('/ ','
Ġif ace
TH IS
Auth Handler
40 2
slug s
,] =
TO TAL
ĠRe gistr
XML RPC
Argument Error
Sh adow
Simple TestCase
nam ing
Ġform field
Database Error
DU MMY
Cor rect
MAC H
fingerprint s
declar ations
Calc ulator
,[,, ])<
" ',
) },<
C US
G c
Q PushButton
R W
S ORT
S cenario
T ax
] '%
s re
Ġ act
Ġ Status
Ġ classes
Ġ Variable
Ġ environment
Ġ validators
re vs
in ce
in verted
de ct
mp oly
fi o
it able
ck ey
Ġin d
is link
path utils
=[ {"
Error Message
om bu
am ond
') []
sha de
De cay
Ġt type
SS Q
(_ ,
Op Cluster
Vi sibility
Ġpy brain
(,, ,),
struct ured
show n
HTTP NotFound
ĠD esc
ale s
':[ {<
DB TestCase
Per formance
ĠR ule
ĠR andom
PAR SER
Su ffix
Ġcon tact
Ġ]+ <
='/ '.
Parameter Error
distribu tions
Tran sition
49 6
Cap sule
ĠAr ray
Inst alled
Ġcase xml
DebugFormat String
D M
K it
g mm
o led
r db
w itch
Ġ helper
Ġ used
Ġ seconds
in Model
st ill
': ,'<
', _('<
__ )))<
return Value
un bind
di rections
assert Identical
int p
pa inter
Ġs chedule
ig ns
In herit
sc i
Test Command
sub tract
comm ut
Ġc r
event loop
Ġp db
sy non
Ġe v
rc v
fail fast
Ġn ested
Se ed
style sheet
right s
render able
DEFAULT S
payload s
seq n
SC ROLL
Project Factory
Ġ} })<
New s
Menu Bar
Ab out
AF TER
Mod ify
press ure
stor ies
Transl ationError
AG G
68 2
anim ation
Ġrobo tide
ĠLa zy
EXPERI MENT
* )<
/ {
8 3
D ashboard
c ud
r state
y um
Ġ signals
on y
IT OR
ct ree
get frame
un modified
(' {}
set x
>', [])<
pro duce
(" ~
== ):
he app
Re cipient
Ġ[] )))<
** <
Test Node
Ex tract
om b
Ġget pass
Ġre load
Pro ps
run pytest
sign ific
Di ms
Ġg s
first name
sche matron
ĠP ri
For ce
case version
pp id
SI C
Qu it
,[ ,])<
Ġ+' -
") ],<
,: ]
Ġsub net
ED GE
TER S
Ġres ize
Start ing
nb t
distribu te
At tack
Defin ed
([,, ]
','/ ')<
increment al
vpn service
Transl ator
phy sics
NEW LINE
hw nd
BAC KENDS
lit tle
Internal Error
((,,, ),
rat ings
MAG IC
Ġbla h
ĠTi mer
lore an
TProtocol Exception
4 50
C ircle
M ult
Q Object
R NA
R PM
] ")<
c dict
h ed
i add
t max
w agtail
Ġ box
Ġ zone
Ġ annotation
in ary
IT CH
it r
get Trove
ex plain
ty ping
up sert
data Type
obj id
Ġs o
Ġ[] ],
pre sen
context lib
>': [],<
Ġf reenas
by pass
Ġ% <
AC GT
Ġb lob
build s
=[' .
my file
conf s
mem cached
sq r
Object Identifier
CH AIN
>'] +
Client s
vis ors
By Id
TO OL
('. '):<
repos itories
ĠL abel
keep alive
Feed back
HttpResponse Redirect
does nt
Git Hub
vl ans
Ġsq rt
Repe at
Encryp ted
VL AN
HANDL ER
inten sity
) =(
E NOT
E SCAPE
M K
R AN
S pider
g old
h oney
l cm
v an
| \
Ġ ob
Ġ es
Ġ const
Ġ grid
Ġ thing
Ġ translation
Ġ Static
Ġ selenium
in bound
de al
IN HER
>' *
le f
ti ff
en se
', ',
get hostname
un load
), ):<
>', {})<
ed y
do u
Ġs li
line Edit
start Test
back wards
Ġf ollow
tag Format
uni verse
root Node
ĠM ain
job id
dest inations
Ra ising
mon ster
pub lication
HTTP RequestHandler
ud ge
TH UM
Event Listener
tran sitive
lookup s
dat atable
hist or
hs v
Template View
blob store
":[ ],<
Author ized
PL US
ĠV ector
>'], "
under score
Ter minal
__), '..
did Succeed
Reverse Match
individ ual
Ġmoz dns
ĠCal c
INHER IT
2 18
8 32
F lo
F ER
T im
l num
Ġ .
Ġ li
Ġ marker
Ġ Edit
re cs
get Child
for get
si mage
app yaml
url y
py py
com t
() )):<
pre amble
ca ret
Ġ' {}
Ġre lated
ds n
gr an
SE EK
De ad
AR C
cmd args
En velope
Up grade
Form View
lex ers
Ġrun ner
14 4
Frame work
Ġw alk
WOR LD
rep lies
operation al
tab ular
Obj Space
ik o
Ġ[]+ =<
compress or
sla ck
(,,,, ),<
Initi alize
bill able
='+ ',
Hook s
=(,, ,)<
Click ed
reco gn
hydr ated
OGR Geometry
EXEC UT
316 6
suggestion s
Balance Task
FINI SHED
employ ees
FLAV OR
G Y
N Y
b ic
b ors
g out
g pg
g allery
n able
q e
r ds
Ġ pe
Ġ dot
Ġ added
Ġ more
en semble
get context
for wards
ul us
,, ])<
qu at
et ched
len ce
Ġ] )+
resp ond
Con tr
bl ame
==' *
tp s
No Such
(( *
Ġ% {'
ll memory
AC KET
Model View
cmd set
)) ).
DI O
(,, ,))<
face color
Class Type
('/ %
Ġh mac
VI F
Ġ[:] ==
)), '<
"], ["
constra ined
thresh olds
draw ing
ram mar
DoesNotExist Error
chart s
tid x
CONNE CTED
Vertex List
VP N
,,,,,,,,,,,, ,),(
Manage ment
ĠHy drus
laun ched
) [-]<
- ')<
7 22
D RAW
G Py
K ill
O W
P ing
T abs
d ta
g ator
k p
l dif
n z
r Id
} '<
Ġ pat
Ġ components
>' @
al bums
': [],'
', __
__ ')
ut ing
no args
ing Task
assert Failure
'] [],
Con ditional
pre mium
RE VIEW
Ġre pository
Ch IP
ĠS ource
Ġp ipeline
ĠM on
)) :
Un til
pop item
NO W
ĠT itle
TR IG
vm ware
Ġ[:] =="
head ings
API Error
simple x
18 50
pen alty
vide os
200 1
Thread Pool
Exten d
Pool ing
(". ")
Program ming
OPER ATION
Private Key
REN DER
EXTENSION S
Cd Admin
Ġdetail s
cool down
dect ate
Ġfreenas UI
" >
5 39
B N
F ancy
N IC
R AT
S izes
e vp
f rm
r ational
z ing
Ġ Raw
se mantic
ro is
en dian
': []<
get int
un changed
un authorized
no un
ty per
'] )),('
key pairs
vi con
do i
sh im
per c
url fetch
bo unded
cre ative
=" *
version file
ren ce
ren cy
(), {'
>',' '),
ĠC G
): (
Class Id
Ġnode conductor
Ġh ide
Al bum
Check s
56 25
ĠE MPTY
Exp orter
locale s
visit ors
CRE DENTIAL
align ed
Ġz mq
PL ACE
sur f
tar info
Static Text
IM UM
Success ful
REQUI RE
Ġcap ture
istic Regression
Quo te
BA SIC
Ep isode
SPECI AL
bright ness
ĠMerge From
Ġale mbic
Behavi or
Ġcrypto graphy
satisfi ed
dou grain
3 14
= )
= ':
B est
C ARD
E asy
E numer
L at
O s
R os
U int
W ell
] \\
h c
s freq
t body
v host
Ġ $
Ġ points
Ġ verbosity
Ġ live
Ġ Equals
ar i
__ ")<
(' ('
pro mote
(< =
ne tif
(" >
che str
Ġs ome
=" __
form sets
back log
auth key
wa iters
)== ,'<
ĠM ongo
Log on
Log ged
ĠP i
10 5
Ġa lert
zip ped
40 9
Ġrun ning
Desc ribe
Inter faces
Py Node
rm ul
ĠRe port
PAR TITION
comple ment
vol ve
bp f
Ġeval uate
Rect angle
WE EK
Windows Error
Chunk s
")== "
Encode Error
xmlrpc lib
Ġmime types
='? ',
gar bage
Encryp tion
(,),(,),(,),(,),(,),(,),(,),(,),(,),(,),(,),(,),(,),(,),(,),(,),(,),(,),(,),(,),(,),(,),(,),(,),(,),(,),(,),(,),(,),(,),(,),(,), (,),(,),(,),(,),(,),(,),(,),(,),(,),(,),(,),(,),(,),(,),(,),(,),(,),(,),(,),(,),(,),(,),(,),(,),(,),(,),(,),(,),(,),(,),(,),(,),
May a
Explo it
Combo Box
MACH INE
" '%(
H SA
O C
f stat
m cpu
q f
r ms
t st
y data
Ġ Workbook
re covery
Ġ< ):<
tr us
mo some
,, ))<
set Window
to ll
os lo
ase q
import ant
In c
pl ate
RE AL
Val s
ĠS ection
Ġp oll
ging a
DI AN
struct s
rel le
attrib s
Comp uted
EN C
EN VI
Th an
Th rough
100 00
Ġ[:] =[]<
short name
feature d
mag n
Database Column
Ġsk image
CA LE
nova client
cenar ios
URI Ref
BR IGHT
Expression Builtin
Single ton
px d
>',, '
Ġdf vfs
assertGreater Equal
VIRT UAL
REPE AT
Neigh bors
intage ous
wear ables
CoreTlv Data
acpy pes
' (?
, ())<
B IDDEN
C en
F lex
R ide
c ros
g cd
p romise
Ġ Option
Ġ hostname
Ġ locals
Ġ Write
de lorean
ur k
co variance
el b
': __
__ ("
get header
pe dient
ex ha
ex posed
ad b
ri ll
'] ),'
po si
node Value
ec s
Ġf ra
open Repository
filter warnings
sig s
," \
Ġ" /
win utils
Ġg uess
send mail
Add Message
DO CS
SH IP
SH OT
ord inal
SO AP
34 56
bad ger
ĠRe cord
17 9
Return s
Ġcon d
Mem cache
Spec s
Ġ[:- ]:<
poly gons
Ġ>> )&
Host Name
termin ated
CM SPlugin
writ ing
Ġel t
integr al
STOP PED
Sli de
ĠIs Initialized
PN M
DRI VER
Ġsol um
Dense Layer
ROUT ER
3 18
C AM
K et
S B
] },<
f list
h ess
m list
p List
p ins
w l
z on
Ġ rand
Ġ std
Ġ year
Ġ ssh
Ġ activity
Ġ filtered
in direct
ST EP
__ ).
id Num
Ġi mple
ter r
der ation
vi e
", {})<
,' ..
In Memory
he mi
pre populated
am big
>" ""<
RE SH
RE SSION
ren gth
pos ter
ĠS up
File Type
Ġ]= {<
Ġ[]< :<
raw text
[] ))<
bin ds
Ġpy glet
ix Beta
Me ter
HTTP Response
>') :
sp in
norm als
Class Name
can ary
gra des
sn at
State ments
Server Factory
account ing
NE G
annot ator
Ġex abgp
Reg ular
Ġon adata
Token s
sin h
Read y
oc d
ĠH ash
fg s
cu ms
>')% (
>+ "
>+ '<
ĠBad Request
Ġ[:,] =
RETR IES
REPL ACE
ene fit
ĠAc count
Structured Text
YE AR
= ','.
C aller
H P
H ide
K A
_ ),
f inger
g x
n orth
p value
s ph
s ld
Ġ Info
ar ded
ro me
get host
get All
ut ter
li mp
di scri
cl r
set Widget
file Id
':' &
pro grams
'] [].
add Item
'} ,'
() )),<
Test Disk
pre load
Pro b
St retch
net bios
CO LO
Ġp t
current Row
!= :<
post fix
exp orter
CE ND
Ġg lyph
ĠC T
KE EP
men ue
MP T
addr info
Ġ], "
identi ties
Http Error
display Name
Th at
Ġ[:] ):<
ĠF LA
GL FW
Ġj ump
200 9
Util ity
SA FE
deri ve
Ġiniti alized
ACTION S
Te X
given s
aper ture
datap o
xlink Label
Elem wise
synchron ized
portSpec s
ju gate
ĠEnvironment Error
Opa que
emr fs
ALGORITH M
PDFFile Obj
> ]:<
B a
B IO
B illing
C XX
S andbox
j an
j List
p dict
p lex
r add
Ġ kernel
Ġ writer
Ġ dependencies
te sian
de an
name server
un split
Tr i
file size
(" $
ub ar
list Of
ig her
In voice
Re ward
ot or
comp ilation
LE G
Name Error
tag name
by ist
Ġ[: ],<
Ġp sycopg
12 70
ĠA p
job q
>[ {'
)) ),
conf use
Log Entry
sty pie
initi alization
,[ (
migr ator
pick ler
Ġw agtail
Module Type
indi cators
Ġj c
Ġ[-] []
Ġst ri
Ġcon ans
Exec OpCode
bal ancers
Comment Poll
pdu Data
spi ce
Access or
>'], '
diag s
Part s
sequen tial
Ġper f
isol ation
nex us
distri b
dum mies
fif o
spr ing
navi gation
cumul ative
aga inst
ENVI RON
8 34
= \
E m
E GL
P AM
S id
e str
k no
l arch
l sq
n ia
q op
u alization
v f
Ġ descr
Ġ Standard
al arms
as sed
if aces
nt ype
from file
up to
':' %
bu fs
bu sin
Ġ+ ")
date Time
'} })<
Con cert
sub graph
sub titles
Ch allenge
De tect
ĠS a
ĠS alt
File Dialog
Ġ> ><
uid s
"] ['<
Ġg iven
first lineno
uuid utils
ir der
sk ype
auto load
Char Filter
web root
train er
11 9
Trans former
dev s
17 4
transaction al
ĠE T
RI DE
Ne eded
may a
>')% {<
(',' ):<
ĠCon tact
optim al
optim ized
))+ <
Ġfe at
foot print
UNI QUE
Encode d
Progress Bar
overlap s
CLE AN
MON ITOR
PAY LOAD
descend ants
SYM BO
Prec ise
quor um
ĠCG AT
' ")<
4 37
A gg
B AL
G u
O XM
S lots
S CHED
W X
l ft
v ow
Ġ fig
Ġ month
Ġ servers
Ġ processor
Ġ Channel
Ġ chunks
Ġ deps
Ġ enc
re es
re ps
on error
de noise
co gn
un ter
si ded
ma ze
mo dulo
set Layout
", ("
bu st
log File
ca mp
ang uage
>': ,'
bl ur
reg isters
im m
im als
clo b
De fs
ĠS m
No thing
http client
Set Model
post al
local ized
SS D
)) [:
Ġ!= ):<
NAME SPACES
Comp ound
ĠD eta
access ors
cen der
SP AR
Dis connect
cb fun
Ġ** ).
Ġbase s
Stream ing
ik Planner
>} [
'^ $',
Record Type
ĠMy SQL
ball s
imat or
WAIT ING
mult inomial
circ uit
Ġtx n
Ġ[::- ]<
abbre v
capt ured
arri val
MONT H
SSQ ABS
THUM B
ĠCalc ulate
Programming Error
! ',<
" '<
A ck
C b
C raw
C ategories
Q R
V ol
c group
n pr
v il
Ġ choices
Ġ dumps
Ġ QtGui
>< /
as tern
if c
Ġ[ %
get pw
si tivity
ass ume
from str
test run
test mod
>', ['<
que s
Ġs ame
Ġ[] )==
od f
RE CE
Ġre maining
==' --
sig ne
event Type
SE Q
pos Tracker
make pyfile
>[ ,],[,],[,],[,],[
save point
send line
Log ic
Ġk ameleon
EX TR
web driver
skip Data
sort by
") ]
cap fd
Ġde sk
VI SI
,] })<
Ġsub mit
Widget Item
FOR BIDDEN
cr it
56 0
Ġobj s
)), "
Ġ[-] =
Oper ationalError
MIN US
99 9
Identi fi
need le
Listen ing
26 8
Ġsu c
'* (
27 29
autos cale
mr k
Sn ippet
{: {:
erarch ical
Fetch er
stand ing
war ded
Lin ked
SELECT OR
364 20
Ġpa asta
every thing
ĠOutput Unchecked
Comb ine
RELE ASE
cnx n
Unu sed
cums um
) !
) ",
B F
B as
F G
F X
H Y
N DED
P IL
S ound
a erospike
c raft
e ter
f key
l ms
t ups
u ca
u func
y outube
Ġ Ad
Ġ lower
Ġ enabled
Ġ hook
Ġ credentials
Ġ Counter
Ġ TryMerge
in dented
de e
el s
lo d
ma ko
val ve
file type
par ms
per imen
Test List
": })<
has Content
(), ['
man e
rect angle
session maker
Ġt xt
ll ab
task let
ĠM ap
ĠM ax
Ġfor ward
CE EDED
)+ [
send Message
stop s
br id
enco dings
OP CODE
Sub class
ba ud
Ca mpaign
And Raise
fit simage
Doc string
STAT USES
mount s
Input Output
ĠRe dis
layout s
()+ '
decor ation
Ġclo sing
pagin ated
Configuration Error
trip les
ĠEx cel
Segment ation
vid ing
Soft max
Soft ware
Already Exists
Associ ated
shel ve
wel come
Ġhist ory
FIXTURE S
Pie ce
neighbo urs
>[,,,,,,,,,,,, ,,,],<
perimen ter
4 84
7 39
A Y
C ute
D fp
G round
Q H
Q V
c amel
f ed
f lt
j enti
t types
w nd
Ġ ","
Ġ sent
Ġ sep
Ġ manual
Ġ Validate
Ġ NumberFormat
ur istic
__ ']=
un safe
li er
res sive
si der
ul ary
is inf
is infinity
pro viding
ne ib
col name
ht m
port folio
Ex clusive
([ '%
write lines
call FUT
Ġre pe
') ['
') ),('<
wid gy
De te
ag s
GE D
ly r
Ġ> ):<
User Role
last name
float s
Un ix
ĠI nt
emp loyee
":" /
Time Series
show warning
>'] (
>'] ['<
attrib Marker
rec ted
('/ /
cen tered
Le arner
Ġde que
Ac cep
Pre req
15 20
18 0
sym bolic
priv key
ĠRe move
cb t
side bar
Return ed
Ġ[:- ].
Ġ} ]<
Post al
like s
band it
anon ical
Sum Column
Region s
57 29
mut ually
'" },<
Copy From
CHANGE D
Br ush
VO ID
fasta file
-, (,):
DASH BOARD
Cuda Ndarray
PRODU CT
ĠPass word
Sibl ing
Ġjc vi
) [],
0 123456789
= )))<
D ar
E EXIST
G zip
L V
R ACK
S ALT
U CH
W T
W rong
a req
d se
d dl
Ġ ready
Ġ mapper
IT ION
ar ct
if ti
get Host
ing u
th op
), *
key ed
len ium
time rs
In strument
ER E
(, ))
dex p
ts v
method name
sys ctl
tok s
fix er
ĠS tack
AR N
"] >
Col lap
Get ter
UT H
sum m
Ġn n
ĠD uplicate
her o
50 10
diff er
14 1
Pre v
ĠG oogle
private Key
PER IO
light s
analy zed
SM ALL
HTML Parser
watch ed
GR AP
bd ms
Password Input
phone metadata
curren ce
extr acted
RUN NER
FILTER S
Sa ved
SW ITCH
collap sed
Mac ro
DRI VE
Sol r
APIT estCase
LOADER S
Compiled SQL
Ġta stypie
PROTE CT
" ")<
. ',
4 1
5 44
F ron
P s
d path
g lo
h orizon
s se
u ght
x paths
Ġ pl
Ġ sender
Ġ byte
Ġ activate
ar th
ch g
con current
test both
), ['
col d
Ġs r
node Id
Re corder
til l
": ("
bl it
Ġre vision
Pro vide
ME AN
su fficient
SE ED
Di alect
wa f
win sound
To gether
To ggle
Ġ+= ',
CH DIR
LI FE
SI S
static files
tifi ed
Instance Factory
system Id
deploy er
('- ')<
au c
18 12
cent re
tool chain
Ġ! ='<
Ġex ternal
transform Utils
37 16
ves ter
Ġun register
Ġtoken ize
Ġsh lex
Cor pus
COUNT ER
az oo
Fixt ures
=[,, ])<
Fin ish
pur chase
CB C
DL G
bat tle
mpa igns
refle ction
circ ular
Cy clades
Ġidenti ty
REA K
Ġmigr ate
ske w
STRI CT
Inv itation
SIGN ATURE
bur st
busin ess
3 34
6 32
6 27
9 2
D an
D ark
F rozen
G ra
L s
N M
P t
S park
W W
f lu
g ibs
l x
l key
m unk
n di
n per
r just
t series
w mi
y ticks
z x
Ġ aut
Ġ low
Ġ uid
Ġ statement
Ġ Component
Ġ Book
re gr
in dev
IN ED
st ash
>' $
ar bitrary
co ap
get Version
con ary
un cated
mo v
set Current
ob servers
':' {}
class dict
'] =="
Ġtest tools
mat lab
Ġ+ ":"+
ew ee
Pro be
ber t
msg Out
view ed
Co uch
AL OG
command number
," .
trans f
ĠM Render
Id le
DI C
ĠP ort
MP Y
>'] =(<
Ġopen flow
cli dean
KEY WORDS
tran sient
TEST ING
gest ion
Ġlist dir
Ġw here
Page s
PRE SENT
Source s
Ġ][ '<
Spec ification
Block Device
Ġ]+ [
Ġ& )<
Ġclo udf
... ")<
'^ \
vr r
Access Token
ĠV intageous
Ġ[][] []
)[: ,
yes ter
:- ]<
Null Task
>',, ),('<
IM G
Da ys
Ġsm tp
Spa cer
ARG U
startup info
Ġms rest
ĠOutput Partial
Excel Equal
ĠByteSize Partial
PrimaryKey Constraint
Ġdown grade
vul n
Physical Quantity
ĠCl uster
-,(,): -,(,):
' (
. "%
3 36
J ust
R P
S NAP
b ank
h one
q ty
Ġ work
Ġ packages
Ġ serializer
Ġ generator
Ġ members
Ġ library
Ġ Root
se ase
re commend
an der
', ):<
res pect
assert Output
assert ExcelEqual
Ġin v
ri a
is p
value Of
ip n
ip address
Re ferences
print ing
base Name
>': (<
sys config
Ġc inder
view port
row n
api bytes
Ch at
datetime s
Com ma
ĠM agic
nc var
fin ance
ĠTest Get
src dir
book keeper
cookie jar
Dir ty
Sh ard
Ġtw o
255 19
CI ES
LIST EN
Dummy Resource
unic orn
Ġsource s
pow ers
Parent s
REF RESH
CHANGE S
((,, ),
MAR GIN
stru cted
Ġ'/ '
COLUM NS
Contin ue
Ġtar file
cance ll
Sequen tial
refer rer
Ġintegr ation
indev Materials
yester day
6 39
D V
D ur
E very
G RAY
H it
M Fn
R ich
W here
_ ():<
b iter
c vt
e io
g ps
m aterials
s ch
} '),<
Ġ secret
in ted
in terest
at on
an itize
', ],<
Ġi rc
Ġi zip
ad words
val ign
file h
il inx
vi ps
la ir
=[ ,,,,,,,,
end time
(" @
() =='<
ot onic
(, )==
line a
"," &
vent s
Field Error
Ġ* /
sig num
use Fixture
Base Exception
local Name
Un available
df w
ĠP op
bre w
,_ ):<
Comp utation
allow s
Ġtime r
19 6
24 8
85 7
,],[ ,]])<
Author ity
wal ker
([" -
invo ices
avg Line
Lim ited
Train ing
Dele gate
smo othing
ĠJson Response
ipsec policy
}: {
Ste ps
ĠSto re
REVER SE
treat ment
' '",'
= =[<
G OP
G RA
R ack
V K
d len
g cm
h box
o cr
u k
z h
Ġ ab
Ġ Start
Ġ constraint
Ġ roles
Ġ routes
Ġ define
Ġ facebook
in ame
in finite
on to
me chanism
an sible
co il
name servers
lo ut
ch s
un available
), (<
ob ox
':' '},<
model field
ip c
() ))
ot u
Test Gyp
port group
Ex clude
comm track
Ġ: ],
ber s
Lo wer
Key words
sy nthe
NA S
err check
network ing
Un pack
Ġg f
Ġg re
of p
Log Handler
the re
lat s
cap sule
SP LIT
Version Factory
14 24
scale s
cc n
HO OK
Ġj ava
ĠR ange
Document Cloud
Sh ot
Ġlog out
bi ases
>} ,,
IF ACE
Inst aller
cend ing
Signature Method
':[] }<
shi eld
ske leton
FH IR
reach able
mang led
isomorph ism
honey pot
vrr pv
' #
, (,),
C nt
H IT
c nonce
f open
f light
g acy
h dlr
k inter
l ift
t vtk
Ġ changes
Ġ disconnect
IN LINE
Ġ< =<
ar ith
get Num
un ge
one t
assert Log
Tr ac
set Name
',' *
age s
", **
fa vicon
min d
>'% ("
ok o
Ġre start
content Type
row id
input args
ll dp
copy tree
exp s
ak a
Ġg u
Ġpy mel
NO TE
ir mc
Time zone
the ad
addr Len
initi ator
INT EN
PRO GRAM
Element Node
parti cipation
Ġh ref
anch ors
Int o
ĠO ne
15 85
__= ()<
RI BE
rb ac
vers ity
Xml Element
spect or
Cookie Jar
flo p
stor let
foot notes
ĠMulti ple
QUO TE
(,(, (,(,
ĠMan ager
"][] ["
FORWAR D
CONSO LE
- ))<
C AR
C andidate
D URATION
D rive
E ther
L R
b ak
c ul
i ri
i sion
Ġ fixture
Ġ Stop
re call
in h
or ters
at ts
LIT ER
un zip
si p
Tr ading
vi al
app id
ed u
lin en
(" \\
date util
object map
py doc
db aas
ot une
line cap
temp oral
bl d
low level
check ing
Ġc assandra
Co up
man ip
No Follow
Di visor
qui sition
>',' '))<
ll y
User Resource
ime d
ker beros
play lists
mission s
rel lo
>: ('<
Ġ/ ))<
over view
PRO C
EN CRYP
Ġde lay
Temp Dir
,], '
Ġw ho
Ġconfig parser
Control s
An imal
PAR TI
Be autifulSoup
',[ ('
CONTENT MODEL
pas sthrough
inspect or
gradient s
Depre cated
Br idge
expan der
datatype s
Sp ell
HER E
PUB LI
chro mosome
depart ure
(,),(, )])<
Sorted Dict
Bus iness
ellip se
capt cha
Increment al
ĠBe autifulSoup
Fra gment
prece dence
Retr ieve
Credit Card
XLS X
Ġdesk top
QV BoxLayout
3 80
A Z
F SM
S UR
S olution
V m
] ",<
d op
d butil
h an
h arness
m type
r args
s mpp
t roke
z c
Ġ units
de cess
lo sses
assert Status
op arg
=' (
(" ^
able APIResource
Ġ+ :<
In vocation
kw d
() ]))<
Con fi
>'% __
new est
Ġd ry
([ ,,,,,,,,
Ġ' ).
ali ased
tag ger
filter ing
Lo aded
Ġ- ],
Key Pair
Ġor dered
Ġt m
ll vm
RO T
=[' *.
ĠM atrix
ĠP ay
bre aker
>') ),(
Comp uter
are as
Content Handler
Ġl s
install Profile
ws dl
,: ],
Size Constraint
org s
PATH S
Multi ply
"), '<
Down loader
bound aries
factor ial
Ġun quote
CONFIG URATION
Work load
geo ms
Profile r
SIG NED
cla zz
:// '+
IF EST
LIC ATE
BACK UP
BIN DING
Linear Solver
maybe Deferred
fault String
colour s
Ġorig in
CHAN GER
assertRedirects NoFollow
synchron ous
Mail box
}. {
GENER AL
SECON D
abbre vi
Opa city
pret rain
Ġnu itka
ĠSoft Layer
Contr ib
discri minator
. '%
9 1
C mp
C LOCK
F ETCH
L BR
S hel
Y ET
a ud
j l
l CorrCoef
m se
n in
v ex
y gg
Ġ ce
Ġ loads
Ġ Device
DE LIMIT
in ux
de ath
ar man
ge sted
ue s
', )]<
un hexlify
ul ing
cl ust
th in
,, [
is scalar
url safe
bo keh
node group
ger tty
sub list
>" /
ts tep
group name
Ġre ference
pri ms
Ġ" {
FI LL
Par sed
User Warning
Ġb ig
ĠA t
Get Position
To File
CE LL
.. ..
cy l
cy clic
{} .
Ġm r
ud ing
Aut om
Group Id
)> >
Ġopen id
OP S
loop back
Ġj asmin
perm utation
CONT IN
ĠE num
36 9
Ġbase name
rb d
SQ LAlchemy
SY NT
WA VE
spi kes
ĠNo Such
BR ANCH
rdf values
ilo ver
flo od
foreign key
>[,,,, ,,],<
IZ ED
=[,, ],
Related Field
=='- ':<
SENT RY
Cla im
synchron ize
METRIC S
Ġrad ar
dts g
neur ons
Migr ate
commut ative
magn itude
menue ntry
clob ber
LITER AL
: '):<
= :<
C pu
F lash
N t
P id
_ ='',
b rand
c used
g name
i start
p rom
y ml
y ou
Ġ fi
Ġ pass
Ġ Format
Ġ Role
or test
an ame
ret ain
get User
get slice
li a
di graph
mo z
'] )]<
'] )),<
'] )['
time str
pa asta
po i
max es
fa vorite
BO TH
late nt
sub j
sa v
Ġd fp
status code
St ars
gin ary
fe as
Ġ- ])<
=_ (<
ib atch
AP PEND
Form Errors
View s
Dict Mixin
QU IT
Inter vals
Int Opt
Ġno te
=(< <
Pre pare
JSON Field
timezone s
review er
cri spy
Jo e
SUB JECT
Ġ[]==' -
az ure
Ġ][] =
come s
ĠQ Q
expan sion
ggreg ate
('" ')<
Bro ker
dur ations
ĠOpen SSL
JO Y
SEQU ENCE
DMP APER
,,,,,,,,,,,,,),( ,,,,,,,,,,,,,),(
Dfp Client
. ','
F ab
M DS
N I
W all
a co
d Data
e ager
g d
j ane
m ise
n arrow
r as
x pr
x sd
z set
Ġ fixed
Ġ comments
Ġ edges
Ġ article
Ġ launch
Ġ Route
or let
', )),<
ch is
ex clusions
res izable
si mp
test tools
up pet
ob serve
Ġ[' %
=[ ,]
lin der
Ġ+ ":
Ġ+ ]=
url unparse
** *
Co ords
SE LF
proper ly
Ke eper
ĠS SH
Model Base
build Attributes
ak u
Ġpy game
ĠC ap
Log File
Log isticRegression
Ġ/ +
Handler s
gen re
sw t
Ġl n
Ġde pre
)/ (*
AM QP
)- (
suite Class
Ġ{ })<
86 0
export Attributes
export Children
drop ped
aff ected
CR LF
FIX ED
correct ly
>')% <
,],[,],[ ,],[,],<
SELE CTED
ctr ans
EXTE NDED
Fault s
land marks
Ġgo od
SN MP
vx lan
REFER ENCE
REGISTR Y
VISI BLE
$ ",
- {
3 55
5 16
: ',<
= =["
B l
B ob
C FLAGS
E v
I W
U b
b fd
b ayes
f ct
f uel
g ca
r data
v h
x html
z A
Ġ sel
Ġ primary
Ġ vals
Ġ Pool
Ġ fakes
Ġ discover
Ġ Debug
in y
st rength
le ek
', ]<
get Current
un g
si l
ap is
th aw
test Case
':' -
':' _
Error Raising
(" (
user Id
In cident
Re minder
config File
til ing
am f
base dn
cess ary
>': _
([ [,,
') ]),
ME G
template tags
lock er
cor s
ĠS ha
Ġp in
32 0
Ġt rove
task lets
User Error
)== ):<
ĠM MAL
UT HORIZ
CH EM
Ġr ank
ĠC ar
Se en
non blocking
coun ted
Content Model
FF FF
Th readed
)/ /<
)] ),<
Gener ation
)- ):<
Ġiter ator
na mo
Output s
Thread ing
Ġop tim
55 9
licen ses
Tool Bar
ĠV olume
VT K
Clean Up
alle st
Authenti cator
Used In
)% <
tour nament
foot step
../ ../
rag ma
Parti cle
tweet s
provision ing
Ġgl ance
COLLE CT
ropo lis
posi tives
ĠFLA GS
Prereq Error
, "<
- ]+
8 24
8 332
A tt
E lastic
F M
H z
I mplementation
O SC
R V
S ong
S cripts
k ype
l fs
p ds
r dy
s ids
s cenarios
v cd
x d
x ticks
y ms
Ġ Value
Ġ props
Ġ HTT
IT TER
__ ']<
id r
un tagged
one ct
assert Precise
th onect
ab b
'] )))<
type of
app scale
=" [
start Service
sub reddit
sa ving
tra ffi
red raw
reg s
split ted
Ġp ull
File List
ax y
AC Y
-- -
Op PrereqError
win s
of port
first Child
Log Level
LI KE
cf fi
left Side
skip Test
PRO MPT
IL Y
,] ]<
Property List
30 2
edit win
Ġconfig s
cr s
listen TCP
Ġ[-] ==
Be arer
Ġsup ported
gt f
Spec ific
44 17
Params Error
Choice FormSet
DEF INED
Ġinter val
')+ '
ValidationTest Inline
Ġmark down
),, '<
pli ed
',[] ))<
ear ly
optimizer s
stand ardi
Ġ**+ *
Hyper visor
PAY MENT
Ġrecei ver
incre ase
THE ME
laci er
ligh ter
Orient ation
Grow th
KW ATTRIBUTES
gibs C
GOP HER
UTHORIZ ED
assertPrecise Equal
) ["
. \
. """<
1 306
7 55
= )).
B AM
F lavors
H ARD
N once
S G
S ink
S outh
Z MQ
] ],<
d te
e h
h en
h oriz
k k
k ay
| %
} })<
Ġ null
Ġ NO
Ġ warning
Ġ already
Ġ Worker
de co
or chestr
get Target
th es
), -
ob a
is ation
is finite
str ate
os f
log book
pr un
col span
,' /')<
Ġ_ ('<
print f
"," <
ject or
>': ['<
write MessageEnd
write MessageBegin
pi lot
cor rup
act s
Base View
AN ON
exp onential
Ġe poch
rc pt
)) -
DI GIT
met al
Me ans
auto increment
CON D
ash ape
ĠTest Compare
cli mate
Instance Type
ĠB it
sw appable
Th r
imp ala
__, {'
Multi Dict
Be Used
RI X
Host name
LATE D
Buil t
Cl one
SM ART
prec inct
ĠIn ternal
Generic ForeignKey
watch ers
sli des
MEDI UM
Lim its
embed ding
dete ctor
adjust ment
Pix map
sus pended
Ġregistr y
commen der
PIX EL
plur als
augment ation
Ġlb ry
AGG REG
signific ant
ĠExcel ComparisonTest
QH BoxLayout
2 16
A vatar
B old
B REAK
N AN
P HO
P CA
b link
b readcr
e z
e id
f set
i ved
i exact
k ins
l port
l ccn
o ok
p ressed
r header
x v
Ġ mat
Ġ Logger
Ġ cast
Ġ aliases
me try
STR A
en roll
get peer
pro mo
pro of
Ġ+ )]<
== {'
In tent
ot ti
LE X
pi vot
Value SizeConstraint
Data Object
ĠS Q
ĠS ize
CO IL
No ArgsCommand
Key Name
RO ID
NA IL
play book
Un set
PO LY
)+ ,
opt in
pol ls
namespace URI
sort able
OP CODES
Connection Pool
':[ ('<
Ġl dap
SO ME
rep orted
ĠR pc
PAR SE
PRE V
Start Time
abstract property
asset store
cla imed
79 79
Poly nomial
([,, ,]
TABLE S
chron ous
MAN IFEST
coll ada
Ġ[,] :<
stru ctions
eu clidean
compar sion
PN G
Excel ComparisonTest
asser tions
gebra ic
DETAIL S
CREDENTIAL S
>[,],[,],[,],[,],[ ,],[,],[,],[,],<
Ġcloudf erry
flop py
XLSX Files
ErrorRaising ArgumentParser
tiling ual
ĠTestCompare XLSXFiles
8 000
C ATION
C ube
D r
I LE
S ON
S phinx
S ocial
V el
g loss
k n
w get
Ġ Widget
Ġ Entry
Ġ cost
Ġ backup
Ġ mouse
Ġ needs
Ġ maybe
Ġ Observable
sel ist
tr ading
get file
ing Error
ass ay
set Icon
to array
la ve
Error Handler
out liers
Ġ] [].
po isson
Test Run
config parser
Ex tent
start Pose
ts db
mage nt
Ġre quires
Ġre cursive
Ġc andidates
nd x
ĠS im
ĠS how
Ġp anel
>',' _
Ad j
Ġe e
raw data
err code
Get Client
'], {'
Time d
Ġv cs
Mock Request
Form Field
For SSQABS
oper ating
Ġa jenti
PRO P
ĠĠ ĠĠĠ
public Id
Ġresponse s
Context Menu
dele g
24 9
rpc server
rep lica
merge ncy
Su g
We apon
Pa use
rb f
push Button
":[ {"
',[ <
FIFF B
submit ter
bench marker
']+ =<
Stub Config
77 2
IMAGE S
BE GIN
kit benchmarker
Ġpage s
comb obox
cn f
STYLE EDIT
FRAME WORK
Sp here
dur ing
Parti cip
El se
POLL IN
Ġcs rf
ĠReg ister
,,,,,,,,,,,,,,,,,,,,,,,,,,,,,,,,,,,,,,,,,,,,,,,,,,,,,,,,,,,,,,,,,,,,,,,,,,,,,,,,,,,,,,,,,,,,,,,,,,,,,,,,,,,,,,,,,,,,,,,,,,,,,,,,,,,,,,,,,,,,,,,,,,,,,,,,,,,,,,,,,,,,,,,,,,,,,,,,,,,,,,,,,,,,,,,,,,,,,,,,,,,,,,,,,,,,,,,,,,,,,,,,,,,,,,,,,,,,,,,,,,,,,,,,,,,,,,,,,,,,,,,,,,,,,,,,,,,,,,,,,,,,,,,,,,,,,,,,,,,,,,,,,,,,,,,,,,,,,,,,,,,,,,,,,,,,,,,,,,,,,,,,,,,,,,,,,,,,,,,,,,,,,,,,,,,,,,,,,,,,,,,,,,,,,,,,,,,,,,,,,,,,,,,,,,,,,,,,,,,,,,,,,,,,,,,,,,,,,,,,,,,,,,,,,,,,,,,,,,,,,,,,,,,,,,,,,,,,,,,,,,,,,,,,,,,,,,,,,,,,,,,,,,,,,,,, ,,,,,,,,,,,,,,,,,,,,,,,,,,,,,,,,,,,,,,,,,,,,,,,,,,,,,,,,,,,,,,,,,,,,,,,,,,,,,,,,,,,,,,,,,,,,,,,,,,,,,,,,,,,,,,,,,,,,,,,,,,,,,,,,,,,,,,,,,,,,,,,,,,,,,,,,,,,,,,,,,,,,,,,,,,,,,,,,,,,,,,,,,,,,,,,,,,,,,,,,,,,,,,,,,,,,,,,,,,,,,,,,,,,,,,,,,,,,,,,,,,,,,,,,,,,,,,,,,,,,,,,,,,,,,,,,,,,,,,,,,,,,,,,,,,,,,,,,,,,,,,,,,,,,,,,,,,,,,,,,,,,,,,,,,,,,,,,,,,,,,,,,,,,,,,,,,,,,,,,,,,,,,,,,,,,,,,,,,,,,,,,,,,,,,,,,,,,,,,,,,,,,,,,,,,,,,,,,,,,,,,,,,,,,,,,,,,,,,,,,,,,,,,,,,,,,,,,,,,,,,,,,,,,,,,,,,,,,,,,,,,,,,,,,,,,,,,,,,,,,,,,,,,,,,,,,
STC STYLEEDIT
ATT ACH
DH CP
aur ant
diagnost ics
Mas ters
TestNode Group
Ġperf kitbenchmarker
PERIO D
LinearSolver BeUsed
LinearSolverBeUsed ForSSQABS
- ,)<
4 23
G W
H ot
H AL
H older
L ap
N K
Q Dock
S pe
Z K
] "<
a min
f us
h ort
j boss
n cols
n gram
t u
Ġ geom
Ġ pet
Ġ Organization
in form
ti fs
ex ons
un ted
ad ict
from XML
set Field
to XML
ob servation
is upper
ms vs
", [])<
py xl
cre ating
pre processor
sub menu
Ġd uration
([ "%
run nable
string ify
doc x
," /
=( _
we red
sign in
ag ree
AN NOT
Ġ> :
Ġb p
Ġb ayes
ĠM al
bin omial
Or d
ĠD OM
Ac cum
Th umbnail
App Config
Gr r
API C
=[(' ',
An alog
ĠR et
Variable Set
Change set
Change Form
70 4
ATTR S
Sup ply
PL AN
Ġweb app
([,, ]))<
virtual name
Over lay
Te ch
DOWN LOAD
Async Poller
(': :
Sim ulation
trac ted
Rot ate
(": ")<
Ġmay a
nex thop
MANAGER S
princip als
ffff ff
FOUR CC
UNA UTHORIZED
STAR TED
Ġgs lib
leftSide HTML
magent a
3 37
? '+
C ut
G au
K S
L etter
M et
N B
O UL
P al
T FS
U Int
W allet
d sc
d ht
f ortran
k Poly
p and
p unctuation
s ftp
u cs
Ġ direct
Ġ ports
Ġ seg
Ġ pipe
Ġ charset
Ġ arcpy
get Text
get Parent
di sease
th ings
,, ),
test cases
=' &
key ring
us m
col names
'} ],<
py glet
ig ar
"," #
comm is
Ġc ss
Ġc uda
ile Coding
AL CHEM
parent he
sy nop
number ing
mar ked
df lt
CON SUM
Ġn b
Le arning
Inter preter
Pre ferences
Py rax
Found ation
Ġst re
Ġmatch ed
Seriali zation
LU G
follow ed
Regex Lexer
bg color
definition Node
VAR S
OFP Match
ATTRI B
TABLE NS
(',' )]<
ĠData Error
ĠElement Tree
Linear FAT
Sw ap
dete cted
Tw isted
FRA G
==[ ]:<
jump kind
semb ler
recipe s
FOL LOW
birth day
TW O
Small IntegerField
Ġdif fs
xb mc
Ġstar ted
FEATURE S
signe e
PHO TO
LinearFAT ileCoding
+ ")<
/ *.
D rink
I ED
K w
L ON
M el
P od
W ar
_ )):<
b one
c ad
c ma
d to
j n
p alt
t sa
u an
Ġ am
Ġ ',)<
Ġ JS
Ġ memory
Ġ Policy
Ġ manifest
Ġ prob
Ġ quiet
DE LI
se que
ser ves
name list
un def
for bidden
ma de
nt s
set Style
=' ,<
to y
'] ],
Ġs am
,' '<
raise d
() )-
=" _
cur ator
base Equation
den d
den sed
sup pression
ĠS u
split s
Ġp wd
TE NA
use case
ph ases
pk cs
ĠI mp
oo db
Ġk nown
Ġk mip
ong s
LI BS
Ġa relle
tmp name
execute many
IP ython
Or Divisor
long name
sn ake
fd r
ĠRe gex
reason s
Ġcon struct
Ġcon sole
Sh ader
='/ '+
integer s
clone d
COMP RESSION
({ :
Interface Error
Dist utils
Has Global
Pick ler
ĠName space
rout ine
delimiter s
Rest art
Ġ[:,] .
configur ator
ĠConnection Error
Origin al
BAR I
=". ".
Extended Versions
Ġ[,: ]=
MIXER CONTROL
Pl us
ĠSpec ific
Multiplier OrDivisor
Restri cted
CEND ING
GRAP H
SYNT AX
UsedIn ExtendedVersions
ALCHEM Y
baseEquation HasGlobal
TENA NT
baseEquationHasGlobal MultiplierOrDivisor
" },
, ),("
/ '%
A pa
Q Dialog
T up
U V
a cos
b ps
c j
c file
g po
g row
i y
y un
y our
Ġ tail
Ġ mac
Ġ permissions
Ġ monitor
Ġ sections
re dir
de hydrate
er c
ge mv
id oc
un re
rom an
arg out
Ġin file
qu x
et l
'] ==:<
key path
obj c
app info
sh ed
Ġis file
model Document
py ramid
py rex
wor st
In direct
() [],
(, *
": (
": {}
ali a
') },<
ME AS
token iser
spa cer
input hook
we chat
AR P
AR ITY
other word
Model s
mar ke
site maps
ĠC ertificate
ched uler
thread pool
Char ListModel
DB LOCK
,] :<
AM BARI
Dis posable
prop ortion
Count s
56 06
Map s
publish ers
AS Y
Token izer
... "<
)** )<
week ly
mut ations
WE IGHT
bsd grp
COOK IES
Play ing
Wrap ped
acces sible
aaaa aaaa
Ġrecei ve
Ġ**- *
MAT RIX
Ġretri eve
vox el
Fora Native
homogene ity
RAT IO
Enumer ation
baud rate
OUL DBLOCK
Pyrax Exception
palt man
+ )
1 30
C AT
D ic
D ns
E Q
E log
G H
I MAP
M ANY
S MI
S IOC
U r
W ild
] ',<
b urn
d as
f etched
j query
l range
o cc
s cen
v ity
Ġ Window
Ġ abspath
Ġ like
Ġ then
on accept
ge te
ort ho
si bi
('< %
ap k
,, ),(
Ġin c
set Visible
is Set
par m
ss Command
log dir
== -<
Re quested
aut otune
Ġ: ].
ok ay
update PolyData
Ġc ar
gr u
den y
lock set
inter ceptor
Ke ep
Ġ" -
Par ty
Set Input
build Children
ĠM atch
Ġe cho
off ers
Get Text
hash able
cp ds
Ġ[], ))<
CH A
Ġ], ["
rec A
16 9
FO CUS
Per sistent
SC AN
std lib
gl Tex
edit ors
Ġto ggle
Frame s
19 65
Invalid RequestError
PA USED
Ġpre d
Ġo vs
Ma ker
tf r
unpack er
Fail s
OF T
forward ing
Ġreturn ed
Pattern s
)| <
REQUI RES
wave forms
friend ship
Da ily
ARCH IVE
PROCESS ORS
DEN IED
CLE AR
=[,,,, ]<
Associ ation
coefficient Designators
Dependent Data
replic as
Ellip sis
, }<
8 39
A AS
D G
D AP
F reqs
M TP
M otor
Q Color
Q Font
S LE
Y our
b crypt
e mergency
f info
k ick
n k
n ur
p type
r dist
u its
z fill
Ġ mem
Ġ Doc
Ġ outfile
Ġ hello
Ġ serve
Ġ projects
Ġ bootstrap
st alker
ge ncy
en kins
co p
get Type
pe ar
li tem
li tems
ul ty
ri vate
set trace
ne ibs
lin est
Ġ] .__
Ġs id
model Manager
py art
[], "
db ase
Re quires
sc aler
ht t
Con tract
": {'
np m
son gs
lib cusolver
==' '
Ġc ases
gr and
Lo cations
cor rection
CO S
Ġt weet
dep end
List Property
ĠM IME
En tities
be red
Un do
ĠI llegal
)+ *
Ġr llab
Command Id
10 20
View point
>') []<
the Other
Ġ/ =<
LI CT
Se g
pay ee
Sub Class
bind pw
Th eta
lav es
Code CPP
lis ter
Address Book
"+ "
Ġun do
utc fromtimestamp
Ġclo sed
when ce
pad x
Xml Serializer
('_ '):<
('_ ','-
Listen ers
Socket Server
encoder s
Only Type
Cap tion
Ġdir path
cron tab
altern atives
prepa rer
trac ing
extent s
explo re
WAY S
Ġ[... ,
Tk inter
('../ ..
equip ment
RunTest If
Ġrelation ship
("=" )<
ĠTw itter
Favorite Drink
, (),
2 745
3 17
A O
E COMM
E BAD
H IDDEN
M arg
P AS
S ITY
X Path
a ward
b ell
c groups
d K
d ask
d abe
e gress
f abs
f qname
i ra
k el
l apping
l argest
o ai
q ry
r api
r sock
s lip
v w
v list
y an
Ġ arch
Ġ Integer
Ġ matrix
Ġ combine
re loader
me tic
er f
as dict
ate gorical
tr ips
ex pec
di versity
time utils
time period
end pos
Ġ+ ="%
Ġ+ ':'+
user names
py hsm
In fra
In sensitive
ip mi
Ġ[] ._
error Code
temp l
count down
Ġget text
Mo der
Ġd d
tra jectory
Pro cedure
lib doc
ute ster
check Box
md k
Ġp ad
>',' --
LO CALE
Ġt up
root Tag
make Connection
Ġb abel
ĠA gent
ker as
ker ning
)) )
page size
64 49
primary join
Ar row
ĠC ho
ĠP DF
10 7
gen da
=- *
)> ):<
EN DIAN
':[ ,,],<
Ġh i
Ġjson utils
Ġrun Test
ink s
Ġ** (
Ġiter values
200 8
MIN I
Exec utable
CONFI RM
Ġ[]= ='<
DateTime Property
gpu data
',[ '<
35 23
Extension OnlyType
lap ack
LINE AR
='. '<
lim ate
WORK ING
CF UN
Track ing
Grid Search
Cap abilities
=[], []<
MAN AGE
rd class
Ġ[,] =<
Ġopenstack client
Publish ed
TOP IC
()* )<
Short cut
offer ing
310 7
sus pend
Roll back
Configur able
decryp tion
ToSt dout
THUMB NAIL
ĠRet urn
> |
A VE
A sn
G uest
I x
K nown
M ak
N at
O ct
O US
S sh
T urn
Y Y
e ti
g ig
o le
p ango
r str
r rs
Ġ 6
Ġ orm
Ġ private
Ġ counts
Ġ mpl
Ġ unknown
Ġ shift
Ġ terms
Ġ algorithm
Ġ atomic
st x
an ine
co don
assert Call
arg names
la w
lin er
default Test
he m
() ==[
>'% {<
index er
Mo unt
lib fab
Ġc ute
api method
im db
No tes
ib ility
>',' -
root Obj
ph an
'), [
Ar t
Ġ[], (
AD V
Log out
.. ")<
men ubar
oper ate
ifi able
identi cal
MO UNT
20 57
UP LE
Struct ural
ĠKey word
14 7
ĠG o
lan e
37 4
na ke
CONF LICT
rb m
oc tets
coord ination
EM R
Sign up
review ers
("/ ")
just ify
cred path
Mar sh
509 7
Ġmod ify
FC GI
Ġ!=" ":<
vertical Layout
>}, ),<
broker s
Pop ulator
Bound ing
hv params
REL ATION
FORE GROUND
Hi erarchical
Im mediate
Black list
bvl ci
LIVE ACTION
fuz zed
ABO RT
trus tee
traffi c
synop sis
CFUN CTYPE
A vailability
N b
N avi
P D
P ins
S US
S pin
T ake
g ro
k shp
Ġ visible
Ġ family
in ge
de serializer
st ime
IT ext
ser y
ct able
', (('
__ =='
con jugate
un nel
un resolved
arg Def
Ġin f
key Order
vi gor
do e
add Quick
Ġis dir
log istic
col x
py name
db type
In terest
Re ciprocal
create s
RE USE
Ġget Child
version ing
Ġ' ''<
write line
Ġf ron
host port
doc utils
ow er
(), **
ĠS cript
Ġ% {<
Ġb son
'), :
'), (,
To Statement
Add Error
=- (
pol ar
ener gies
,] ],<
ba con
Result Set
deploy ed
priv acy
DATA STORE
Ġex periment
ĠL icense
Ġdi g
ven ance
85 47
Core Foundation
44 59
pad y
vol atile
fr n
Ġcol l
Raw Response
smart test
Ġinst alled
Ġinter faces
arge ted
depre cation
Activity Id
bio guide
ĠSe curity
Split ter
XX X
substit utions
haz mat
CY AN
':[] })<
autom ation
>[,,,,,,,, ],<
Ġregistr ar
summar ies
Expan sion
Aff inity
laci an
Hard ware
doll ars
nbr s
PLA IN
ĠCredenti al
rdb ms
Ub untu
ĠHTT Mock
commis sion
CONSUM ER
8 30
8 99
E ff
G CE
H M
H DR
I jk
J vec
W alk
] "%(
b abel
f zero
h li
h rm
h igher
p unct
q isrc
r ght
u mable
w ate
y le
Ġ NS
Ġ Expression
DE PEN
ge ti
ro ck
ret Value
', -
get current
con j
con ch
li web
ad dition
di vider
), (,-
key set
os sible
ed p
cep tion
Ġis o
pre processing
(, )],
read I
new er
LE SS
Ġc nt
Ġc ri
') ]))<
dis posed
SE NS
No tifications
use rena
Ġb rowser
ĠM ac
oo keeper
ĠC or
Comm unic
MA J
Command Line
Is Initialized
16 05
Or None
Ġ[- :]<
PRO J
lease s
DB Feature
Lay ers
Dis cover
ĠG yp
Ġ! =_
Ġex clusions
Ġex pedient
ĠRe direct
plan et
Open PNM
meri cal
Read File
Cur rency
tom cat
>} ],<
CI AL
0000 000
ee g
GI F
Ġid le
']+ =
ĠV o
Ġsh ard
zz anine
dri ven
(,,,, ,)<
>+ ',
Wh ile
through put
((, )))<
ĠSe quence
pur pose
Unique Together
ĠModule Error
Dig ital
bracket ing
Ġmime type
oh lc
aug mented
TTP s
Eng lish
Ġcy box
presen ter
Provide s
':'{} '}),<
Apa che
sibi lities
" ':<
) ,,)<
- *
/ "%
5 21
8 56
I mmutable
J z
L u
M X
M ut
P ACKET
T IO
W heel
c itations
f min
g no
i eld
p on
q size
s key
} '%
Ġ Header
Ġ loaded
Ġ deployment
Ġ Failure
Ġ mesh
Ġ truncate
Ġ posixpath
re o
de ck
ar do
ct ag
lo mb
__ )),<
it ute
tr is
get boolean
li e
li g
set slice
>', ,<
is alnum
ra ms
es ome
data structures
ss a
code d
col type
max length
Ġ[] >:<
ot p
=" (%
pre set
pre decess
ader s
ac cel
np ick
ten ds
Ġ' '
red shift
write I
ds l
Pro j
Ġc ross
Ġas set
Ġas pect
im izer
inter sphinx
Ġx l
act uate
ĠS n
Ġ[" __
root dir
RO WS
post script
>[ ,-
64 9
sq la
olu tions
Ġr aster
Ġk ombu
addr Addr
Ver sioned
Se lenium
rt n
Fact s
ĠB log
wait For
':[ "
Ġh aystack
VI SION
,: ])<
18 95
PAR T
AND ROID
SU RE
39 86
Template s
COL S
Button s
oc ab
Ma jor
='/ ',
Range Field
bal lot
QUEST ION
SQL ALCHEMY
cus parse
[- ])<
fl v
38 36
Mod ification
addCallback s
SHA RE
ĠEx periment
Multiple ChoiceField
Wait For
ALI ASE
('.') []<
infra structure
ĠUnicode EncodeError
"* )<
Ġcm ds
Embedded Document
Percent age
Ġspa wn
Compar ator
arct an
Particip ant
1 16
6 84
8 16
H IVE
K lass
P GP
Q Text
S pect
X path
d F
d ge
g client
k id
l cd
n h
n frames
r pt
t mo
t state
x val
Ġ Number
Ġ series
Ġ networks
Ġ Transform
Ġ what
Ġ Engine
Ġ deferred
se cho
or pc
an om
ge mm
th et
ri ck
set Header
set blocking
pat ient
=' $
ob yte
il t
vi r
add Task
lin pred
Ġ+ (-
'} ])<
default filters
() )).
Ġ[] )*
sa le
server Name
im read
No DBTestCase
qui z
AN SW
ĠM etadata
'), {'
domain name
Get Id
Config s
Ġr gb
{} ))<
rel ati
tal ic
Me chanism
LI P
VER Y
role Name
src s
Fa sta
long long
Ġnode Map
Ġde serialize
book marks
Admin Form
std dev
alph an
sm allest
pick ed
Ġno tification
dec imals
Line Edit
18 55
200 6
Ġmatch ing
PER CENT
Ġformat s
ĠHttpResponse BadRequest
executable s
LOC KED
Ġlib saas
floating ips
Ġmin imal
hyper visors
trove Info
Over flowError
Ġdecor ated
bgp vpn
Spa m
PYTHON PATH
",, "
([,] ),
tech s
PACKAGE S
incip al
Repe ated
HI DE
({} )
Freque ncies
Clip board
mal n
Ġexample s
assertNo Output
ĠRel ated
bvl pdu
msvc rt
Ġda ys
Ġcal vin
PRIM ARY
"> >"
setWindow Title
Growth And
ĠGyp Error
" '.
" ".
* \
, ",
1 10
D ash
G amma
H alf
N X
R am
T G
T ar
] '%(
a ul
c info
c xml
e mb
j vm
o ser
v dis
Ġ side
Ġ Box
Ġ USE
Ġ numbers
Ġ grp
re commen
in er
te es
st ones
st atistic
me sg
ar cs
ti ze
el p
Ġi map
get url
get NewId
un ordered
no isy
assert Regexp
th umbs
arg er
'] )==
import ance
(" {}
Ġ+ =["
log on
po le
py mongo
ER T
print able
cur se
Ġd c
blank s
cor ona
ĠS hell
No tifier
zer orpc
ll db
mail s
RO LES
RO UTE
Com ic
local name
dest dir
Get Output
[] ]<
)+ ".
oo ey
Hand shake
ir s
Ġm igration
ĠT e
MO RE
('/ ').
trace Name
parti als
Ġurl join
':[ ,],<
HE L
HE AP
sym links
ĠRe pository
Ġdo cker
CP D
Ġ} ).
My MIDI
']+ '
Min i
chan ize
Comple ted
compo sition
assertNotEqual s
Ġconnection Lost
allen ger
Verify Group
OPEN STACK
"} }<
Inst ant
Sorted List
thro ats
':(,' (
MY SQL
Trip le
classic Materials
Termin ate
AU DIO
895 18
istra il
RAN DOM
=='* ':<
Autom atic
nur sery
'),: _('
, )),
4 79
; ','
B ED
F RO
G N
I ron
P list
_ ("
d pd
f args
f prop
h vp
r applied
s laves
u meric
v z
v cr
Ġ Count
Ġ fast
Ġ validation
Ġ thumb
Ġ fixtures
Ġ channels
Ġ Stats
Ġ packet
Ġ transfer
Ġ memcache
Ġ ${
re create
in du
in sertion
IN VAL
>' "
er rored
ro bots
__ ,'<
ch astic
get Debug
con ven
('< /%
ati me
not null
end date
(" &
Ġ] )==
Ġ+ ].
po em
py thonect
ER CE
om in
am d
sub query
>" ),("
Ġ' ='
Ġf k
check in
cls name
Ġ- ].
Ġ[" %
AN O
List ing
Ġb ench
nc er
conf d
Un signed
)+ ','+
Ġr alph
ĠP rint
Text Box
>'] [
sk i
Char ge
sp m
Comp ati
multi p
Ġline a
Ġde part
Per manent
diff set
cc c
tx hash
Method Meta
Ġapp info
86 84
Ġfile path
score r
prior ities
gt fs
Block ing
Ġ} ],<
oc cur
CRE AT
99 99
destroy ed
Ġ:' #
big query
END C
Min ion
Ġ[:,: ]<
Ġ[:,: ,]
Defin itions
car tesian
flatten ed
Volume s
Ġnorm al
san iti
UcsFactory MethodMeta
Cancel led
OVER RIDE
IPAddress Field
summar ize
ida api
Age ncy
ĠSa fe
EXTR ACT
abb ix
Thr ift
oodb ye
ECOMM ERCE
getDebug Folder
/ ','
A K
B ROW
C as
E astern
F V
G RE
G eno
S ms
S ND
T y
b v
d dof
i si
k ub
z omb
Ġ ag
Ġ Po
Ġ tools
Ġ states
Ġ analy
Ġ possible
Ġ definition
Ġ keras
in tel
de ci
Ġ< :
er va
ar dian
ur a
def aul
mp q
co a
', (,'
__ ._
__ ,)<
__ ","__
id ay
ch al
Ġi con
get Data
get File
con c
un saved
mo oth
ap ath
arg Set
Ġin ject
qu er
=' --
ab orted
ol lower
'] ))*<
app builder
=[ (,,
end Date
sh ortest
ve cs
Ġ] ))
Ġ+ +
che stra
Re cent
sc lient
read link
"," ").
Ġre cipient
Pro cesses
ali yun
Ġ- ,<
AL WAYS
(), {})<
SE L
Ġ[: ,,
sup ybot
No More
Ġ]= {'
FI G
Base Field
title ment
Ġb ag
ĠA ctor
>[ ('<
be m
CH ART
Ġr l
ĠC an
10 125
Ġk otti
select s
ĠT CP
ĠT ABLE
web Reference
pc ap
can LinearSolverBeUsedForSSQABS
Ġopen pyxl
commit ter
20 22
ĠD own
sn r
Ġ[:] =[
batch er
sched uling
Inter action
DER R
Ġupdate s
Rel ay
Ne goti
ĠGet DataCacheFunctions
Ġgroup by
Min ute
Ġ[:,: ]=<
Reader ParamsError
Dialog Instance
WORK ER
Ġ]* (
Has Field
(',' )
COM MENTS
Offset Form
tri vial
nor b
blueprint s
Rest aurant
Ġ+". "+
'' '
Expi res
TRANS ACTION
OPER ATOR
autoGenerate Inverse
autoGenerate Reciprocal
autoGenerate GrowthAnd
autoGenerate OffsetForm
Dig its
Atom Base
GENER IC
CRYP TO
MULTIP LE
Ġmongo engine
GetAdditional ModelPredictions
XMLDAO Base
Decay Forms
gethost byname
ĠCalculate ModelPredictions
ĠMagic Mock
Ġlbry net
HAL F
ĠSpecific CodeCPP
Marsh alling
webReference URL
autoGenerateInverse Forms
autoGenerateReciprocal Form
autoGenerateGrowthAnd DecayForms
" ),('<
' |'.
+ '<
/ )<
B ias
C KED
G ot
G ain
P ad
S prite
S MPP
V PC
X SD
[ ,,,,
b last
e mul
e ula
g win
i ro
k f
k rb
l Z
m ur
n ss
x a
y d
~ (
Ġ listen
Ġ modified
Ġ compress
Ġ seek
Ġ widgets
Ġ entities
Ġ peek
sel ections
te ro
IN STRU
le ct
al so
ser ted
__ ),'<
un mapped
li ation
ad is
and ler
file ids
is bn
result type
Ġs oft
Re write
Re commender
Ġ[] =(
>" {
RE BOOT
RE SOURCES
Type Info
>': ,'<
table Name
output File
gr ants
open File
Not Available
Par s
Ġb s
To Bytes
pop ped
sq s
frame rate
Ġr slt
ĠP ipeline
Form Mixin
IP s
sp ine
Client Endpoint
web browser
norm alization
MO F
(- ),
SH EL
Ġde tect
NE UT
SC AL
ĠF rame
API Exception
cr ap
elem wise
Page Size
Variable Ref
WS A
Ġst ub
Exec Error
oc tet
Ph ase
',[ (,)]
Ordered Set
cnt x
Select Field
At Current
bt c
ĠNo te
relative delta
Socket s
tri angle
Geometry Field
cms plugin
Unique Constraint
')] )),('
TRANS FORM
FUNCTION S
contour s
lk p
Tick s
ĠLib rary
grace ful
sle eper
bea con
NEG ATIVE
netbios name
Ġmanual integrate
MAJ OR
',[(,)] ),('_
* '<
/ '):<
9 4
A re
C t
G st
H ive
I ts
K NO
M ime
P as
T ilt
V C
c ite
c igar
h aystack
p mid
r ap
r tmp
s aml
v ac
x rn
} ;
Ġ ST
Ġ sec
Ġ Parameter
Ġ docs
Ġ Utils
Ġ rotate
Ġ TranslationError
re order
in jection
IN C
ro bj
if rame
el ly
__ "<
__ "):<
ch ap
Ġi gnored
si cle
si zed
arg min
set Item
>', )})<
not found
qual ities
add Both
(" ","")<
pr c
py lons
ack et
com mented
fa m
() ),'
field set
Fi rm
ho urly
min val
sub folder
Ġre fs
host names
fe v
Value Type
md l
parent dir
ĠS um
wa ff
Model With
ph er
remo table
AN CES
mis sed
Set Sizer
build ings
ĠI ssue
DI SC
mem map
oo se
Ġr p
io api
struct uralNode
stack y
pp ing
attrib Glyph
limit by
'+ <
Comp at
ĠB oolean
(- ))<
Ġde serialized
install ation
DB L
He ap
batch size
API Handler
)] =<
gl Color
CK ER
37 44
'\ (\
SU MM
rad ial
WS AE
iso time
hy ph
SY N
LATE ST
Ne ed
mpl itude
CM C
Mod ifier
ide al
Edit able
extr usion
Ġ// +
relationship Set
START UP
ĠCon su
dependent s
outer r
Initi alizer
Ġcomp ass
LEVE LS
digit al
Hist ogram
war p
WBEM MOF
Monitor ing
Inf os
ĠUnicode Error
DISP ATCH
MIME Text
ASS IGN
Ġbind ing
Datetime Index
Loc ust
Username Password
Impl Val
cusolver Dn
Scr aper
Stre ams
Anonymous User
COLLE CTION
Ġ[]>= :<
GetAdditional DataCacheFunctions
gad get
ĠOver flowError
cud nn
Tim ing
Inc Subtensor
ENVIRON MENT
Dar win
cancell ation
ANSW ER
, )),<
. <
1 123
2 11
A syn
H R
N ifti
P LE
Q Rect
S AM
S LICE
_ '<
d umb
e mo
f used
p func
p bar
s bin
u Job
v mdk
x pdu
Ġ ,
Ġ Editor
Ġ marshal
Ġ atexit
Ġ contribute
Ġ LookupError
re w
re current
IT IES
er fc
ro b
ex pl
ul p
assert That
val ara
,, (,))<
to ModelObject
ob tain
ss o
bu ser
Ġ+ )
In d
In dian
fa x
Test Tools
>'% _
ac celer
"," +
sa f
back trace
Ġd ynamic
Ġ' ?
Ġre quested
Ġc pu
') ]=
reg ressor
(), ))<
Res ume
Data Model
ag ue
Base Admin
exec file
Ġb ento
change desc
ĠI mport
ns p
MA KE
{} ),('
Ġk v
sk in
Ġ/ (*
ps d
SI ST
rot ated
(** {<
engine facade
sent ropy
pair wise
sync db
dat ing
24 6
Ġ! =<
cat ter
agg s
cloud Error
gre eting
uler s
Runtime Warning
Ġst andard
Exp licit
flat page
ĠBase TestCase
home dir
LU Cluster
Parse Exception
Stop ped
sol ved
',[ ,],
21 30
quan tiles
manifest s
WR AP
ĠSer ial
glyph Name
BACK GROUND
Remove Field
EW OULDBLOCK
ĠSy nc
palet tes
Sim il
Weight s
DY NA
amb ient
bri ck
>[,,,,,,,, ,,,],<
calle es
ĠMem ory
elastic search
afi i
QSize Policy
')]), ),<
Ġpet l
addQuick Element
" }),<
" ,,,
( ())<
, )],<
4 15
E U
F rm
G U
G i
N ick
P ull
U MP
b son
d ob
f ns
h or
h eld
o ot
r U
s To
t gz
u ti
u ds
u alize
x ct
x api
| <
Ġ alt
Ġ Ro
Ġ NOT
Ġ machine
Ġ trigger
Ġ serial
Ġ Upload
Ġ netloc
Ġ piece
de alias
le ments
an array
el net
', )))<
get addrinfo
con test
un ify
ma ginary
(' (
file id
is method
is Valid
path spec
'] %
'] )):<
out bound
Ġ] )):<
date format
pr it
max imize
instance Id
Test Error
Test Cluster
Con an
Con struct
read out
Ex ploration
ac cent
>" __
Ġ: {
load txt
Ġ' )
Ġ' :<
md grp
su cc
cor p
sup plied
man n
Data Stream
ID L
List Of
"] []<
build dir
Po sitions
ĠA ny
Up per
win ner
ĠI denti
cer n
sum mon
stop ping
Ġm i
Ġn g
Message Field
volume ops
('/ '))<
conver s
ĠB cfg
part name
Ġde mo
Integer Property
Admin istr
Ġadd on
SC SI
gl ut
av ing
activ ations
Ġu liweb
As Text
MS VS
calc ulated
Fail ures
99 4
WA NT
Enum Field
nn z
bb b
)** +(
SUB MIT
VM ware
Ġsa ved
BE FORE
Debug ger
Definition Node
POINT S
WSGI Server
Mes os
deriv Test
PROCESS OR
('.') [:
lik ely
=(, )).
Selected Features
FACT OR
eng lish
spike train
Cred Account
Too Many
Vertical Panel
Ġreal m
Foot step
Photo s
assertNo FormErrors
Prote cted
spar sity
Late st
shif ted
hed ral
Identifi ers
PARTI AL
Contrib utor
DELIMIT ER
Ġoptim ize
NEUT RON
, )]<
2 33
A UD
B UND
C our
F r
I talic
L AT
S leek
b lend
c ash
g oog
h ang
j c
l SelectedFeatures
p write
t name
t gen
u ix
v rules
x o
Ġ For
Ġ LOG
Ġ Property
Ġ utc
Ġ structure
Ġ parents
Ġ converter
DE MO
on click
IN K
st on
ar biter
ge tid
mp g
if ex
Ġ[ +
': (,,),<
ret tified
get Property
ad joint
ma v
assert Response
Ġin crement
to x
ol den
add option
(" |
fo v
Ġs in
py o
he me
he uristic
Re presentation
Test Server
(, )),<
min ibatch
start key
fun copy
Mo vie
St uff
msg type
Ġc er
') ]),<
nd iff
=_ (
fix edi
AL LOC
last Logon
To AST
mon o
warn s
exc er
Ġpy on
ĠC LI
Form set
sen sitivity
VER S
Char To
Char SetModel
Qu arter
height s
anch r
std scr
({' _
Control led
Input Layer
Ġfile no
Ġindex es
dns HostName
Ġzip line
COMP ILE
38 7
('_ ')
Channel s
Tra il
GP S
ĠEx c
(,,,, ,,
Unit Test
>- ,<
Async HTTPClient
PARAMETER S
resid uals
SOL R
ĠSub scription
bon us
Aggreg ator
Soft Layer
Sec ure
ike policy
Break point
ya jl
Hi erarchy
Ġfree ze
Dat atype
(.* )
('.. '))<
ĠMem ber
ĠMO AL
fan out
Ġsyn apse
scra pe
Ġimple ments
Postal Code
TFS Point
SLE EP
Structural Nodes
! !
, )).
> $
B id
G allery
K D
Q T
S tem
S lope
U uid
X HTML
f ine
k h
m si
m ca
o file
t we
t ally
Ġ te
Ġ Work
Ġ Generator
in stead
Ġ< -
as ctime
ti ps
ro per
co he
': -,<
ct f
lo pt
get source
test bed
set Attr
set ToolTip
path Id
'] >
ms build
app en
(" ".
date span
,' '))<
,,,, ],<
art z
format Message
>_ ("
Pro jection
ali zing
msg pack
ME TER
Co res
im ized
act A
service Name
session id
Base Action
ION S
"] ).
meta model
conf test
UT IL
Ġpy lab
replace ments
UN DER
EX IF
Resource CleanUp
MO BI
over load
TA PE
") [].
cap first
Le gacy
DB AAS
He art
Image View
Ġsub scription
sock type
DS AP
Ġw iki
19 24
ĠG EO
rep oname
Ġ[-] ['
()+ '\
Ġo c
Pri v
allowed Attributes
()== )<
mag ics
Redirect View
cid rs
ja cent
ĠN ULL
Ġtask flow
ae tools
Ġco eff
)[: ])<
bra ce
Cor ner
Zero OrMore
Deferred List
certificate s
65 356
thumbna iler
aris ons
Display Name
Ġne on
,-,- ):<
fault s
ĠResource NotFound
Geo IP
ĠFe ed
Fu zzy
('= ',)<
COLO UR
"]> >["
cul prit
linen os
' ",
+ ')
1 34
B TN
F mt
K V
N PDU
[ ('<
] ",
a ver
g lu
n lin
v cpu
Ġ ctype
Ġ actor
Ġ sheet
Ġ ops
Ġ center
Ġ selection
Ġ adapter
Ġ program
Ġ consume
Ġ ginga
Ġ aliyun
re seller
fi df
lo om
', ),('<
__ =[]<
li ms
ad di
test it
ri ends
set Property
), {'
>', []
der s
del slice
", []
bu mp
add Layout
Ġ] ="
bo w
Ġd x
([ _
St orlet
fix es
=( ,,,
=( -)<
ĠS orted
Ġp du
Ġ]= ('
ll s
Ġ> ,
make site
User Data
Ġb order
)) (
be am
Node Driver
send to
Ġ], (
Ġn ative
norm alizer
Class From
Bo unded
ĠD rop
ĠB inary
Valid ated
display er
owner s
Ġtime it
Tag Set
annot ated
Ġ[:] ]<
30 5
Format ted
enumer ation
Ġw ant
proto type
Filter Statement
Validation Exception
,,, ,<
MIN OR
high est
final url
ach er
Load ing
38 81
Ġ"% (
spect ral
77 7
',) })<
rx bs
Bool Opt
EVENT S
ĠData set
mob j
Expr Evaluator
ĠComp ute
Alter UniqueTogether
substit ution
239 6
Ġsample s
Des cend
GD AL
RETRY ABLE
('/') [-]<
elev ated
PLUGIN S
Hydrus Data
PAN EL
Fra ction
Deriv ative
Serialize ToString
tagFormat Simple
gran ularity
Accep ted
arth breaker
Asyn Coro
DYNA MIC
$ '<
- ):<
F ortran
G DB
L G
O WS
T om
V lan
W s
X S
[ ,])<
_ '
_ ':
_ )):
a rena
b type
e bq
f val
g limp
h du
l cmd
l geos
l arger
r idge
s mat
t cd
v card
v nic
z p
} },<
Ġ ri
Ġ team
Ġ chars
Ġ latest
Ġ peer
Ġ misc
Ġ pause
Ġ Html
in visible
an stalk
ro pe
ur y
if ilter
el ine
__ =<
tr as
get D
ex pat
un matched
ke et
up np
qu ared
qu obyte
and s
len s
ne trc
ne cessary
Ġs te
db file
max y
() *<
Ġ[] &
Test V
line join
main loop
lib cloud
msg info
old ObjId
Set ter
post code
Get Item
mem or
)+ ')'<
Ġr ate
ĠC lose
Add New
>') ;<
>: (,,,),<
addr Type
Ġm c
Se mantic
Client Token
rec B
EN CODE
Item Is
af fic
DB C
By Statement
VI E
weight f
ĠF ore
Int ro
\\ \\
15 55
tw ist
Option als
56 8
ipel ines
bad s
ĠRe ference
Level s
runner s
COL TYPE
Array Writer
ĠBase Exception
Ġ} ,)<
Colle ctions
99 5
33 33
Ġformat ter
SQL ite
percent Change
lab or
fire fox
prox imate
gam maln
ĠEx ample
FS CTL
para keet
CD LL
optim ization
Ġdecor ate
keystone client
sug gested
Objects Returned
TASK S
CAP T
voice mail
112 1
BOR TED
ipsec site
RR P
inch es
ji ra
Ġslug ify
externalbytes sent
externalbytes received
SEG MENT
recogn ized
TRIG GER
LBR Y
COLLECT D
oba hn
unre directed
ALIASE S
zomb ie
# ':<
. '),<
2 36
4 22
6 12
? ',
A da
C tx
F our
K DF
L t
P KEY
S fa
T ok
Y ield
b h
d per
d nd
k all
n xt
o ad
x z
x fer
Ġ stdin
Ġ blue
Ġ authorize
Ġ artifact
Ġ Builtin
Ġ Question
in til
in gest
on update
al ters
as cending
ro unded
ce f
ce an
': :
__ ','
id ual
Ġi dent
no data
di ted
di alling
mo ments
',' @
vi olation
str uncated
time gm
Error With
ne y
bu bble
(" //
log like
che matron
Re maining
sc oring
Ġ[] ]+
ca as
ho ver
sub system
ten sion
Ġ: })<
size Style
([ ,
=, ,<
Case Structure
ib is
Ġp b
AR ROW
32 1
Ġt vtk
wa struncated
"] =[]<
)== {'
ĠA ll
>[ ("
Get Current
requi site
[] }<
rel name
Ver bose
VER IFI
vo ip
sample d
wait pid
af fi
eno ugh
Al locate
Trans mit
fore st
Ġsub scribe
Task Set
Create ClassFrom
Dis count
js name
chain er
ĠG lobal
Option Group
('. '))<
ĠRe lease
ĠR ender
Ġdo m
_= ='<
Open Key
Ġres ume
retry able
ven ue
70 37
Ġop code
Parse Args
Stop Time
CS RF
33 39
Ġformat ted
Ġexc info
Ġvis itor
Sup press
pm f
GR ID
26 5
',),(' *.
Cer ts
Grid Layout
(,,,, ,,,
Ġel astic
')+ '<
Ġ][] ==
nl ri
stage s
Train er
Contact s
floor div
Ġen aml
='* )<
Ġ[]] ['
[,,], [,,],[,,
Ġregion s
fla ke
EXPI RE
Bra cket
DUP LICATE
tlv data
Ġbra intree
busy box
redu ction
Ġhigh light
FAC ILITY
ĠPop up
Ġwho osh
mise s
gibsC MapEntry
" ','
0 10
A FF
A REA
C UT
C DATA
C Types
E VE
G lass
L CI
P illow
R ally
R sync
T anh
U ED
g lacier
h ad
l z
p uid
r typer
s pot
v ect
Ġ cos
Ġ neg
Ġ Controller
Ġ Interface
Ġ minutes
re fund
de ed
de cls
or k
ro bust
ser vo
Ġ[ ['
tr aps
ing re
di str
mo ther
assert Column
th ook
test ring
',' ):<
is alpha
], )<
qual name
sh allow
Ġs parse
max well
=" {}
aut ore
ac r
form ul
Ġd l
lib ssl
Ġc ategories
view ing
fe conf
00 37
=( ',',
Ġp g
Ġp df
(( +
nu cid
ph ot
http rettified
"] }<
top dir
Ġfor um
search ed
ĠC ell
Time Array
Time Zone
Ġv ector
Ġa i
Ġa re
UN RE
UN ION
br ush
pp m
vo ters
EX E
ste el
MO DS
,[ [
Ġh it
Query Value
real name
ĠG pu
imple menter
XML HttpRequest
mu vex
deli ms
deli vered
Read ing
Tree Item
Project s
csv file
NOT SET
Post gres
Session Id
Ne tr
EM BED
Ġsy mbols
Bar s
... ')<
Parameter Value
89 4
Ġq a
Jo urn
Tool kit
Password Field
band s
Person Model
Named Types
rdf lib
Worker s
123456 7
dete ction
associ ated
Trove List
ĠPY THON
RU LES
deriv atives
NETWORK S
Bro ken
sdk core
EXCEPTION S
propa gation
ether net
descend ant
spread sheet
coup ling
ĠArgument Parser
Prote ction
Cycle s
Cri ter
NOTIFIC ATIONS
MIG RATION
TRANSP ORT
Ġfra gment
ĠMySQL db
SNAP SHOT
Supply Point
Ġaliyun sdkcore
intil la
0037 86
) =_
) "),("
* /
3 50
= ':'
= )),('<
C url
C he
D BO
N FS
V pc
X MPP
] )
b name
c import
i policy
k oko
n ub
n ib
n ical
n channels
p ml
r idden
s proc
v k
z min
Ġ fact
Ġ templates
Ġ axes
Ġ Url
Ġ rollback
se maphore
Ġ< )<
ar ker
ch imp
to ver
>', **
Ġ[' $
app hook
out name
Ġ+ ",
